the 1130281
. 1112082
, 1070273
of 659698
to 599177
a 549289
and 535395
in 353114
is 264489
that 201886
for 169884
The 151021
it 148447
I 148393
with 148064
be 147695
&quot; 147550
on 144092
you 139518
as 126582
was 124367
&apos;s 115681
not 102560
are 100430
or 98163
-@@ 95137
an 93026
have 87745
he 85547
at 84088
by 82032
his 78413
this 75635
from 74845
can 70235
but 64034
will 60555
has 60453
one 56796
your 56734
: 50598
out 49850
all 49697
had 49628
they 49503
her 48755
up 47106
said 46966
we 46133
their 43438
more 43361
It 43325
would 43118
its 43041
my 42815
which 40760
were 39077
into 39010
been 37575
like 37203
so 37035
if 36979
me 36970
time 36909
; 36084
? 36042
In 36024
about 34478
&apos;t 34388
do 34386
when 33347
But 32705
He 32679
A 32340
she 32165
him 31743
no 31461
also 31352
who 31109
) 30435
( 30359
there 30081
&apos; 29366
them 28696
some 28562
un@@ 28533
er 28417
other 28173
people 28147
only 28090
our 28007
than 27800
what 27340
s 27061
s@@ 26790
could 26506
may 26182
t 26135
This 25982
If 25924
just 24856
in@@ 24527
new 23838
over 23749
y 23053
us 23052
any 22968
way 22577
used 22315
re@@ 22007
how 21979
see 21928
And 21923
two 21641
should 21209
p@@ 21208
very 21035
most 20818
d@@ 20340
much 20267
man 20145
ate 20024
make 19904
We 19844
able 19465
You 19367
then 19367
get 19289
ing 19209
these 19189
! 19180
after 18918
f@@ 18714
life 18662
ed 18580
S@@ 18555
first 18493
g@@ 18352
use 18352
now 18332
work 18161
- 18092
w@@ 18041
good 17877
such 17825
even 17773
down 17735
know 17722
system 17389
years 17317
es 17308
e 17296
through 17271
back 17185
world 17070
many 16979
b@@ 16903
made 16901
day 16861
because 16420
m@@ 16172
well 15945
did 15773
t@@ 15701
When 15299
take 15017
between 14898
h@@ 14796
own 14742
k@@ 14701
go 14614
c@@ 14588
still 14493
e@@ 14485
bl@@ 14482
China 14471
They 14413
ers 14288
before 14205
off 14148
To 14120
must 14116
long 14032
think 14022
y@@ 13961
might 13938
little 13901
As 13889
water 13757
year 13727
ts 13686
where 13638
o@@ 13594
ch@@ 13573
few 13398
l@@ 13355
being 13349
dis@@ 13343
’ 13296
say 13086
ly 12830
those 12797
D@@ 12698
too 12641
less 12636
st@@ 12598
H@@ 12585
each 12523
P@@ 12432
need 12427
She 12417
i 12416
ation 12318
age 12308
an@@ 12262
right 12204
old 12114
ic 12109
around 12031
k 11899
want 11897
help 11864
company 11745
There 11736
T@@ 11713
ar@@ 11705
don 11642
sh@@ 11641
o 11628
For 11519
G@@ 11518
B@@ 11504
always 11369
great 11336
says 11330
part 11310
al 11300
often 11276
p 11266
al@@ 11252
next 11240
set 11171
th@@ 11156
m 11145
while 11060
F@@ 11050
found 11046
let 10894
high 10855
end 10812
n@@ 10809
ting 10744
put 10655
en@@ 10641
last 10620
place 10609
ted 10594
come 10548
L@@ 10537
g 10537
So 10532
never 10502
ous 10438
small 10404
does 10373
going 10338
every 10319
i@@ 10305
love 10281
without 10224
co@@ 10210
u@@ 10197
e-@@ 10057
de@@ 10053
same 10049
el@@ 10003
v@@ 9878
another 9848
ro@@ 9820
W@@ 9760
Chinese 9759
&apos;re 9718
b 9679
body 9676
look 9673
ter 9595
important 9555
or@@ 9500
am 9484
ine 9454
away 9375
d 9337
red 9333
both 9331
C@@ 9327
home 9282
po@@ 9277
ant 9255
a@@ 9217
on@@ 9192
ch 9145
different 9134
under 9125
One 9108
r@@ 9063
point 9043
power 8970
side 8937
it@@ 8890
n 8876
im@@ 8871
R@@ 8840
le 8834
find 8827
against 8807
business 8764
That 8754
be@@ 8752
things 8715
become 8708
at@@ 8684
during 8665
&apos;m 8622
least 8614
three 8607
light 8596
something 8525
give 8512
data 8481
called 8458
children 8440
ti@@ 8434
E@@ 8403
ad@@ 8374
shall 8373
king 8349
best 8308
process 8290
state 8258
form 8257
head 8252
er@@ 8242
control 8237
got 8234
really 8233
men 8193
country 8183
money 8140
better 8105
number 8077
di@@ 8060
market 8054
government 7936
face 7933
At 7930
trying 7925
ic@@ 7911
using 7909
ble 7885
ac@@ 7867
le@@ 7854
M@@ 7853
heart 7841
thought 7812
came 7801
l 7800
ity 7797
here 7792
change 7787
case 7768
method 7766
again 7755
enough 7748
A@@ 7721
ated 7714
ex@@ 7699
feel 7664
person 7617
days 7553
pe@@ 7545
information 7540
am@@ 7534
per 7533
es@@ 7513
ri@@ 7509
name 7486
en 7464
pl@@ 7458
&apos;ll 7455
cl@@ 7442
J@@ 7437
kind 7437
left 7365
ent 7353
Mr 7288
as@@ 7288
large 7271
far 7263
&apos;ve 7257
ag@@ 7238
ist 7219
hand 7217
over@@ 7204
der 7156
land 7148
human 7146
room 7130
ap@@ 7129
ating 7118
thing 7116
once 7057
bit 7035
ar 7023
led 7023
K@@ 7000
z@@ 6986
-- 6980
line 6968
However 6960
ol@@ 6954
means 6898
pre@@ 6896
ness 6888
ra@@ 6884
told 6808
big 6806
con@@ 6805
took 6787
After 6783
se@@ 6771
N@@ 6743
se 6739
What 6713
pro@@ 6693
air 6682
is@@ 6656
easy 6648
week 6645
woman 6644
With 6627
j@@ 6559
food 6554
development 6551
study 6547
public 6532
night 6526
ful 6499
family 6498
low 6494
known 6463
op@@ 6454
God 6405
ment 6385
young 6385
seems 6379
mother 6377
city 6362
show 6358
went 6337
eyes 6309
top 6290
house 6289
problem 6267
American 6255
since 6242
result 6240
Some 6225
whether 6224
keep 6203
et 6183
hard 6172
he@@ 6172
design 6153
try 6143
though 6136
tic 6132
His 6106
women 6103
fl@@ 6081
others 6032
tion 6028
real 5970
group 5967
within 5959
course 5957
ks 5952
fact 5946
est 5945
strong 5937
bu@@ 5927
sense 5907
ings 5887
effect 5881
until 5878
book 5865
sp@@ 5837
area 5832
On 5827
value 5818
New 5816
why 5807
together 5791
results 5788
Mr. 5768
per@@ 5767
began 5757
ul@@ 5744
times 5736
car@@ 5720
son 5717
ge@@ 5703
cannot 5697
possible 5695
ator 5694
tell 5694
bo@@ 5690
test 5684
qu@@ 5681
open 5673
ever 5666
lot 5647
run 5647
main 5646
te@@ 5642
United 5607
key 5606
“ 5594
These 5573
ance 5569
Then 5560
paper 5559
full 5557
matter 5538
ph@@ 5535
ne@@ 5530
su@@ 5522
si@@ 5513
ds 5490
My 5479
tive 5479
rate 5478
service 5477
sub@@ 5477
ab@@ 5476
ha@@ 5475
quality 5467
application 5462
economic 5461
level 5455
% 5452
model 5446
law 5440
mind 5440
ical 5425
order 5425
— 5422
V@@ 5413
ur@@ 5410
makes 5404
no@@ 5389
research 5386
field 5383
um 5372
among 5354
saw 5354
nothing 5339
energy 5333
later 5333
making 5328
free 5325
sure 5325
um@@ 5320
Now 5314
early 5312
om@@ 5311
seen 5306
school 5292
second 5289
looking 5285
os@@ 5282
front 5269
el 5264
already 5251
upon 5242
child 5237
along 5233
surface 5229
x 5229
&apos;d 5220
col@@ 5217
turn 5215
us@@ 5214
ep@@ 5203
gl@@ 5201
yet 5188
lo@@ 5183
team 5180
whole 5179
All 5175
ago 5172
to@@ 5172
type 5170
tu@@ 5166
given 5148
ins 5148
words 5138
com@@ 5136
call 5129
ding 5119
white 5117
O@@ 5114
ally 5110
countries 5101
across 5097
usually 5097
rather 5080
sc@@ 5079
ling 5077
understand 5045
oil 5039
ism 5030
ry 5030
past 5013
working 5008
start 4996
ru@@ 4986
ask 4982
li@@ 4965
word 4956
ability 4939
having 4937
ir@@ 4937
today 4931
likely 4928
ing@@ 4923
moment 4920
leave 4918
ve 4913
table 4912
” 4912
&apos;@@ 4909
believe 4900
seem 4895
problems 4882
cause 4876
em@@ 4869
common 4862
ge 4858
An 4856
In@@ 4853
support 4852
asked 4847
ter@@ 4847
No 4832
il@@ 4829
tor 4829
experience 4827
ess 4817
however 4800
almost 4794
ise 4781
space 4775
class 4769
ed@@ 4769
economy 4751
live 4745
several 4745
sk@@ 4740
ish 4738
done 4732
idea 4732
play 4724
including 4709
self-@@ 4700
car 4695
dec@@ 4689
de 4686
la@@ 4673
ty 4668
local 4666
Y@@ 4664
ker 4662
wife 4660
ons 4657
technology 4639
als 4629
growth 4621
health 4619
ma@@ 4617
position 4616
U. 4611
himself 4607
bed 4605
1 4601
States 4598
door 4594
close 4586
simple 4567
social 4559
u 4559
ans 4552
products 4550
father 4548
mo@@ 4547
sion 4540
friends 4514
gra@@ 4510
view 4509
ad 4504
man@@ 4496
S. 4495
job 4495
out@@ 4495
sea 4495
ates 4494
mis@@ 4490
move 4486
par@@ 4484
half 4474
ite 4473
future 4464
Re@@ 4462
the@@ 4453
cu@@ 4438
due 4430
risk 4429
looked 4422
up@@ 4422
inter@@ 4406
ia 4396
mon@@ 4394
taken 4387
ies 4381
question 4378
ke 4370
id@@ 4366
longer 4363
history 4358
ice 4355
$ 4350
US 4346
provide 4344
needs 4340
te 4336
for@@ 4329
death 4328
dy 4324
comes 4322
war 4319
industry 4308
wh@@ 4301
America 4300
fire 4290
sw@@ 4287
aw@@ 4278
black 4278
students 4278
ready 4263
ot@@ 4249
board 4248
clear 4238
ard 4237
game 4227
ta@@ 4222
above 4221
four 4220
treatment 4220
ec@@ 4217
me@@ 4212
current 4209
especially 4202
tra@@ 4198
rest 4197
product 4195
2 4192
ked 4192
quite 4187
we@@ 4168
can@@ 4155
ver@@ 4154
ery 4153
By 4137
action 4134
project 4133
doing 4129
fe@@ 4129
general 4129
structure 4126
bad 4124
bank 4120
someone 4119
building 4107
deal 4104
cor@@ 4099
performance 4095
months 4087
read 4084
living 4077
natural 4073
near 4073
financial 4072
management 4071
create 4063
id 4062
cur@@ 4061
political 4060
hi@@ 4057
reason 4054
blood 4053
ill@@ 4050
les 4045
cut 4040
pay 4038
ca@@ 4037
ded 4035
cre@@ 4033
size 4032
gave 4027
ways 4027
X@@ 4021
material 4020
behind 4016
Even 4015
ob@@ 4015
ud@@ 4005
cost 4004
I@@ 4000
production 3997
itself 3989
so@@ 3977
soon 3970
ence 3958
ors 3957
certain 3950
t-@@ 3950
res@@ 3947
How 3945
Z@@ 3943
party 3942
turned 3938
wanted 3937
felt 3933
re 3926
gu@@ 3925
ves 3922
single 3917
Ch@@ 3915
example 3910
special 3903
nature 3896
ff@@ 3891
hold 3873
rec@@ 3873
true 3873
hope 3869
ary 3864
ade 3863
actually 3855
care 3848
stop 3833
ten 3828
hands 3824
pressure 3822
language 3812
ations 3808
image 3806
parts 3802
English 3795
gh@@ 3795
art 3793
analysis 3792
ground 3789
present 3778
major 3777
short 3776
environment 3772
didn 3767
further 3763
story 3759
all@@ 3736
global 3734
ps 3728
ale 3721
price 3719
w 3699
code 3698
difficult 3693
increase 3689
fall 3687
tri@@ 3684
month 3681
wind 3680
taking 3675
anything 3666
changes 3666
girl 3661
piece 3657
fully 3655
shows 3655
skin 3650
won 3649
yourself 3636
et@@ 3634
ously 3628
sun 3628
hor@@ 3627
ses 3627
outside 3624
companies 3614
fish 3610
hair 3610
St@@ 3609
inside 3603
beautiful 3599
th 3597
ten@@ 3594
office 3588
beginning 3583
dark 3565
y-@@ 3552
started 3541
x@@ 3539
sound 3526
became 3524
Objective 3518
lost 3518
plan 3516
themselves 3515
talk 3514
everything 3502
step 3497
mar@@ 3491
policy 3490
content 3489
five 3489
force 3489
higher 3479
bring 3478
either 3478
sort 3478
interest 3473
return 3460
role 3452
deep 3451
works 3449
morning 3448
tr@@ 3448
decided 3446
mu@@ 3445
While 3443
poor 3439
friend 3431
knew 3420
oc@@ 3418
road 3418
site 3416
based 3415
getting 3411
ke@@ 3406
ship 3395
parents 3394
ton 3387
under@@ 3386
hours 3385
allow 3383
war@@ 3378
areas 3377
Al@@ 3366
ven@@ 3366
gr@@ 3364
period 3364
disease 3359
recent 3359
ture 3359
flow 3357
Many 3355
bar@@ 3353
pa@@ 3353
music 3346
culture 3344
ely 3340
ev@@ 3339
green 3334
amount 3331
meet 3324
coming 3322
computer 3307
els 3305
terms 3304
Do 3302
ology 3295
style 3295
bi@@ 3291
f 3291
uses 3290
quickly 3289
trans@@ 3288
patients 3275
probably 3274
held 3259
list 3255
source 3252
relationship 3251
U@@ 3250
systems 3249
color 3243
happy 3243
security 3231
sometimes 3225
cold 3222
res 3218
du@@ 3217
hand@@ 3217
fi@@ 3216
theory 3214
og@@ 3207
Europe 3205
boy 3204
ci@@ 3203
heard 3198
society 3198
super@@ 3188
needed 3187
police 3186
An@@ 3184
lower 3181
ak 3177
report 3176
sur@@ 3167
mean 3166
sha@@ 3163
ore 3159
Although 3153
education 3147
ters 3147
non-@@ 3146
3 3144
simply 3143
sal@@ 3142
ster 3139
Con@@ 3138
cr@@ 3137
box 3134
hot 3134
pen@@ 3134
ast@@ 3125
ped 3120
international 3117
ure 3116
10 3109
cases 3108
gas 3106
forward 3103
effective 3102
cra@@ 3099
foreign 3091
sen@@ 3089
tin@@ 3089
personal 3081
E 3079
operation 3077
go@@ 3076
round 3074
sky 3070
modern 3064
added 3061
h 3059
sis 3058
sti@@ 3054
rich 3052
wall 3051
bra@@ 3048
od@@ 3045
looks 3044
takes 3044
tly 3041
effects 3034
hear 3033
ren@@ 3032
British 3027
ball 3027
ats 3022
iz@@ 3022
program 3013
running 3012
user 3009
dly 3007
ative 3006
lu@@ 3001
phone 3001
seemed 3001
trade 2997
Th@@ 2995
ang@@ 2994
tried 2993
feeling 2992
news 2992
bottom 2991
stay 2984
tics 2983
my@@ 2978
From 2974
situation 2971
ics 2966
brought 2965
issue 2960
ran@@ 2955
practice 2954
film 2949
act 2948
lead 2948
eat 2947
national 2947
produce 2939
speed 2933
ching 2928
amp 2924
town 2924
ve@@ 2923
include 2922
pri@@ 2914
meeting 2911
thinking 2911
conditions 2910
developed 2910
South 2909
similar 2909
everyone 2908
stage 2908
add 2903
--@@ 2900
sent 2895
ig@@ 2894
tree 2891
Car@@ 2889
star@@ 2889
various 2885
improve 2884
heat 2882
traditional 2879
fine 2878
capital 2874
sta@@ 2874
network 2872
Our 2870
cells 2866
ping 2866
bs 2865
plant 2861
activity 2857
crisis 2852
necessary 2846
available 2840
continue 2838
doesn 2837
ls 2828
machine 2824
showed 2821
wood 2816
om 2815
approach 2811
file 2807
methods 2807
services 2805
Because 2803
brain 2802
Mar@@ 2801
micro@@ 2798
saying 2792
bre@@ 2788
media 2786
markets 2785
myself 2783
anti@@ 2782
ong 2781
ial 2780
hum@@ 2779
expected 2774
weight 2774
ging 2770
buy 2767
sun@@ 2765
rise 2761
ast 2760
prices 2758
ue 2756
earth 2755
particular 2755
Your 2753
share 2753
fear 2750
members 2745
born 2741
easily 2741
walk 2741
gen@@ 2739
lives 2739
offer 2739
head@@ 2737
5 2736
ky 2735
mer@@ 2735
feet 2733
according 2729
else 2729
huge 2729
ple 2728
built 2727
ches 2724
shown 2724
r 2723
T 2722
president 2720
range 2719
avoid 2715
message 2715
min@@ 2715
late 2714
voice 2711
attention 2708
base 2706
Sh@@ 2704
considered 2703
ill 2699
object 2699
est@@ 2698
London 2693
instead 2693
weeks 2693
tions 2692
alone 2691
ger 2691
stand 2688
ily 2687
goes 2686
ent@@ 2685
knowledge 2679
sign 2678
specific 2676
eye 2675
pol@@ 2675
former 2671
region 2671
ones 2669
military 2668
complete 2667
end@@ 2664
build 2663
high-@@ 2662
ality 2661
pul@@ 2655
Japan 2654
summer 2650
page 2649
century 2647
ang 2646
pain 2645
toward 2643
writing 2642
whose 2641
– 2641
property 2640
&#93; 2639
potential 2639
popular 2636
University 2632
&#91; 2627
truth 2626
Once 2625
break 2625
sl@@ 2621
ying 2618
following 2615
ov@@ 2612
ion 2611
met 2610
ou@@ 2608
users 2606
wrong 2604
temperature 2603
ering 2601
hit 2600
software 2595
caused 2591
ber 2588
created 2581
subject 2581
ack 2579
function 2577
Most 2572
wants 2572
Well 2570
pan@@ 2569
ically 2565
reduce 2564
points 2561
materials 2558
tax 2554
ring 2553
access 2551
allowed 2551
ba@@ 2551
stone 2550
solution 2548
growing 2546
c 2542
bul@@ 2538
dog 2537
levels 2534
fast 2533
ow@@ 2532
sed 2532
sive 2530
lack 2529
thy 2529
vi@@ 2529
banks 2524
designed 2524
cent 2522
ged 2521
basic 2520
standard 2518
pal@@ 2514
strength 2512
cover 2511
str@@ 2506
total 2504
clean 2502
De@@ 2501
blue 2497
write 2494
tw@@ 2487
S 2486
character 2483
il 2480
&amp; 2478
ze 2478
gold 2476
Just 2474
Yet 2474
training 2473
ched 2472
minutes 2472
learn 2469
che@@ 2464
account 2462
loss 2462
mel@@ 2462
ay 2460
giving 2458
resources 2458
cal@@ 2457
allows 2456
significant 2454
Let 2452
influence 2451
perhaps 2448
ste@@ 2448
store 2444
bur@@ 2443
North 2442
construction 2441
equipment 2441
del@@ 2440
carry 2436
remember 2435
Beijing 2434
lim@@ 2434
dead 2431
concept 2430
ce 2428
required 2426
goal 2424
device 2422
normal 2421
tic@@ 2421
event 2418
demand 2417
D 2416
World 2414
individual 2414
jo@@ 2411
av@@ 2410
cap@@ 2409
impact 2408
Se@@ 2402
ly@@ 2401
wish 2398
Of 2396
evidence 2396
physical 2395
European 2393
men@@ 2393
tor@@ 2393
workers 2390
pi@@ 2388
response 2387
nation 2384
ens 2381
answer 2380
Not 2379
article 2378
towards 2378
and@@ 2377
ple@@ 2377
books 2374
private 2374
serious 2372
ian 2369
tre@@ 2369
st 2368
au@@ 2365
term 2364
wear 2363
ize 2361
chance 2356
ho@@ 2356
ner 2356
provided 2354
pu@@ 2354
decision 2353
oo@@ 2352
cell 2350
damage 2350
questions 2350
written 2350
sem@@ 2349
sing 2348
fo@@ 2347
date 2337
choice 2336
ning 2335
press 2331
hour 2328
pass 2327
run@@ 2327
groups 2325
ie 2325
complex 2323
series 2323
People 2321
sex 2320
appear 2319
memory 2318
center 2316
third 2316
During 2315
Therefore 2315
focus 2314
factors 2312
related 2304
bro@@ 2303
dr@@ 2303
dream 2303
air@@ 2302
ler 2300
York 2298
issues 2296
Ar@@ 2295
officials 2295
card 2294
ip@@ 2290
provides 2290
rules 2287
but@@ 2284
attack 2283
down@@ 2283
floor 2276
gone 2276
famous 2275
B 2273
ently 2272
moving 2271
Q@@ 2270
six 2269
do@@ 2268
Its 2266
gets 2264
ach@@ 2263
heavy 2263
Her 2262
science 2262
condition 2258
husband 2257
investment 2257
spirit 2257
wa@@ 2256
Obama 2255
ious 2252
behavior 2251
couple 2251
br@@ 2248
India 2247
her@@ 2247
season 2247
becomes 2243
20 2242
L 2240
grow 2239
middle 2238
original 2238
text 2236
central 2235
ular 2234
kept 2230
shape 2228
playing 2227
court 2226
row 2226
gri@@ 2225
ma 2225
gives 2224
search 2222
community 2221
supply 2221
ink 2220
drive 2218
direction 2217
sleep 2216
check 2215
mouth 2215
isn 2214
save 2213
Since 2212
develop 2211
entire 2211
credit 2208
gro@@ 2207
tle 2205
fin@@ 2204
den@@ 2202
warm 2202
fil@@ 2201
speak 2200
lines 2199
4 2198
ati@@ 2198
glass 2198
rel@@ 2196
safety 2196
choose 2195
mental 2192
final 2191
died 2188
Don 2185
applied 2177
send 2175
ash 2173
dle 2173
continued 2172
efforts 2172
perfect 2172
ut@@ 2172
basis 2170
remains 2170
anyone 2169
rights 2168
ists 2165
wide 2165
below 2162
degree 2162
ist@@ 2159
dry 2158
bri@@ 2154
completely 2154
ern@@ 2154
ancient 2153
please 2153
gs 2150
ace 2149
activities 2149
worked 2149
ff 2146
ick@@ 2143
ose 2142
animals 2139
Earth 2137
tro@@ 2134
particularly 2132
Each 2130
char@@ 2130
directly 2130
pair 2130
researchers 2129
stri@@ 2129
although 2128
atic 2126
long@@ 2126
visit 2126
changed 2123
online 2123
places 2123
loc@@ 2122
ric@@ 2122
types 2122
win 2122
finally 2121
plans 2121
reach 2121
President 2120
opportunity 2120
spring 2120
baby 2118
sales 2114
yl@@ 2114
sm@@ 2110
hear@@ 2108
appears 2103
effort 2103
tur@@ 2102
cri@@ 2101
leaves 2101
Japanese 2097
moved 2096
well-@@ 2096
section 2095
window 2095
pr@@ 2094
reading 2094
back@@ 2092
ars 2091
trees 2091
swe@@ 2089
ish@@ 2085
species 2085
mor@@ 2079
rates 2079
follow 2078
ideas 2078
costs 2077
forces 2076
por@@ 2076
beyond 2075
difference 2074
picture 2074
immediately 2073
movement 2070
O 2065
First 2062
attempt 2061
fol@@ 2060
meaning 2059
ther@@ 2059
customers 2058
rule 2057
Is 2056
tend 2056
nor 2052
Why 2050
doubt 2048
enjoy 2048
official 2045
stra@@ 2045
spent 2044
Be@@ 2043
learning 2043
cancer 2042
remain 2042
path 2041
version 2041
French 2039
spread 2033
foot 2030
Today 2029
des@@ 2029
flu@@ 2029
sli@@ 2026
watch 2026
addition 2022
server 2021
figure 2020
screen 2020
ot 2019
post@@ 2019
events 2017
river 2017
layer 2016
Un@@ 2011
star 2011
har@@ 2010
leaders 2010
shot 2010
increased 2009
medical 2009
John 2007
expect 2006
passed 2006
na@@ 2005
fell 2000
spend 1999
powerful 1998
soil 1998
He@@ 1996
fight 1995
features 1991
die 1990
mer 1989
investors 1986
measures 1985
consider 1984
itation 1984
ah 1983
percent 1982
bly 1981
iv@@ 1981
pat@@ 1979
000 1978
year-@@ 1977
dra@@ 1976
ments 1976
wait 1976
therefore 1975
ders 1974
ban@@ 1973
member 1970
begin 1968
Lord 1967
alism 1967
beauty 1967
ear 1967
of@@ 1967
prepared 1966
paid 1963
soft 1962
Ex@@ 1961
dre@@ 1961
rain 1961
ak@@ 1960
direct 1960
length 1960
charge 1956
appeared 1955
Man@@ 1954
applications 1954
etc 1954
debt 1952
ensure 1952
mal@@ 1951
opened 1951
in-@@ 1950
values 1950
cul@@ 1948
Le@@ 1946
earlier 1946
scientists 1943
received 1942
ingly 1940
safe 1939
net 1937
positive 1937
ward 1937
water@@ 1936
bel@@ 1935
record 1935
to-@@ 1935
Such 1934
sn@@ 1934
street 1934
arms 1933
ine@@ 1932
understanding 1932
anc@@ 1931
que 1931
recently 1931
legal 1930
ol 1926
Col@@ 1924
animal 1923
off@@ 1923
unique 1922
reported 1921
greater 1919
ined 1919
lan@@ 1918
prevent 1917
characteristics 1916
squ@@ 1915
train 1915
contact 1913
ey@@ 1910
highly 1906
covered 1905
ret@@ 1904
Dis@@ 1903
eg@@ 1903
unit 1900
nu@@ 1899
thousands 1899
ath 1898
sil@@ 1898
mid@@ 1897
ber@@ 1896
leading 1895
M 1894
al-@@ 1894
hole 1894
arm 1892
steel 1891
reg@@ 1890
Co@@ 1887
measure 1887
task 1887
wine 1885
ahead 1884
Di@@ 1883
der@@ 1881
thus 1881
ess@@ 1880
patient 1879
core 1878
standing 1877
ley 1876
radi@@ 1876
chemical 1875
30 1874
filled 1873
ges 1873
sa@@ 1871
ir 1870
million 1870
happened 1869
hotel 1869
peace 1868
fit 1867
plane 1866
database 1864
fruit 1864
ms 1863
teacher 1862
ire 1861
fore@@ 1860
lose 1860
plants 1860
inf@@ 1859
target 1857
travel 1857
goods 1856
ns 1856
stress 1856
City 1855
fly 1853
gre@@ 1853
load 1851
studies 1850
active 1848
waiting 1848
Here 1847
fresh 1847
Another 1846
cat@@ 1846
desire 1846
nearly 1846
race 1846
named 1845
sat 1843
emb@@ 1842
includes 1842
hy@@ 1841
staff 1836
determine 1835
daughter 1832
exc@@ 1832
flowers 1832
-up 1831
En@@ 1830
population 1830
suddenly 1830
clothes 1829
element 1829
ining 1828
nuclear 1826
Asia 1824
Like 1824
ages 1824
worth 1824
ys 1824
Every 1823
firm 1823
claim 1821
ase 1818
protect 1818
causes 1814
leader 1813
elements 1812
mainly 1811
processing 1810
biggest 1809
mass 1808
TV 1807
stood 1806
az@@ 1804
ail 1803
ably 1802
forms 1801
master 1801
med 1801
gi@@ 1799
played 1799
our@@ 1798
communication 1797
involved 1796
student 1795
cen@@ 1794
da 1794
gar@@ 1794
reasons 1794
ths 1794
balance 1792
ell@@ 1792
followed 1792
carried 1789
female 1788
rock 1788
strategy 1788
work@@ 1788
bright 1787
Web 1786
failure 1786
nice 1786
pretty 1786
produced 1786
tool 1786
boat 1785
manager 1783
non@@ 1783
electric 1782
ties 1782
ket 1781
multi@@ 1781
stat@@ 1781
os 1780
sou@@ 1780
z 1780
expression 1779
bar 1778
ines 1778
reality 1777
af@@ 1774
grand@@ 1774
ned 1773
bing 1772
im 1772
speech 1772
technique 1772
boo@@ 1769
useful 1769
protection 1768
career 1766
requirements 1766
steps 1766
Ad@@ 1764
Per@@ 1762
ew 1762
generation 1762
hom@@ 1761
Gu@@ 1760
returned 1760
stock 1760
college 1758
wasn 1758
ame 1757
bling 1757
certainly 1757
sell 1756
variety 1755
anti-@@ 1754
ile 1753
West 1752
address 1752
healthy 1751
tools 1750
metal 1748
pattern 1748
P 1747
formed 1747
match 1747
Their 1745
Yes 1744
associated 1743
broken 1743
mat@@ 1741
teaching 1740
soul 1736
tion@@ 1735
unto 1735
drink 1731
introduced 1731
chief 1730
Other 1729
advantage 1729
ran 1729
status 1729
Russia 1725
ny 1725
ty@@ 1724
ass 1723
plate 1721
progress 1721
scale 1720
tered 1720
stu@@ 1719
vis@@ 1719
C 1717
dig@@ 1716
doctor 1716
Jesus 1713
sol@@ 1713
slow 1711
drug 1709
learned 1708
distance 1707
properties 1707
mus@@ 1704
dem@@ 1703
existing 1702
killed 1702
states 1702
Also 1701
movie 1700
fu@@ 1698
talking 1698
video 1697
described 1696
acid 1695
fre@@ 1695
smile 1695
skills 1694
tric@@ 1694
wrote 1694
reached 1693
den 1691
winter 1691
statement 1690
cas@@ 1689
ant@@ 1688
cultural 1688
mechanism 1686
studied 1686
ck@@ 1685
sts 1684
Hu@@ 1683
ass@@ 1683
sides 1683
ming 1681
failed 1680
ow 1680
fat 1679
respect 1678
scre@@ 1678
knows 1677
Washington 1674
ide 1673
factor 1671
walked 1671
helped 1670
sitting 1670
rac@@ 1669
pic@@ 1668
widely 1667
Africa 1665
ack@@ 1665
Industry 1664
trust 1663
average 1662
garden 1662
shop 1661
Before 1660
sy 1659
Britain 1658
Israel 1658
edge 1658
onto 1658
England 1657
Par@@ 1657
Two 1657
lin@@ 1656
daily 1655
income 1655
spending 1655
Instead 1654
station 1654
Americans 1652
100 1651
carbon 1651
ving 1651
Internet 1650
opening 1650
angle 1649
exercise 1649
post 1649
acc@@ 1648
kids 1647
ids 1646
sit 1645
Study 1644
bound 1644
contract 1644
player 1642
Im@@ 1641
ari@@ 1641
engine 1641
lock 1641
professional 1641
enter 1640
ligh@@ 1640
lay 1639
spl@@ 1639
happen 1637
ck 1636
release 1636
forest 1633
pool 1633
accept 1632
ash@@ 1632
inc@@ 1632
organization 1632
German 1631
helps 1631
tal 1631
ain 1630
National 1628
fer@@ 1627
generally 1627
sight 1627
Bo@@ 1626
pick 1626
objects 1625
ster@@ 1625
calls 1624
eating 1624
fields 1624
appearance 1621
touch 1620
scene 1619
testing 1617
fun 1615
receive 1615
ver 1615
male 1614
taste 1613
slowly 1611
tests 1609
western 1609
evening 1607
placed 1607
tea 1607
clinical 1606
drop 1606
Pro@@ 1605
corner 1605
established 1605
acy 1604
ft 1604
ray 1604
raise 1602
6 1600
believed 1600
ents 1600
hospital 1600
Please 1599
caught 1598
ick 1598
images 1597
ude 1595
capacity 1594
dri@@ 1593
previous 1593
throughout 1593
Or 1592
laws 1592
ological 1592
House 1591
hon@@ 1591
proposed 1590
ators 1589
customer 1588
ory 1588
alize 1587
bun@@ 1587
enemy 1587
if@@ 1587
lies 1586
weather 1586
developing 1585
largest 1585
iness 1583
Mo@@ 1580
wave 1580
spot 1579
achieve 1576
bas@@ 1576
lived 1576
climate 1575
happiness 1575
ws 1571
ach 1570
conc@@ 1569
discovered 1569
location 1569
bear 1568
benefits 1568
contains 1567
ement 1564
Lu@@ 1563
ved 1563
Bar@@ 1562
inal 1562
display 1561
trouble 1561
principle 1560
projects 1560
limited 1559
pur@@ 1559
cha@@ 1557
clearly 1554
require 1554
sle@@ 1554
ur 1554
hu@@ 1552
leaving 1552
Conclusion 1551
Shanghai 1550
actions 1550
ets 1550
ography 1549
op 1548
primary 1548
fuel 1547
self 1547
Su@@ 1545
distribution 1545
forced 1545
marriage 1544
ju@@ 1543
ants 1542
dness 1542
competition 1540
increasing 1540
ised 1540
re-@@ 1540
sweet 1540
requires 1539
mil@@ 1538
Bu@@ 1537
tically 1537
connection 1536
ear@@ 1536
bus 1535
compared 1535
Those 1534
components 1533
kin@@ 1533
milk 1533
und@@ 1533
ann@@ 1532
fac@@ 1532
holding 1532
players 1532
ao 1531
turns 1529
15 1528
lab@@ 1527
games 1525
benefit 1523
walking 1523
bles 1522
spar@@ 1521
bit@@ 1519
fire@@ 1519
lam@@ 1517
responsibility 1517
raised 1516
apply 1513
willing 1513
larger 1511
Germany 1509
Mon@@ 1509
plastic 1509
ung 1508
eness 1507
stable 1507
50 1505
reports 1505
internal 1504
serve 1504
tors 1504
ature 1503
ust 1503
multiple 1502
wild 1501
gate 1500
negative 1499
request 1499
seek 1499
tical 1499
track 1498
extremely 1495
numbers 1495
For@@ 1493
except 1493
interesting 1492
pon@@ 1492
ites 1489
ong@@ 1489
minute 1488
setting 1488
tiny 1488
birth 1487
inner 1486
presented 1486
R 1485
wan@@ 1485
instance 1484
changing 1483
determined 1483
ard@@ 1481
foot@@ 1481
mine 1481
resistance 1480
waste 1480
Oh 1479
exchange 1475
sin@@ 1474
upper 1473
brand 1471
responsible 1471
cities 1470
yellow 1470
France 1469
freedom 1468
note 1468
one-@@ 1468
practical 1468
eless 1467
seeing 1467
straight 1467
thin 1467
wor@@ 1467
sold 1466
maybe 1465
oring 1465
aid 1463
items 1463
operations 1463
via 1463
block 1462
unable 1461
recovery 1460
hun@@ 1459
ben@@ 1458
traffic 1457
technical 1456
details 1455
cash 1454
ancy 1453
becoming 1453
inv@@ 1453
seven 1453
liquid 1452
tom@@ 1452
Sha@@ 1451
exactly 1451
pun@@ 1451
tering 1451
ga@@ 1450
jobs 1450
clim@@ 1449
ero@@ 1449
mir@@ 1448
planning 1448
eventually 1446
ight 1446
stability 1446
whom 1446
wing 1446
ever@@ 1445
rising 1444
closed 1443
hard@@ 1443
confidence 1442
appropriate 1441
cool 1441
White 1440
herself 1440
starting 1440
afraid 1439
challenge 1439
mode 1439
trip 1439
familiar 1438
signal 1438
Great 1437
join 1436
critical 1434
seat 1434
thou 1434
ath@@ 1433
brother 1433
maintain 1433
fra@@ 1432
pieces 1432
trac@@ 1432
imp@@ 1430
atmosphere 1429
domestic 1427
girls 1427
ium 1427
manner 1427
Bank 1426
Korea 1426
State 1426
ational 1425
cher 1424
kill 1424
mark 1424
rer 1424
tures 1424
East 1423
enterprise 1423
feelings 1422
ils 1422
easier 1421
ox@@ 1420
thoughts 1420
meat 1419
partner 1419
roll 1419
scientific 1419
ys@@ 1419
ana 1418
agent 1417
error 1416
til@@ 1415
Har@@ 1413
virus 1413
em 1412
planet 1412
Ro@@ 1410
Western 1410
low@@ 1410
River 1409
boss 1409
efficiency 1409
vision 1409
essential 1408
keeping 1408
moon 1408
Though 1407
des 1406
ished 1405
coffee 1404
alization 1403
quick 1403
agreement 1402
conf@@ 1402
dinner 1402
ized 1402
cer@@ 1401
presence 1401
reform 1401
affect 1400
married 1400
spo@@ 1400
suggest 1400
Party 1399
two@@ 1399
add@@ 1398
explain 1398
Any 1395
formation 1394
guy 1394
ham 1394
12 1393
kes 1393
defined 1392
extra 1392
treated 1392
arm@@ 1391
phase 1391
cars 1390
lie 1390
medicine 1390
army 1389
church 1389
N 1388
dance 1388
More 1387
relations 1387
han@@ 1386
affected 1384
bag 1384
cos@@ 1384
duc@@ 1384
meant 1383
cast 1382
dress 1382
actual 1381
regular 1381
relatively 1381
att@@ 1379
campaign 1379
client 1378
era 1378
grew 1378
-based 1377
link 1377
comfortable 1376
hydro@@ 1376
real@@ 1376
realize 1376
tes 1376
iron 1375
driving 1374
faces 1374
rare 1374
rou@@ 1374
secret 1373
tan@@ 1373
quiet 1372
ug@@ 1372
King 1371
island 1371
parties 1371
document 1370
standards 1370
weak 1369
files 1368
smaller 1368
whatever 1367
yp@@ 1367
poly@@ 1366
rice 1366
election 1365
song 1364
stick 1364
path@@ 1363
cy@@ 1362
cycle 1362
flav@@ 1362
signs 1361
component 1360
stars 1359
wearing 1359
Perhaps 1358
drugs 1358
greatest 1358
letter 1358
tail 1358
pres@@ 1357
combination 1356
Lin@@ 1354
driver 1354
mobile 1354
latest 1353
ni@@ 1353
Nor@@ 1352
ened 1352
pped 1352
models 1351
speaking 1351
fro@@ 1349
club 1348
hol@@ 1348
hur@@ 1347
stopped 1347
evil 1346
reaction 1346
bal@@ 1345
reference 1345
decades 1344
lat@@ 1344
sof@@ 1344
dust 1343
ye 1343
Both 1342
experiment 1342
long-term 1342
separate 1342
aged 1340
fixed 1340
finished 1339
output 1339
Thus 1337
mountain 1336
pet 1336
suggests 1336
expensive 1335
prove 1333
treat 1333
characters 1332
ey 1332
exist 1331
mail 1331
unt 1331
War 1330
Ca@@ 1329
print 1328
rap@@ 1328
improved 1327
forget 1326
slightly 1326
transfer 1325
Y 1323
pt 1323
snow 1323
couldn 1322
despite 1322
Ac@@ 1321
flower 1321
ym@@ 1321
agree 1320
dy@@ 1320
sec@@ 1320
int 1319
shoes 1319
8 1318
iled 1318
ML 1317
Ne@@ 1317
don@@ 1317
option 1316
agreed 1315
ome 1315
published 1315
ne 1314
purpose 1314
battle 1313
connected 1313
existence 1313
electro@@ 1312
un 1312
loved 1311
red@@ 1311
unless 1311
Sometimes 1310
alist 1309
nor@@ 1309
proof 1308
stuff 1308
ads 1307
interested 1307
schools 1307
watching 1307
coal 1305
sla@@ 1305
urban 1305
horse 1304
moral 1304
rely 1304
Can 1302
aware 1302
creating 1302
zone 1302
dro@@ 1301
gain 1301
commercial 1300
independent 1300
south 1300
acts 1299
ier 1299
obvious 1299
diseases 1298
ends 1298
yard 1297
environmental 1296
frame 1295
humans 1295
onic 1295
top@@ 1295
According 1294
cop@@ 1294
mate 1293
solve 1293
ended 1292
er-@@ 1292
industrial 1292
legs 1292
ress 1292
sets 1292
otherwise 1291
bird 1290
offers 1290
19@@ 1289
din@@ 1289
television 1289
additional 1288
correct 1288
G 1287
pe 1287
ideal 1286
aring 1285
background 1285
notice 1285
push 1285
Cor@@ 1284
ain@@ 1284
algorithm 1284
pure 1284
bridge 1283
David 1282
arch@@ 1282
currency 1282
hel@@ 1281
offered 1280
smil@@ 1280
cutting 1279
excellent 1279
International 1278
beat 1278
employees 1278
Pl@@ 1277
ce@@ 1277
engineering 1277
birds 1276
double 1276
LORD 1275
U 1275
dangerous 1275
hundred 1275
included 1275
pers 1275
port 1275
remove 1274
pull 1273
fill 1272
goals 1272
department 1271
located 1271
noise 1271
ther 1271
thick 1271
flight 1270
string 1270
chair 1267
co-@@ 1267
by@@ 1266
ills 1266
map 1266
neck 1266
ok@@ 1266
overall 1266
miles 1264
sing@@ 1264
copy 1263
low-@@ 1263
politics 1263
draw 1262
eight 1262
west 1262
7 1260
wealth 1260
arrived 1259
tery 1259
Meanwhile 1258
dollar 1258
suitable 1258
ners 1257
worry 1257
pit@@ 1256
factory 1255
ken 1255
minister 1255
names 1255
Bi@@ 1253
sounds 1253
thr@@ 1252
happens 1251
ron@@ 1251
walls 1251
Ph@@ 1250
sia 1250
sty 1249
collection 1248
solid 1248
handle 1247
older 1247
turning 1247
joy 1246
ment@@ 1246
Qu@@ 1245
finding 1245
ell 1244
fighting 1244
operating 1244
tears 1244
kers 1243
General 1242
authorities 1242
spec@@ 1242
yed 1242
dynamic 1241
Google 1240
rit@@ 1239
Street 1237
itting 1236
ser@@ 1236
val@@ 1236
concern 1235
cro@@ 1235
dam@@ 1235
fla@@ 1235
oun@@ 1235
sexual 1235
Analysis 1234
ours 1234
May 1233
stories 1233
village 1233
Me@@ 1232
east 1232
ater 1231
uc@@ 1230
catch 1229
tru@@ 1229
fashion 1228
fund 1228
teeth 1228
host 1227
ina 1227
lar@@ 1227
strange 1227
digital 1225
indeed 1225
ization 1225
rose 1225
As@@ 1224
friendly 1224
none 1224
rous 1224
concerned 1223
giant 1223
bon@@ 1222
faith 1221
sister 1221
flo@@ 1220
sor@@ 1220
Despite 1219
governments 1219
discussed 1218
Christmas 1217
are@@ 1217
novel 1217
grown 1216
wheel 1216
wi@@ 1216
families 1215
lic@@ 1215
ra 1215
sports 1215
trend 1214
Be 1213
Bush 1213
a-@@ 1213
contain 1213
lying 1212
bone 1211
equ@@ 1211
disc@@ 1210
importance 1210
phot@@ 1210
proved 1210
dom 1209
Hol@@ 1208
Research 1208
So@@ 1207
administration 1207
classes 1207
sugar 1206
tation 1206
ush 1204
sel@@ 1203
afternoon 1202
ax@@ 1202
concrete 1202
reduced 1201
web 1201
mag@@ 1200
thousand 1200
claims 1199
decide 1199
ourselves 1199
da@@ 1197
short@@ 1197
audience 1196
enti@@ 1196
log@@ 1196
dollars 1195
empty 1194
o-@@ 1194
plays 1194
Her@@ 1193
oke 1193
policies 1193
rob@@ 1193
wonder 1193
ta 1192
writer 1192
frequency 1191
techniques 1191
nations 1190
severe 1190
hurt 1189
typical 1189
feed 1188
def@@ 1187
dish 1187
threat 1187
adding 1186
cam@@ 1186
mission 1186
tine 1186
Apple 1185
experts 1185
feature 1185
limit 1185
rev@@ 1185
tells 1185
author 1184
pulled 1184
rent 1184
ole 1183
contrast 1182
zy 1182
18@@ 1181
enc@@ 1181
ships 1181
university 1181
relative 1180
cross@@ 1179
listen 1178
sted 1178
oms 1176
consumers 1175
effectively 1175
wise 1175
wouldn 1175
carefully 1174
ib@@ 1174
advanced 1173
band 1173
bought 1173
fy 1173
north 1173
dev@@ 1172
fa@@ 1172
fair 1172
imagine 1172
istic 1172
joint 1172
proper 1172
astic 1171
busy 1171
chain 1171
sites 1171
sy@@ 1171
ump 1171
Ba@@ 1170
brown 1170
Use 1169
ening 1169
external 1169
grade 1169
organic 1168
gradually 1167
processes 1167
40 1166
messages 1166
interview 1165
eng@@ 1163
far@@ 1163
violence 1163
explore 1162
coat 1161
funds 1161
park 1161
released 1161
selling 1161
continues 1160
impossible 1160
owner 1159
Iraq 1158
investigate 1158
zz@@ 1158
aff@@ 1157
crime 1157
mostly 1157
ony 1157
advice 1156
eve 1156
notes 1156
ored 1156
ride 1156
capable 1155
programs 1154
ows 1153
interests 1152
Using 1151
bodies 1151
gift 1151
ency 1150
realized 1150
director 1149
ll 1149
depends 1148
eng 1148
trav@@ 1147
shaped 1146
sul@@ 1146
Russian 1145
ately 1145
streets 1145
religious 1144
ric 1143
suggested 1143
teachers 1143
worse 1143
decade 1142
pig@@ 1142
spr@@ 1142
sensitive 1141
sand 1140
combined 1139
umin@@ 1139
acting 1138
camera 1138
cup 1137
stream 1136
command 1135
storm 1135
tum@@ 1135
specified 1134
storage 1134
vast 1134
eled 1133
meal 1133
med@@ 1133
showing 1133
bot@@ 1132
civil 1132
hood 1132
salt 1132
waves 1132
asking 1130
devices 1130
motion 1130
neither 1130
consumption 1129
interface 1129
teen 1129
increases 1128
Through 1127
assets 1127
trial 1127
injury 1126
deeply 1125
ache 1124
bill 1124
Li 1123
Or@@ 1123
corporate 1123
ept 1123
tent 1123
ink@@ 1122
sources 1122
vehicle 1122
views 1122
Congress 1121
aming 1121
perform 1121
controlled 1120
dge 1120
experienced 1120
increasingly 1120
ref@@ 1120
review 1120
temp@@ 1120
grass 1119
opinion 1119
cin@@ 1118
flat 1118
initial 1118
journey 1118
law@@ 1118
pain@@ 1117
Day 1115
firms 1115
soldiers 1115
Wall 1114
Mil@@ 1113
cross 1113
telling 1113
pping 1112
lights 1111
majority 1111
significance 1111
th-@@ 1111
truly 1111
volume 1111
Under 1110
discuss 1110
irs 1110
attitude 1109
escape 1109
aren 1108
guide 1108
surprise 1108
thre@@ 1108
ination 1107
shift 1107
suit 1107
promote 1106
throw 1106
Take 1105
occur 1105
rapid 1105
surgery 1105
conflict 1104
nose 1104
ram@@ 1104
website 1103
Bur@@ 1102
referred 1102
foundation 1101
dreams 1100
falling 1100
flying 1100
lad@@ 1100
ore@@ 1100
Mor@@ 1099
currently 1099
buildings 1098
protein 1098
Indian 1097
Sunday 1097
infection 1097
wards 1097
differences 1096
ears 1096
leg 1095
noticed 1095
managed 1094
ordinary 1094
Mc@@ 1093
oth 1093
brings 1092
cry 1092
mood 1092
smooth 1091
ulation 1091
bigger 1090
creation 1088
favorite 1088
gam@@ 1088
van@@ 1088
lots 1087
welcome 1087
anger 1085
cloud 1085
hem@@ 1085
patterns 1085
smoke 1085
Methods 1084
judge 1084
risks 1084
sector 1084
anim@@ 1083
cour@@ 1082
implementation 1082
lec@@ 1082
marketing 1082
oral 1082
ou 1082
wonderful 1082
Pe@@ 1081
aded 1081
ip 1081
Cal@@ 1080
ham@@ 1080
platform 1080
La@@ 1079
pictures 1079
gun 1078
ha 1078
spoke 1078
El@@ 1077
System 1077
aked 1077
hypo@@ 1077
obtained 1077
silver 1077
Fe@@ 1076
Ta@@ 1076
index 1076
possibility 1076
dol@@ 1075
idi@@ 1074
inary 1074
mentation 1074
oned 1074
success 1074
efficient 1073
feels 1073
Iran 1072
allowing 1072
leg@@ 1072
careful 1071
doors 1071
identify 1070
lady 1070
ode 1070
runs 1070
Min@@ 1069
relevant 1069
resource 1069
Wh@@ 1068
annual 1068
calling 1068
entered 1068
ign@@ 1068
insurance 1068
kitchen 1068
Maybe 1067
boys 1067
tissue 1067
youth 1067
cat 1066
tube 1066
kinds 1065
tou@@ 1065
putting 1064
Dar@@ 1063
aling 1063
cru@@ 1063
ith 1063
ide@@ 1061
shar@@ 1061
thesis 1061
tional 1061
analyzed 1060
consumer 1060
gran@@ 1060
Over 1059
ock 1059
therapy 1059
ards 1058
belief 1058
documents 1058
not@@ 1058
2@@ 1057
budget 1057
diagnosis 1057
quarter 1057
pleasure 1056
aging 1055
kets 1055
talks 1055
causing 1054
syn@@ 1054
attacks 1053
facing 1053
magn@@ 1053
session 1053
aster 1052
bread 1051
discussion 1051
land@@ 1051
pace 1051
pose 1050
predic@@ 1050
procedure 1050
remained 1050
scope 1050
Li@@ 1049
arity 1049
houses 1049
prime 1049
remote 1049
aircraft 1048
ered 1048
laugh@@ 1048
pot 1048
tends 1048
ney 1046
sions 1046
context 1045
rub@@ 1045
sorry 1045
painting 1044
senior 1043
twice 1043
vo@@ 1043
dum@@ 1042
parameters 1041
billion 1040
Gra@@ 1039
announced 1039
broke 1039
Asian 1038
diet 1037
emergency 1037
fans 1037
individuals 1037
characteristic 1036
conference 1036
default 1036
ac 1035
ef@@ 1035
eth@@ 1035
form@@ 1035
fun@@ 1035
root 1035
millions 1034
package 1034
ris@@ 1034
suffering 1034
thee 1034
san@@ 1033
black@@ 1032
bow 1032
equal 1032
watched 1032
lets 1031
passing 1031
Christ 1030
erg@@ 1030
nearby 1030
profit 1030
revealed 1030
carrying 1028
insul@@ 1028
trading 1028
finish 1027
mixed 1027
starts 1027
ai@@ 1026
bid 1026
hundreds 1026
ocean 1026
accident 1025
performed 1025
usual 1025
Ab@@ 1024
sample 1024
Last 1023
inflation 1023
obe@@ 1023
og 1023
sees 1023
struggle 1023
Whether 1022
authority 1022
ester 1022
forth 1022
housing 1022
leads 1022
comfort 1021
conversation 1021
driven 1020
finance 1019
pes 1019
powder 1019
sharp 1019
title 1019
ave 1018
clu@@ 1018
doc@@ 1018
iling 1018
sh 1018
F 1017
picked 1017
worst 1017
Dr. 1016
eggs 1016
labor 1016
ultra@@ 1016
extent 1015
rooms 1015
conver@@ 1014
alls 1013
forever 1013
removed 1013
sav@@ 1013
static 1013
begins 1012
conscious 1012
constant 1012
laid 1012
newspaper 1012
regions 1011
tile 1011
hal@@ 1010
improvement 1010
symptoms 1010
V 1009
play@@ 1009
ove 1008
surprised 1008
apart 1007
aph@@ 1007
tough 1007
Union 1006
cou@@ 1006
describe 1006
massive 1006
restaurant 1006
whe@@ 1006
hopes 1005
ace@@ 1004
intended 1004
ought 1004
ough 1003
bled 1002
thro@@ 1002
California 1001
esh 1001
Du@@ 1000
ee 1000
quar@@ 1000
tired 1000
rural 999
historical 998
served 998
Ge@@ 997
argument 997
businesses 996
column 996
evaluation 996
len 996
occurs 996
UK 995
ker@@ 995
tabl@@ 995
Canada 994
Still 994
faster 994
emotional 993
otic 993
ples 993
ushed 993
wedding 993
9 992
smo@@ 992
thir@@ 992
crowd 991
ams 990
dering 990
dom@@ 990
investigation 990
raw 990
read@@ 990
Sil@@ 989
border 989
bottle 989
new@@ 989
shed 989
signed 989
tall 989
Friday 988
H 988
ades 988
ading 988
click 988
danger 988
ush@@ 988
Sea 987
fast@@ 987
promise 986
oid 985
reck@@ 985
solar 985
accepted 984
angry 984
prop@@ 984
George 983
W 983
Cl@@ 982
ail@@ 982
decisions 982
emp@@ 982
executive 982
explained 982
pipe 982
gel 981
indicate 981
sco@@ 980
wal@@ 980
leaf 979
hill 978
manage 978
shared 978
Ma@@ 976
agg@@ 975
bol@@ 975
buying 975
chro@@ 975
lit@@ 975
rid 975
mentioned 974
scar@@ 974
square 974
opposite 973
venture 973
vit@@ 973
establish 972
merely 971
understood 971
25 970
ep 970
guard 970
Am@@ 969
Second 969
fail 968
Michael 967
agency 967
aside 967
burn 967
creative 967
offering 967
No@@ 966
photo 966
dou@@ 965
fiber 965
relationships 965
sheet 965
drinking 964
matters 964
met@@ 964
express 963
owned 963
whis@@ 963
ef 962
mos@@ 962
input 961
ishing 961
manufacturing 961
observed 961
sudden 961
taught 961
tested 961
Without 960
concerns 960
tened 960
wrap@@ 960
Mag@@ 959
gol@@ 959
greatly 959
rest@@ 959
debate 958
moves 958
py 958
clouds 957
false 957
literature 957
mistake 957
Com@@ 956
sad 956
universe 956
golden 954
graph@@ 954
haven 954
Australia 953
half@@ 953
medium 953
Moreover 952
To@@ 952
dropped 952
football 952
frequently 952
heads 952
kle 952
options 952
printing 952
sale 952
helping 951
owing 951
burning 950
circumstances 950
count 950
lips 950
nec@@ 950
select 950
visible 950
Wal@@ 949
tie 949
astr@@ 948
item 948
shell 948
thanks 948
ces 947
detail 947
radiation 947
ane 946
deb@@ 946
fellow 946
mi@@ 946
ous@@ 946
stands 946
ation@@ 945
attached 945
gener@@ 945
idity 945
igh@@ 945
leadership 945
sand@@ 945
southern 945
Results 944
colleagues 944
cooperation 944
entirely 944
pages 944
smell 944
Only 943
cards 943
troops 943
11 942
aries 942
breath 942
divided 942
perspective 942
yesterday 942
missing 941
possibly 941
tomorrow 941
mol@@ 940
depth 939
height 939
mechanical 939
shirt 939
yes 939
Taiwan 938
facts 938
properly 938
AN@@ 937
abroad 937
holiday 937
pot@@ 937
clients 936
holds 936
lands 936
tone 936
ware 936
cel@@ 935
dogs 935
lip@@ 935
ries 935
s-@@ 935
structures 935
ting@@ 935
Egypt 934
Gar@@ 934
electronic 934
till 934
Monday 933
faced 933
fir@@ 933
lun@@ 933
rul@@ 933
tal@@ 933
innovation 932
records 932
rot@@ 932
shopping 932
thetic 932
tem@@ 931
topic 931
Application 930
coast 930
ette 930
hardly 930
pin@@ 930
Among 929
ese 929
hidden 929
miss 929
win@@ 929
K 928
Pre@@ 928
Who 928
full@@ 928
intelligence 928
mountains 928
opposition 928
parti@@ 928
portra@@ 928
Water 927
adver@@ 927
colors 927
bes 926
calm 926
cope 926
units 926
acle 925
claimed 925
phenomenon 925
Three 924
aim 924
sion@@ 924
weapons 924
3@@ 923
eful 923
lake 923
supposed 923
Wang 921
iti@@ 921
Sun 920
figures 920
ind@@ 920
prepare 920
Italy 918
powers 918
Where 917
believes 917
generate 917
key@@ 917
let@@ 916
sup@@ 916
typically 916
ume 916
High 915
div@@ 915
foods 915
radio 915
suffer 915
bearing 914
channel 914
delivery 914
vote 914
automatically 913
broad 913
largely 913
tasks 913
chem@@ 912
ton@@ 912
Bra@@ 911
circle 911
farmers 911
symbol 911
chan@@ 910
determination 910
nic@@ 910
ocr@@ 910
waters 910
dar@@ 909
proc@@ 909
rank 909
wisdom 909
falls 908
genetic 908
rapidly 908
thinks 908
armed 907
refused 907
gal@@ 906
muscle 906
pil@@ 906
plenty 906
acks 905
ap 905
closely 905
closer 905
duty 905
selected 905
Jo@@ 904
honest 904
recession 904
dic@@ 903
Life 902
seeking 902
wind@@ 902
weekend 901
logical 900
transport 900
fur@@ 898
reasonable 898
seriously 898
IT 897
proud 897
struck 897
Tom 896
chest 896
ending 896
mem@@ 896
neuro@@ 896
planned 896
tim@@ 896
circuit 895
speci@@ 895
African 893
challenges 893
clothing 893
disaster 893
identified 893
zed 893
tless 892
medi@@ 891
oes 891
hang 890
pressed 890
Jack 889
democracy 889
mal 889
narrow 889
noted 889
trou@@ 889
visual 889
Indeed 888
architecture 888
beach 888
occurred 888
opportunities 888
sail@@ 888
stored 888
supported 888
citizens 887
cleaning 887
fluid 887
ica 887
identity 887
oo 887
Bro@@ 886
amed 886
hearing 886
teach 886
wat@@ 886
Department 885
enterprises 885
isting 885
begun 884
criminal 884
kn@@ 884
linked 884
soci@@ 884
valuable 884
Park 883
lion 883
lucky 883
nutri@@ 883
ound 883
shine 883
highest 882
impl@@ 882
justice 882
prison 882
cloth 881
lift 881
teams 881
configuration 880
hall 880
egg 879
homes 879
relation 879
ka 878
survey 878
talent 878
break@@ 877
cream 877
ino 877
makers 877
motor 877
tain 877
Korean 876
completed 876
examination 876
fied 876
ordered 875
plan@@ 875
drawing 874
pen 874
tight 874
Red 873
cav@@ 873
fix@@ 873
functions 873
personality 873
popul@@ 873
principles 873
wel@@ 873
Hong 872
pel 872
alcohol 871
connect 871
pointed 871
/ 870
complicated 870
_ 869
berry 869
providing 869
simulation 869
alive 868
book@@ 868
experiences 868
extreme 868
habit 868
reliable 868
advance 867
internet 867
thin@@ 867
ute 867
gon 866
pollution 866
psych@@ 866
roof 866
spiritual 866
chil@@ 865
day@@ 865
electricity 865
ffe@@ 865
ind 865
sely 865
Tr@@ 864
achieved 864
alternative 864
asy 864
pra@@ 864
Company 863
chosen 863
ich 863
ron 863
significantly 863
simpl@@ 863
heaven 862
nine 862
orders 862
reputation 862
2008 861
knowing 861
ph 861
thank 861
wil@@ 861
ket@@ 860
oma 860
Part 859
ager 859
define 859
drawn 858
marked 858
sible 858
breaking 857
scheme 857
wet 857
bacteria 856
ull 856
defense 855
fault 855
guess 855
tings 855
containing 854
replace 854
selection 854
aspect 853
encourage 853
expressed 853
fundamental 853
maintenance 853
owed 853
yer 853
embar@@ 852
ison 852
landscape 852
1@@ 851
Sal@@ 851
accurate 851
ologist 851
prefer 851
switch 851
alized 850
attractive 850
centre 850
obtain 850
politicians 850
resem@@ 850
contents 849
cuts 849
evaluate 849
examples 849
fingers 849
flat@@ 849
forming 849
hop@@ 849
philosophy 849
producing 849
shadow 849
shock 849
tun@@ 849
definition 848
rum@@ 848
Sa@@ 847
US@@ 847
button 847
dat@@ 847
estate 847
flexible 847
lunch 847
controls 846
institutions 846
measured 846
passion 846
previously 846
ser 846
colour 845
observe 845
SO@@ 844
arian 844
ashed 844
ay@@ 844
dressed 844
filter 844
victory 844
Cam@@ 843
asks 843
charges 843
letters 843
pump 843
accuracy 842
ank 842
consists 842
essed 842
fate 842
finger 842
oph@@ 842
than@@ 842
wav@@ 842
generated 841
mix 841
scri@@ 841
apo@@ 840
cotton 840
federal 840
fri@@ 840
machines 840
ope 840
positions 840
rough 840
set@@ 840
decline 839
fix 839
rence 839
repair 839
unusual 839
won@@ 839
Ru@@ 838
doctors 838
hot@@ 838
normally 838
partners 838
person@@ 838
reflect 838
We@@ 837
particles 837
ried 837
sign@@ 836
Microsoft 835
Women 835
joined 835
native 835
sentence 835
sick 835
Good 834
focused 834
hanging 834
oured 834
warning 834
consciousness 833
ori@@ 833
shoulder 833
blow 832
managers 832
wire 832
shut 831
skill 831
Mer@@ 830
concentration 830
lif@@ 830
officer 830
Paul 829
conduc@@ 829
convenient 829
fallen 829
ith@@ 829
regional 829
solutions 829
Ap@@ 828
EU 828
Ms. 828
Paris 828
library 828
stomach 828
tradition 827
ories 826
tex@@ 826
elling 825
regime 825
rows 825
courage 824
ify 824
ER 823
fishing 823
night@@ 823
orous 823
wake 823
Pol@@ 822
Por@@ 822
atory 822
exposed 822
fant@@ 822
lessly 822
mirror 822
Method 821
bers 821
jump 821
stairs 821
tons 821
worker 821
acute 820
adopted 820
efully 820
snow@@ 820
vehicles 820
eller 819
obviously 819
suffered 819
telephone 819
Tuesday 818
asts 818
maximum 818
talked 818
tant 818
belt 817
corn 817
gene 817
strike 817
18 816
pac@@ 816
Make 815
array 815
draw@@ 815
grain 815
pleasant 815
saving 815
chicken 814
edly 814
iff 814
keys 814
launch 814
Ver@@ 813
confirmed 813
losing 813
monitoring 813
Christian 812
assembly 812
ans@@ 811
Greece 810
Inter@@ 810
Te@@ 810
farm 810
logic 810
bits 809
cy 809
gently 809
Italian 808
graph 808
entry 806
raising 806
sin 806
Xi@@ 805
constantly 805
likes 805
payment 805
represents 805
tial 805
wore 805
composition 804
findings 804
molec@@ 804
purchase 804
silence 804
Ste@@ 803
atures 803
cheap 803
ek 803
exposure 803
handed 803
magnetic 803
pocket 803
rab@@ 803
spoken 803
yuan 803
X 802
config@@ 802
experimental 802
Fi@@ 801
honor 801
class@@ 800
edi@@ 800
onal 800
seed 800
vir@@ 800
Greek 799
aint 799
harm 799
osity 799
outer 799
paint 799
James 798
scal@@ 798
sized 798
banking 797
ght@@ 797
iring 797
magic 797
THE 796
fusion 796
puts 796
stuck 796
Olympic 795
keeps 795
rarely 795
verse 795
Group 794
childhood 794
domain 794
evolution 794
respond 794
vul@@ 794
advertising 793
fal@@ 793
fan 793
operate 793
ured 793
II 792
degrees 792
harder 792
itate 792
northern 792
province 792
scop@@ 792
worthy 792
amp@@ 791
exists 791
facilities 791
pers@@ 791
tract 791
ger@@ 790
onom@@ 790
regulation 790
show@@ 790
visitors 790
Kong 789
Wednesday 789
academic 789
listening 789
owners 789
parent 789
resulting 789
ro 789
transmission 789
yn@@ 789
aches 788
chee@@ 788
clo@@ 788
deliver 788
electrical 788
hate 788
logy 788
pos@@ 788
detection 787
issued 787
reducing 787
returns 787
stal@@ 787
tip 787
expansion 786
finds 786
religion 786
Tur@@ 785
approval 785
liver 785
tour 785
worried 785
Q 784
conventional 784
fat@@ 784
ians 784
measurement 784
Je@@ 783
ays 783
commonly 783
criticism 783
icked 783
king@@ 783
practices 783
seconds 783
ut 783
answered 782
bio@@ 782
brief 782
consequences 782
residents 782
survive 782
valve 782
60 781
Afghanistan 781
artist 781
immediate 781
meter 781
ulous 781
Char@@ 780
arranged 780
batt@@ 780
blind 780
chi@@ 780
four@@ 780
Br@@ 779
Will 779
export 779
mixture 779
represent 779
ste 779
ake 778
brush 778
ease 778
pas@@ 778
cher@@ 777
imag@@ 777
mouse 777
photos 777
resolution 777
unk 777
-year 776
Can@@ 776
Fin@@ 776
Man 776
advantages 776
enter@@ 776
relief 776
ung@@ 776
Hy@@ 775
cab@@ 775
gall@@ 775
mature 775
studying 775
School 774
rem@@ 774
sufficient 774
adds 773
branch 773
counter@@ 773
hide 773
marks 773
ock@@ 773
poverty 773
shor@@ 773
union 773
Mis@@ 772
ax 772
breast 772
necessarily 772
ond@@ 772
Saturday 771
Sch@@ 771
depression 771
incident 771
jec@@ 771
mul@@ 771
ratio 771
windows 771
creates 770
ounded 770
smart 770
unlikely 770
2010 769
ren 769
row@@ 769
somewhat 769
wheat 769
Council 768
Harry 768
ere 768
eu@@ 768
eze 768
ility 768
temporary 768
tism 768
wn 768
Look 767
Spain 767
inven@@ 767
mit@@ 767
obl@@ 767
plain 767
rain@@ 767
supplies 767
wings 767
dealing 766
laser 766
profile 766
regard 766
route 766
saved 766
Trans@@ 765
darkness 765
paying 765
theme 765
jum@@ 764
rescue 764
revolution 764
tank 764
16 763
bed@@ 763
comment 763
email 763
preparation 763
Having 762
berg 762
fig@@ 762
killing 762
side@@ 762
tus 762
accounts 761
appeal 761
everybody 761
everywhere 761
0 760
Being 760
Have 760
Na@@ 760
Pacific 760
pulse 760
aspects 759
beg@@ 759
gan@@ 759
isi@@ 759
iss@@ 759
liked 759
mates 759
victims 759
desk 758
e. 758
gap 758
Are 757
argue 757
compound 757
rolling 757
Cap@@ 756
bond 756
vic@@ 756
younger 756
Miss 755
fabric 755
hat 755
instrument 755
recognition 755
bor@@ 754
detailed 754
objective 754
secure 754
smoking 754
stery 754
tension 754
transaction 754
IN@@ 753
Mrs. 753
charged 753
demands 753
earthquake 753
formal 753
icity 753
log 753
naturally 753
New@@ 752
competitive 752
cons@@ 752
illegal 752
improving 752
invited 752
ising 752
sor 752
Next 751
Ven@@ 751
oxygen 751
portion 751
adult 750
bility 750
Bel@@ 749
DNA 749
Mary 749
absolutely 749
appl@@ 749
collapse 749
good@@ 749
je@@ 749
stem 749
wooden 749
birthday 748
roc@@ 748
14 747
Dr 747
cles 747
stores 747
vegetables 747
zhou 747
ID 746
dil@@ 746
ordin@@ 746
organ@@ 746
Law 745
RE@@ 745
apartment 745
loan 745
continuous 744
hil@@ 744
links 744
oming 744
pack 744
permanent 744
rep@@ 744
commitment 743
ration 743
rious 743
songs 743
yield 743
Mexico 742
enhance 742
fiscal 742
nel 742
wit@@ 742
aer@@ 741
burden 741
extended 741
gy 741
singing 741
amazing 740
emerging 740
profits 740
CA@@ 739
incredi@@ 739
gent 738
maker 738
stronger 738
tured 738
wel 738
Figure 737
app@@ 737
gged 737
organizations 737
shut@@ 737
wash 737
worn 737
density 736
euro 736
losses 736
appe@@ 735
discover 735
fortune 735
stic@@ 735
touched 735
umb@@ 735
unknown 735
Ber@@ 734
Mat@@ 734
Thank 734
ction 734
fav@@ 734
indicated 734
parameter 734
py@@ 734
rol@@ 734
Hun@@ 733
comments 733
illa 733
laugh 733
luck 733
mention 733
bath 732
conduct 732
destroy 732
ins@@ 732
intense 732
mere 732
Mal@@ 731
antly 731
delay 731
ols 731
pep@@ 731
sau@@ 731
Time 730
difficulty 730
house@@ 730
satisfied 730
amounts 729
fears 729
terrible 729
v 729
erv@@ 728
holes 728
ited 728
juice 728
mur@@ 728
assessment 727
bat@@ 727
brow@@ 727
candidate 727
desert 727
dor@@ 727
glad 727
rational 727
tied 727
violent 727
za 727
The@@ 726
bedro@@ 726
eration 726
pit 726
tar@@ 726
ums 726
warned 726
ING 725
cell@@ 725
guys 725
oneself 725
pay@@ 725
rup@@ 725
sim@@ 725
view@@ 725
Tra@@ 724
commun@@ 724
dered 724
description 724
mas@@ 724
5@@ 723
AT@@ 723
June 723
chronic 723
technologies 723
definitely 722
pushed 722
steady 722
13 721
Cu@@ 721
Lo@@ 721
Province 721
elev@@ 721
hair@@ 721
procedures 721
vin@@ 721
Year 720
eye@@ 720
format 720
iter 720
winning 720
Central 719
Pal@@ 719
Sur@@ 719
ai 719
cable 719
conclusion 719
helpful 719
subjects 719
vol@@ 719
Do@@ 718
March 718
Old 718
clean@@ 718
numerous 718
open@@ 718
perfectly 718
promised 718
legen@@ 717
listed 717
ord@@ 717
silent 717
boy@@ 716
implement 716
professor 716
school@@ 716
Mi@@ 715
Pakistan 715
monitor 715
ond 715
Based 714
ST@@ 714
articles 714
expert 714
loose 714
ook 714
shares 714
4@@ 713
genes 713
hes@@ 713
pup@@ 713
bath@@ 712
fourth 712
gray 712
latter 712
nam@@ 712
pir@@ 712
ras@@ 712
romantic 712
variable 712
Center 711
Ms 711
Sam@@ 711
Sk@@ 711
fairly 711
lap@@ 711
phones 711
readers 711
reveal 711
taxes 711
ural 711
Thursday 710
reduction 710
camp 709
computers 709
cycl@@ 709
declared 709
expand 709
gh 709
kin 709
knife 709
physi@@ 709
remaining 709
TH@@ 708
Zhang 708
cho@@ 708
finite 708
framework 708
sleeping 708
sque@@ 708
tox@@ 708
Development 707
actor 707
beneath 707
burst 707
discovery 707
guests 707
ign 707
oven 707
stroke 707
successful 707
graphy 706
ost 706
recognize 706
Dra@@ 705
Is@@ 705
Men 705
Pr@@ 705
installed 705
sons 705
Brown 704
Em@@ 704
Unfortunately 704
ential 704
essence 704
fres@@ 704
indicates 704
Cha@@ 703
biological 703
blame 703
gaz@@ 703
guarantee 703
gy@@ 703
mon 703
Black 702
Sp@@ 702
boost 702
chocolate 702
irrit@@ 702
script 702
spokesman 702
akes 701
illu@@ 701
integrated 701
mation 701
replaced 701
shr@@ 701
tles 701
virtual 701
Sub@@ 700
abstract 700
airport 700
ceremony 700
economies 700
temple 700
difficulties 699
gle 699
outcome 699
plus 699
que@@ 699
regarded 699
samples 699
eling 698
experiments 698
graduate 698
hoping 698
immune 698
integration 698
izing 698
500 697
Effect 697
compan@@ 697
discipline 697
officers 697
prior 697
capit@@ 696
chers 696
contained 696
involves 696
overs 696
rage 696
sym@@ 696
Hor@@ 695
bowl 695
destroyed 695
phosph@@ 695
purposes 695
une 695
introduce 694
pressing 694
requirement 694
thrown 694
Besides 693
Ni@@ 693
artificial 693
classic 693
committee 693
extend 693
films 693
headed 693
itor 693
puzz@@ 693
stimul@@ 693
oning 692
surely 692
time@@ 692
Health 691
beam 691
chapter 691
dul@@ 691
enable 691
hyper@@ 691
infrastructure 691
nat@@ 691
sequ@@ 691
ule 691
Fo@@ 690
Po@@ 690
assi@@ 690
bringing 690
gear 690
nov@@ 690
tape 690
transition 690
clock 689
disk 689
reli@@ 689
surrounding 689
tar 689
committed 688
regulations 688
settled 688
automatic 687
eing 687
inflam@@ 687
lip 687
meters 687
2009 686
alt 686
ampl@@ 686
attempts 686
confident 686
totally 686
adults 685
esti@@ 685
la 685
rig@@ 685
swimming 685
About 684
Au@@ 684
Design 684
cake 684
describes 684
pick@@ 684
ption 684
tory 684
affairs 683
grace 683
languages 683
schedule 683
sheep 683
wol@@ 683
Dynasty 682
hearts 682
magazine 682
marry 682
oods 682
psychological 682
rhyth@@ 682
thor@@ 682
Republican 681
assume 681
brilliant 681
favor 681
mentary 681
signals 681
silk 681
stayed 681
Spanish 680
hero 680
ich@@ 680
illness 680
ood 680
recognized 680
tual 680
beer 679
beside 679
eping 679
erness 679
linear 679
scen@@ 679
threw 679
tongue 679
April 678
Cup 678
Several 678
aving 678
custom 678
equivalent 678
ices 678
itis 678
ply 678
rush 678
voltage 678
AS@@ 677
Lee 677
Peter 677
fold 677
hyd@@ 677
limits 677
moments 677
overcome 677
wr@@ 677
OF 676
autumn 676
eastern 676
seeds 676
ty-@@ 676
crucial 675
exception 675
keeper 675
launched 675
na 675
sters 675
200 674
bran@@ 674
branches 674
deals 674
equally 674
gar 674
hoped 674
leather 674
RA@@ 673
Soviet 673
composed 673
hardware 673
ote 673
sequence 673
Island 672
corruption 672
fashi@@ 672
Fu@@ 671
Mother 671
OK 671
blocks 671
cooking 671
dear 671
detec@@ 671
furniture 671
omy 671
roads 671
agents 670
friendship 670
personnel 670
tivity 670
vely 670
analysts 669
division 669
holy 669
motor@@ 669
nit@@ 669
translation 669
appreciate 668
blu@@ 668
capture 668
distant 668
strategic 668
apped 667
rocks 667
satisfaction 667
Mid@@ 666
Queen 666
accused 666
buried 666
comprehensive 666
curve 666
employee 666
explanation 666
ules 666
bet 665
gentle 665
shoot 665
January 664
fet@@ 664
lasting 664
lev@@ 664
shad@@ 664
‘ 664
boo 663
comparison 663
liter@@ 663
luxury 663
sex@@ 663
weapon 663
xi 663
zing 663
Bre@@ 662
compare 662
ied 662
lonely 662
ouse 662
sake 662
sum 662
tech 662
comm@@ 661
hoo@@ 661
liqu@@ 661
reads 661
trained 661
Air 660
chose 660
eli@@ 660
kid 660
loans 660
ree 660
Middle 659
aks 659
bones 659
delivered 659
developers 659
ishes 659
sending 659
sport 659
substance 659
tries 659
July 658
guest 658
prof@@ 658
survival 658
20@@ 657
Service 657
analyze 657
chol@@ 657
dies 657
ez@@ 657
household 657
ops 657
origin 657
strain 657
Pi@@ 656
behaviour 656
eal@@ 656
gathered 656
loaded 656
mistakes 656
presents 656
quantity 656
after@@ 655
celebr@@ 655
flow@@ 655
human@@ 655
ounce 655
NO@@ 654
color@@ 654
produces 654
vertical 654
any@@ 653
elsewhere 653
handling 653
nervous 653
painful 653
ss 653
superior 653
transportation 653
vital 653
Ben@@ 652
acted 652
apparently 652
enormous 652
inspection 652
pride 652
spe@@ 652
thermal 652
ances 651
compl@@ 651
ghts 651
humanity 651
industries 651
inity 651
od 651
osis 651
terri@@ 651
tower 651
asset 650
brothers 650
elegant 650
explo@@ 650
lice 650
sought 650
Vi@@ 649
awareness 649
cock@@ 649
hat@@ 649
loud 649
ologists 649
rable 649
Gl@@ 648
Later 648
lick 648
mice 648
post-@@ 648
six@@ 648
specify 648
Mad@@ 647
networks 647
orange 647
peaceful 647
peak 647
bags 646
calculation 646
illed 646
lovely 646
steam 646
synchron@@ 646
September 645
ah@@ 645
arrive 645
co 645
engaged 645
roots 645
zero 645
aut@@ 644
dirty 644
elled 644
lit 644
lot@@ 644
minds 644
protected 644
replied 644
thread 644
2007 643
Brazil 643
accounting 643
coo@@ 643
equity 643
fabric@@ 643
grand 643
reaching 643
… 643
aching 642
anywhere 642
atin@@ 642
craft 642
ok 642
sharing 642
tables 642
usage 642
Gre@@ 641
William 641
an-@@ 641
aps 641
bubble 641
fed 641
memories 641
mm 641
modified 641
nerve 641
oom 641
proposal 641
was@@ 641
Light 640
Rec@@ 640
ava 640
trace 640
balanced 639
category 639
gers 639
itude 639
precious 639
prin@@ 639
universal 639
80 638
Unlike 638
combat 638
execution 638
ities 638
magne@@ 638
recep@@ 638
vessel 638
Ji@@ 637
Remember 637
Shi@@ 637
UN 637
blade 637
considering 637
err@@ 637
heart@@ 637
minor 637
movies 637
tropical 637
10@@ 636
asing 636
lamp 636
tening 636
transformation 636
Minister 635
errors 635
exact 635
happening 635
routine 635
situations 635
udge 635
ultimately 635
ya 635
absence 634
ender 634
utility 634
Sar@@ 633
Ti@@ 633
breakfast 633
ex 633
mes 633
optical 633
ota 633
rubber 633
sword 633
ultimate 633
ate@@ 632
bean 632
bum@@ 632
emotions 632
remarkable 632
San 631
bru@@ 631
corresponding 631
recorded 631
regularly 631
Go@@ 630
Ha@@ 630
arly 630
container 630
explains 630
extension 630
mic 630
strongly 630
detect 629
heating 629
nas@@ 629
programme 629
targets 629
beings 628
communicate 628
conducted 628
correctly 628
iter@@ 628
som@@ 628
somewhere 628
tible 628
truck 628
chemicals 627
funny 627
minimum 627
mou@@ 627
shake 627
copper 626
flows 626
glasses 626
prote@@ 626
AT 625
crystal 625
enjoyed 625
ety 625
excited 625
heavily 625
ication 625
rif@@ 625
-term 624
ague 624
apple 624
ei@@ 624
gun@@ 624
lea@@ 624
printed 624
refers 624
secondary 624
warm@@ 624
ba 623
icon 623
intensity 623
layers 623
pursuit 623
stocks 623
anxiety 622
disorder 622
impression 622
priority 622
son@@ 622
Control 621
Mark 621
actic 621
attend 621
counter 621
ene 621
fair@@ 621
grant 621
shaft 621
stro@@ 621
Rob@@ 620
Tw@@ 620
coach 620
locked 620
mad@@ 620
mutual 620
width 620
intellectual 619
odd 619
precision 619
road@@ 619
somebody 619
24 618
cong@@ 617
gram 617
ions 617
lob@@ 617
quietly 617
vel@@ 617
damaged 616
migh@@ 616
morph@@ 616
tow@@ 616
ashing 615
compensation 615
eral 615
notion 615
orable 615
wild@@ 615
Mic@@ 614
Rem@@ 614
bonds 614
bus@@ 614
crops 614
illary 614
induced 614
menu 614
mess@@ 614
nobody 614
pend@@ 614
thwest 614
too@@ 614
atten@@ 613
examine 613
inger 613
sigh@@ 613
Furthermore 612
Gran@@ 612
Si@@ 612
adhe@@ 612
basically 612
displayed 612
revenue 612
spectac@@ 612
tionally 612
Due 611
cham@@ 611
deeper 611
ems 611
ght 611
gor@@ 611
visited 611
Tri@@ 610
exciting 610
god 610
installation 610
pursue 610
throat 610
BC 609
ME@@ 609
athle@@ 609
bil@@ 609
collec@@ 609
consistent 609
erup@@ 609
ician 609
ides 609
recommend 609
crew 608
designer 608
destruction 608
distributed 608
essing 608
hung 608
itch 608
oh 608
oul@@ 608
Government 607
Office 607
folk 607
fr@@ 607
holder 607
interaction 607
plat@@ 607
sect 607
shooting 607
solu@@ 607
supporting 607
depend 606
inging 606
inning 606
interior 606
serving 606
tage 606
College 605
Jackson 605
ashes 605
comman@@ 605
door@@ 605
drove 605
gue 605
inspired 605
metabol@@ 605
oxide 605
split 605
ban 604
cap 604
chances 604
depic@@ 604
strengthen 604
Mos@@ 603
centuries 603
choices 603
decrease 603
liber@@ 603
lin 603
pleased 603
potentially 603
rid@@ 603
stan@@ 603
stones 603
tness 603
ushing 603
voters 603
witness 603
Cro@@ 602
Times 602
clos@@ 602
ises 602
matic 602
afford 601
instinc@@ 601
module 601
nut 601
theoretical 601
tis 601
Sim@@ 600
apolog@@ 600
entrance 600
ghter 600
tom 600
Everyone 599
Given 599
RO@@ 599
adm@@ 599
eliminate 599
pum@@ 599
ER@@ 598
cup@@ 598
derived 598
economics 598
frigh@@ 598
praise 598
tendency 598
weigh@@ 598
Del@@ 597
Fl@@ 597
Ter@@ 597
admit 597
collected 597
judgment 597
pile 597
reader 597
reve@@ 597
90 596
U.S. 596
fran@@ 596
nerv@@ 596
occasion 596
ousness 596
outstanding 596
parallel 596
shoc@@ 596
treating 596
Ham@@ 595
Kim 595
depending 595
ences 595
everyday 595
imagination 595
node 595
persons 595
rolled 595
bron@@ 594
lawyer 594
nights 594
poetry 594
receiving 594
rop@@ 594
terior 594
wed 594
IS@@ 593
cost@@ 593
cut@@ 593
home@@ 593
injection 593
principal 593
sian 593
sleep@@ 593
spot@@ 593
tively 593
victim 593
Cra@@ 592
Fed 592
Hon@@ 592
Smith 592
dose 592
expectations 592
ues 592
uri@@ 592
employment 591
investigated 591
kiss 591
participants 591
rhe@@ 591
simul@@ 591
Effects 590
Py@@ 590
ald 590
aly@@ 590
conten@@ 590
extraordinary 590
introduction 590
itable 590
yang 590
bell 589
een 589
filling 589
passes 589
worldwide 589
Bor@@ 588
Robert 588
Roman 588
Sw@@ 588
alk@@ 588
chart 588
crash 588
cryst@@ 588
emotion 588
indi@@ 588
Scientists 587
classical 587
ipe 587
ounding 587
swee@@ 587
tac@@ 587
tak@@ 587
Out@@ 586
ama 586
approved 586
critics 586
edy 586
lessons 586
Chen 585
SA@@ 585
Sen@@ 585
delicate 585
eag@@ 585
earn 585
lifetime 585
measuring 585
movements 585
neg@@ 585
observation 585
tips 585
tric 585
administrative 584
crazy 584
educational 584
panic 584
seal 584
sensor 584
soup 584
Court 583
Dec@@ 583
Gen@@ 583
bbed 583
cooling 583
pan 583
pass@@ 583
reflects 583
sad@@ 583
stic 583
anno@@ 582
apparent 582
breathing 582
elections 582
erc@@ 582
mot@@ 582
panel 582
sati@@ 582
structural 582
thers 582
collect 581
esh@@ 581
underground 581
Would 580
bitter 580
fruits 580
fur 580
glory 580
jet 580
lighting 580
pilot 580
query 580
resistant 580
theat@@ 580
whenever 580
Clinton 579
lo 579
righ@@ 579
stated 579
warming 579
Father 578
abuse 578
comb@@ 578
covering 578
grave 578
intestin@@ 578
odi@@ 578
overseas 578
Did 577
Lake 577
PC 577
Zh@@ 577
bite 577
bud@@ 577
connec@@ 577
drew 577
literary 577
sca@@ 577
tax@@ 577
Green 576
admi@@ 576
ails 576
chamber 576
comfor@@ 576
controlling 576
entering 576
fts 576
light@@ 576
wound 576
Big 575
CO@@ 575
Sol@@ 575
adjust 575
kno@@ 575
manipul@@ 575
pop 575
tiz@@ 575
writ@@ 575
Henry 574
dramatic 574
ford 574
frozen 574
meetings 574
programming 574
pushing 574
scrat@@ 574
arts 573
aven@@ 573
dying 573
eph@@ 573
fired 573
loves 573
passengers 573
prevention 573
tain@@ 573
washing 573
Indi@@ 572
bent 572
cure 572
enemies 572
frustr@@ 572
gest@@ 572
spac@@ 572
stom@@ 572
answers 571
blood@@ 571
climb 571
follows 571
fool@@ 571
gifts 571
ints 571
old@@ 571
requests 571
sales@@ 571
Mu@@ 570
Within 570
cann@@ 570
chant 570
gg@@ 570
inst@@ 570
loving 570
mic@@ 570
mining 570
mud 570
olu@@ 570
surrounded 570
suspect 570
ED 569
directory 569
grows 569
ool 569
outs 569
shop@@ 569
toxic 569
tumor 569
Fre@@ 568
Go 568
Pen@@ 568
UR@@ 568
band@@ 568
eds 568
erec@@ 568
flowing 568
guilty 568
inhi@@ 568
inten@@ 568
modern@@ 568
mom 568
unemployment 568
Pla@@ 567
badly 567
bars 567
ometer 567
pp@@ 567
remembered 567
resolve 567
rings 567
statements 567
Get 566
thri@@ 566
tin 566
with@@ 566
habits 565
instant 565
meth@@ 565
repeated 565
vag@@ 565
Right 564
See 564
assistance 564
chip 564
coun@@ 564
destination 564
regardless 564
stretch 564
thum@@ 564
traction 564
17 563
Phil@@ 563
Prince 563
ather 563
battery 563
ca 563
custom@@ 563
dancing 563
dict@@ 563
forests 563
lers 563
minded 563
slide 563
stepped 563
stre@@ 563
+ 562
AR@@ 562
Op@@ 562
fever 562
fle@@ 562
lesson 562
oration 562
sat@@ 562
tel@@ 562
Pot@@ 561
Rom@@ 561
asleep 561
attract 561
bomb 561
excessive 561
fas@@ 561
gather 561
glo@@ 561
guidance 561
health@@ 561
high@@ 561
partly 561
refer 561
tious 561
Analy@@ 560
Liver@@ 560
Sud@@ 560
dog@@ 560
elec@@ 560
intervention 560
passage 560
rel 560
Which 559
borne 559
cence 559
dent 559
phrase 559
prospect 559
70 558
arded 558
establishment 558
feedback 558
loading 558
missed 558
separated 558
ticul@@ 558
ts@@ 558
October 557
Republicans 557
admitted 557
agricultural 557
ball@@ 557
best@@ 557
dimensional 557
dozen 557
mass@@ 557
papers 557
shops 557
shore 557
somehow 557
IP 556
News 556
arily 556
dio 556
iler 556
ingredients 556
medic@@ 556
plum@@ 556
score 556
sculp@@ 556
Mars 555
attribute 555
designs 555
emul@@ 555
legislation 555
ses@@ 555
vivi@@ 555
Cre@@ 554
behalf 554
ech@@ 554
engage 554
ert 554
gained 554
illing 554
jumped 554
profound 554
representative 554
ruling 554
spre@@ 554
temperatures 554
uniform 554
， 554
AS 553
affects 553
brac@@ 553
cere@@ 553
concepts 553
defeat 553
fulness 553
gene@@ 553
precip@@ 553
tonight 553
Reg@@ 552
absolute 552
acious 552
coating 552
eable 552
enables 552
temper@@ 552
League 551
alling 551
emerged 551
emissions 551
ification 551
intelligent 551
originally 551
orph@@ 551
savings 551
symbol@@ 551
LO@@ 550
secretary 550
territory 550
belong 549
fying 549
inge 549
suppose 549
abl@@ 548
invention 548
murder 548
newly 548
photograph@@ 548
strip 548
Much 547
amaz@@ 547
elderly 547
employed 547
esome 547
lou@@ 547
net@@ 547
oper@@ 547
regarding 547
strict 547
theast 547
widespread 547
Pan@@ 546
chemistry 546
ells 546
ling@@ 546
spic@@ 546
ss@@ 546
thered 546
ached 545
convinced 545
drinks 545
obs 545
oriented 545
parad@@ 545
productive 545
vessels 545
veter@@ 545
San@@ 544
adap@@ 544
excess 544
flew 544
historic 544
monetary 544
participate 544
physics 544
pregnancy 544
rats 544
Games 543
Police 543
aking 543
bin 543
captain 543
captured 543
chairman 543
cord 543
formula 543
midd@@ 543
nursing 543
sho@@ 543
sum@@ 543
AND 542
Tom@@ 542
communities 542
persu@@ 542
primarily 542
rear 542
recover 542
spra@@ 542
vibr@@ 542
Project 541
Singapore 541
Yang 541
conden@@ 541
fewer 541
injured 541
mounted 541
pole 541
autom@@ 540
cheese 540
clam@@ 540
concluded 540
lor@@ 540
ror 540
tap@@ 540
Army 539
Business 539
Muslim 539
biology 539
cer 539
ince 539
ox 539
waited 539
Bir@@ 538
aw 538
drama 538
granted 538
hungry 538
organized 538
presidential 538
soldier 538
ups 538
AP@@ 537
Arab 537
carrier 537
farmer 537
fee 537
infl@@ 537
instruments 537
recommended 537
tit@@ 537
Article 536
Sir 536
arrival 536
revol@@ 536
stages 536
Ang@@ 535
Long 535
Pres@@ 535
capability 535
crack 535
crow@@ 535
ean 535
laboratory 535
labour 535
museum 535
ry@@ 535
scenario 535
2005 534
antic 534
asting 534
bos@@ 534
distinct 534
district 534
draft 534
facility 534
informed 534
predict 534
vy 534
Others 533
approaches 533
barely 533
binding 533
consideration 533
dare 533
graphic 533
slight 533
arrangement 532
bike 532
boxes 532
lay@@ 532
reflection 532
reward 532
ugly 532
Love 531
Senate 531
ali@@ 531
anyway 531
hydrogen 531
opens 531
tled 531
Little 530
Vol@@ 530
artists 530
ause 530
civilization 530
coverage 530
dad 530
dir@@ 530
random 530
spare 530
tam@@ 530
arrested 529
eous 529
membrane 529
retro@@ 529
sacrifice 529
speaker 529
vibration 529
Cy@@ 528
Jud@@ 528
Mrs 528
Texas 528
Wil@@ 528
buil@@ 528
complexity 528
contemporary 528
dependent 528
encounter 528
hi 528
nom@@ 528
rod 528
separation 528
tender 528
tex 528
threatened 528
Try 527
boom 527
drivers 527
flood 527
hn@@ 527
ject 527
oves 527
pregnant 527
spon@@ 527
strang@@ 527
walks 527
wood@@ 527
Anti@@ 526
Bal@@ 526
adjustment 526
astro@@ 526
cluster 526
cris@@ 526
effectiveness 526
eld 526
extensive 526
forgotten 526
quick@@ 526
stret@@ 526
tress 526
Cr@@ 525
lon@@ 525
nan@@ 525
rant 525
reverse 525
right@@ 525
sation 525
tide 525
Yeah 524
arer 524
checked 524
executives 524
femin@@ 524
hell 524
loo@@ 524
musical 524
pric@@ 524
Nations 523
accompanied 523
aggressive 523
eas@@ 523
honey 523
matrix 523
oon 523
rays 523
relatives 523
urity 523
viewed 523
Children 522
acti@@ 522
closing 522
constructed 522
cook 522
lord 522
oe 522
presentation 522
refres@@ 522
tooth 522
worm 522
Rel@@ 521
Resear@@ 521
artistic 521
atively 521
part@@ 521
seller 521
shoulders 521
sunlight 521
ura 521
2006 520
Should 520
atoes 520
avi@@ 520
brave 520
feeding 520
flu 520
oy@@ 520
packaging 520
tobacco 520
writers 520
MI@@ 519
ased 519
dishes 519
dispute 519
label 519
suff@@ 519
tens 519
tourism 519
FOR 518
Fac@@ 518
Think 518
dam 518
deficit 518
flag 518
funding 518
moisture 518
packed 518
proportion 518
update 518
chat@@ 517
eff@@ 517
ema 517
grid 517
indul@@ 517
returning 517
scor@@ 517
vari@@ 517
viol@@ 517
Charles 516
IN 516
call@@ 516
construct 516
detected 516
fees 516
flies 516
implemented 516
pine 516
schem@@ 516
settings 516
settle 516
spots 516
stam@@ 516
turb@@ 516
vulnerable 516
Road 515
Thanks 515
agencies 515
alistic 515
estion 515
preparing 515
thought@@ 515
valid 515
alarm 514
floating 514
occasionally 514
painted 514
reserve 514
Liu 513
abandoned 513
agriculture 513
candidates 513
dried 513
explosion 513
exports 513
identification 513
independence 513
install 513
membership 513
organs 513
satellite 513
surprising 513
va 513
wealthy 513
* 512
Ob@@ 512
anch@@ 512
carries 512
demonstrate 512
lar 512
machinery 512
ownership 512
pec@@ 512
plot 512
promotion 512
ti 512
August 511
Mel@@ 511
cend 511
defence 511
dioxide 511
erous 511
gal 511
hunting 511
life@@ 511
poin@@ 511
punishment 511
reson@@ 511
scenes 511
unlike 511
Tokyo 510
computing 510
connections 510
continuing 510
displays 510
ests 510
kis@@ 510
nur@@ 510
pel@@ 510
Human 509
Security 509
denly 509
earned 509
ference 509
ific@@ 509
lifted 509
reflected 509
robot 509
ticket 509
Master 508
intention 508
mentally 508
ocks 508
percentage 508
relax@@ 508
underlying 508
ure@@ 508
GM 507
Sun@@ 507
arch 507
fan@@ 507
gas@@ 507
preferred 507
vaccine 507
300 506
8@@ 506
Star 506
absor@@ 506
campus 506
excuse 506
frequent 506
ignore 506
ome@@ 506
one@@ 506
restore 506
ruled 506
serves 506
sni@@ 506
tourists 506
winds 506
Does 505
act@@ 505
comp@@ 505
extract 505
obs@@ 505
second@@ 505
weakness 505
weren 505
wishes 505
Mot@@ 504
alists 504
authors 504
chron@@ 504
endless 504
inated 504
ive 504
need@@ 504
productivity 504
restaurants 504
retail 504
stun@@ 504
treasure 504
Come 503
Democrats 503
Sou@@ 503
Wor@@ 503
blog@@ 503
deaths 503
entity 503
gay 503
reliability 503
reporting 503
ES 502
ardi@@ 502
bold 502
confirm 502
discharge 502
gains 502
integrity 502
isolated 502
shi@@ 502
ae 501
bad@@ 501
goo@@ 501
iss 501
jacket 501
ologic 501
sal 501
slip 501
sorts 501
stimulus 501
struggling 501
tz 501
vial 501
7@@ 500
CH@@ 500
ames 500
collective 500
conve@@ 500
ift 500
neighbor@@ 500
regret 500
represented 500
zer 500
A. 499
Ren@@ 499
contribute 499
letting 499
non 499
qualities 499
rupt 499
surro@@ 499
ual 499
velocity 499
versions 499
bears 498
com 498
past@@ 498
repeat 498
repeatedly 498
sch@@ 498
shower 498
strategies 498
stum@@ 498
surfaces 498
twenty 498
Add 497
Cla@@ 497
Florida 497
Spi@@ 497
Str@@ 497
Wat@@ 497
eaten 497
mour@@ 497
now@@ 497
relax 497
suicide 497
Bay 496
Power 496
lung 496
negotiations 496
rises 496
Atlantic 495
CD 495
architec@@ 495
disappeared 495
dit 495
ense 495
lens 495
marine 495
precise 495
stry 495
tast@@ 495
visiting 495
conservative 494
drops 494
economists 494
initi@@ 494
isation 494
joke 494
ouring 494
protective 494
radical 494
surgical 494
them@@ 494
Bri@@ 493
Chicago 493
Kar@@ 493
Windows 493
association 493
cot@@ 493
deposit 493
drag 493
editor 493
loop 493
mac@@ 493
neutr@@ 493
phil@@ 493
swim 493
Back 492
cement 492
extra@@ 492
mented 492
syl@@ 492
burned 491
conqu@@ 491
considerable 491
covers 491
enn@@ 491
essor 491
grey 491
jewel@@ 491
mess 491
performing 491
unexpected 491
winner 491
November 490
Wu 490
adopt 490
ases 490
aud@@ 490
belongs 490
declined 490
eman 490
evapor@@ 490
landing 490
oping 490
servant 490
shou@@ 490
valley 490
At@@ 489
Ireland 489
eager 489
heading 489
horri@@ 489
stupid 489
tec@@ 489
Bud@@ 488
Institute 488
Super@@ 488
aver@@ 488
certificate 488
consci@@ 488
hero@@ 488
ody 488
oot 488
posing 488
remind 488
tag@@ 488
Ag@@ 487
Bill 487
Chel@@ 487
Moscow 487
ament 487
anner 487
beans 487
crop 487
dedicated 487
experi@@ 487
incidence 487
ique 487
plas@@ 487
repl@@ 487
trap 487
ES@@ 486
IC@@ 486
Management 486
boards 486
encouraged 486
margin 486
recall 486
rivers 486
rope 486
Foreign 485
Il@@ 485
attributes 485
deligh@@ 485
dominant 485
flame 485
keen 485
knee 485
searching 485
shel@@ 485
spell 485
statistics 485
Tu@@ 484
Vis@@ 484
auc@@ 484
democratic 484
dia 484
partial 484
vacation 484
16@@ 483
Han 483
Technology 483
accordance 483
achievement 483
fea@@ 483
girlfriend 483
perfec@@ 483
ryp@@ 483
shield 483
ua 483
uncertainty 483
22 482
IT@@ 482
Plan@@ 482
Spec@@ 482
Steve 482
convenience 482
emia 482
heav@@ 482
import 482
infected 482
perme@@ 482
thou@@ 482
couples 481
defend 481
fru@@ 481
invest 481
mild 481
plun@@ 481
settlement 481
Libya 480
MA@@ 480
bam@@ 480
bec@@ 480
ceiling 480
deer 480
festival 480
highway 480
kick 480
kil@@ 480
mothers 480
norm@@ 480
occupied 480
shan 480
slope 480
Church 479
Never 479
Olympics 479
Vietnam 479
arti@@ 479
contribution 479
correlation 479
directed 479
frac@@ 479
gender 479
islands 479
num@@ 479
raises 479
tedly 479
-scale 478
Looking 478
aesthetic 478
aimed 478
calcium 478
essentially 478
ethnic 478
extrac@@ 478
missile 478
operative 478
spa@@ 478
supports 478
ternal 478
tful 478
trigger 478
Los 477
demonstrated 477
ech 477
ern 477
fails 477
haz@@ 477
jun@@ 477
piano 477
salary 477
circum@@ 476
ea 476
equipped 476
hou@@ 476
inevitable 476
isted 476
promises 476
resist 476
roles 476
veness 476
Chi@@ 475
Confuci@@ 475
Tor@@ 475
agon@@ 475
bin@@ 475
iri@@ 475
ocation 475
port@@ 475
rating 475
December 474
cardi@@ 474
classroom 474
composite 474
contrary 474
courses 474
dawn 474
exploration 474
fron@@ 474
generations 474
institution 474
interpretation 474
opposed 474
removal 474
rever@@ 474
sev@@ 474
yl 474
IS 473
ada 473
erable 473
estimated 473
flexibility 473
fracture 473
governor 473
horses 473
injuries 473
proven 473
royal 473
universities 473
yers 473
Bas@@ 472
Rather 472
acceptance 472
addy 472
affair 472
argued 472
eil 472
epis@@ 472
quad@@ 472
realistic 472
seemingly 472
spectrum 472
summit 472
uring 472
Latin 471
breaks 471
expense 471
horizontal 471
les@@ 471
pav@@ 471
planets 471
pounds 471
reply 471
representation 471
singer 471
stor@@ 471
Ger@@ 470
absorption 470
gathering 470
periods 470
rom@@ 470
sections 470
35 469
IC 469
Joe 469
characterized 469
compas@@ 469
evel@@ 469
fier 469
founded 469
psychology 469
virtu@@ 469
Martin 468
applying 468
conserv@@ 468
defects 468
globe 468
helpl@@ 468
infec@@ 468
ius 468
ner@@ 468
quest 468
qui@@ 468
scientist 468
sper@@ 468
spi@@ 468
Cel@@ 467
IL@@ 467
enthusiasm 467
fiction 467
rival 467
servers 467
shoe 467
shots 467
sionate 467
ston 467
team@@ 467
traveling 467
Science 466
adapt 466
arguments 466
cum@@ 466
cylinder 466
exagg@@ 466
gle@@ 466
innocent 466
otherapy 466
usting 466
Den@@ 465
Nevertheless 465
hydraulic 465
instruc@@ 465
license 465
recording 465
ridic@@ 465
span 465
transform 465
yours 465
21 464
J 464
award 464
bow@@ 464
diversity 464
enzy@@ 464
ffed 464
mineral 464
popularity 464
shareholders 464
stations 464
Any@@ 463
Force 463
TA@@ 463
abilities 463
alty 463
anu@@ 463
calculated 463
crying 463
desired 463
eries 463
organ 463
protest 463
typ@@ 463
upset 463
urs 463
Angeles 462
Democratic 462
Tang 462
Treasury 462
confusion 462
harmony 462
impressive 462
involve 462
mad 462
mechanisms 462
optimal 462
ots 462
pled 462
polar 462
spray 462
sustainable 462
tren@@ 462
Star@@ 461
Whatever 461
ader 461
babies 461
controller 461
direc@@ 461
gn@@ 461
initially 461
lem@@ 461
rape 461
she@@ 461
sheets 461
shipping 461
solved 461
unc@@ 461
Food 460
amid 460
ble@@ 460
equation 460
gravity 460
permission 460
shame 460
tot@@ 460
Often 459
Under@@ 459
ales 459
bub@@ 459
creativity 459
divorce 459
fifth 459
missions 459
nees 459
orious 459
shouldn 459
specifically 459
tment 459
trick 459
17@@ 458
Tre@@ 458
asive 458
bic@@ 458
bury 458
deadly 458
entally 458
entertainment 458
lifestyle 458
lym@@ 458
privacy 458
respectively 458
trends 458
uous 458
Four 457
Grand 457
apping 457
bo 457
business@@ 457
cle@@ 457
curi@@ 457
cus 457
diabetes 457
finger@@ 457
instructions 457
quot@@ 457
skilled 457
tear 457
Education 456
Professor 456
West@@ 456
ata 456
audi@@ 456
bet@@ 456
checking 456
dialec@@ 456
geous 456
insisted 456
less@@ 456
mankind 456
nar@@ 456
omin@@ 456
qualified 456
rap 456
striking 456
techn@@ 456
tia 456
usti@@ 456
where@@ 456
worship 456
19 455
Construction 455
Keep 455
cle 455
cultures 455
fasc@@ 455
ired 455
kill@@ 455
lending 455
mask 455
mile 455
rejected 455
reporters 455
reserves 455
resort 455
suits 455
tle@@ 455
February 454
Society 454
Spring 454
dates 454
estimate 454
grateful 454
imper@@ 454
managing 454
pist@@ 454
plates 454
signature 454
succ@@ 454
tains 454
30@@ 453
ato 453
bare 453
bel 453
paren@@ 453
ship@@ 453
surge 453
AL@@ 452
Gulf 452
Jane 452
Ke@@ 452
Richard 452
Turkey 452
Web@@ 452
communications 452
generous 452
maj@@ 452
manual 452
operator 452
particle 452
patri@@ 452
recip@@ 452
ults 452
Des@@ 451
MO@@ 451
Mur@@ 451
Pat@@ 451
crip@@ 451
harvest 451
sanc@@ 451
terly 451
trium@@ 451
Prime 450
aluminum 450
anced 450
fought 450
ially 450
ji@@ 450
mortgage 450
mother@@ 450
quit 450
rit 450
shire 450
tune 450
St. 449
acceptable 449
compounds 449
embrace 449
igh 449
pig 449
pin 449
pron@@ 449
ticism 449
vacuum 449
voc@@ 449
youn@@ 449
... 448
Could 448
Jerusalem 448
War@@ 448
assistant 448
basin 448
clever 448
educated 448
exit 448
gonna 448
grav@@ 448
icate 448
impe@@ 448
itement 448
lab 448
ographic 448
sively 448
stain@@ 448
sticks 448
tracking 448
variation 448
6@@ 447
Facebook 447
Mac@@ 447
Rome 447
Test 447
Thailand 447
contracts 447
decom@@ 447
dialogue 447
dles 447
gging 447
harmful 447
hasn 447
meals 447
osc@@ 447
prayer 447
registered 447
subsequent 447
wee@@ 447
Ros@@ 446
dimension 446
disappear 446
earnings 446
emo@@ 446
firmly 446
lac@@ 446
liability 446
mach@@ 446
metric 446
railway 446
refuse 446
sole 446
specul@@ 446
stein 446
stops 446
swit@@ 446
tite 446
Australian 445
High@@ 445
LA@@ 445
buyers 445
canc@@ 445
erts 445
exp@@ 445
glance 445
repu@@ 445
take@@ 445
theories 445
Jul@@ 444
compu@@ 444
extin@@ 444
grass@@ 444
listen@@ 444
metr@@ 444
reforms 444
see@@ 444
2000 443
Festival 443
Royal 443
Valley 443
bes@@ 443
celebrate 443
chy 443
compete 443
det@@ 443
dient 443
ethical 443
exhibition 443
flash 443
fool 443
involving 443
metic 443
poses 443
rers 443
syndrome 443
tourist 443
variables 443
Fer@@ 442
agu@@ 442
combine 442
commit 442
possess 442
power@@ 442
prize 442
secret@@ 442
will@@ 442
Mike 441
PA@@ 441
anxious 441
brands 441
choosing 441
customs 441
denied 441
lubric@@ 441
neighbors 441
preserve 441
promising 441
seas@@ 441
sink 441
thickness 441
tunnel 441
Dep@@ 440
Lan@@ 440
Res@@ 440
arrange 440
assist 440
assumed 440
beneficial 440
bom@@ 440
loads 440
prominent 440
super 440
threats 440
Studies 439
decent 439
diameter 439
ea@@ 439
freely 439
liness 439
photograph 439
plain@@ 439
plug 439
styles 439
sures 439
CT 438
Information 438
Ri@@ 438
Space 438
Thomas 438
absur@@ 438
challenging 438
delicious 438
drow@@ 438
gotten 438
hin@@ 438
newspapers 438
orbit 438
payments 438
rated 438
rist 438
Federal 437
affection 437
atives 437
capac@@ 437
exam 437
grasp 437
patience 437
planes 437
precisely 437
riding 437
rog@@ 437
substantial 437
utter 437
vent 437
15@@ 436
Committee 436
Hear@@ 436
Influ@@ 436
backed 436
chlor@@ 436
condi@@ 436
emerge 436
line@@ 436
master@@ 436
mathematical 436
motiv@@ 436
olog@@ 436
origin@@ 436
registration 436
rocket 436
tragedy 436
unity 436
Association 435
Ho@@ 435
Third 435
appointed 435
ason 435
au 435
extraction 435
inte@@ 435
lows 435
mod@@ 435
orus 435
recogn@@ 435
reservoir 435
satisfy 435
sodium 435
supporters 435
actively 434
carriage 434
elite 434
happ@@ 434
mud@@ 434
ris 434
riti@@ 434
spirits 434
spreading 434
sten@@ 434
transparent 434
Loc@@ 433
Over@@ 433
acquired 433
bye 433
columns 433
crac@@ 433
esses 433
expenses 433
fitting 433
hire 433
influenced 433
nt 433
replacement 433
sit@@ 433
ures 433
virtually 433
Ed@@ 432
arri@@ 432
beef 432
crude 432
ental 432
fatigue 432
manufacturers 432
modest 432
molecular 432
optimization 432
reaches 432
reduces 432
Early 431
Elizabeth 431
Tal@@ 431
arrest 431
attracted 431
craf@@ 431
examined 431
inqu@@ 431
introduces 431
investments 431
las@@ 431
terminal 431
toilet 431
transformed 431
calculate 430
continuously 430
invite 430
rein@@ 430
stantly 430
staying 430
stock@@ 430
bankers 429
box@@ 429
duct 429
genuine 429
green@@ 429
hen@@ 429
matches 429
screw 429
skir@@ 429
step@@ 429
stranger 429
vice 429
County 428
WHO 428
angel@@ 428
circulation 428
elected 428
hiding 428
maintained 428
moderate 428
processed 428
prosperity 428
yo 428
None 427
barrier 427
consequence 427
favour 427
figh@@ 427
fits 427
foun@@ 427
inter 427
motivation 427
nest 427
perception 427
personally 427
toys 427
addic@@ 426
bou@@ 426
castle 426
ecological 426
mount 426
needle 426
resolved 426
sends 426
subscri@@ 426
tended 426
tioned 426
tough@@ 426
Give 425
Republic 425
accurately 425
aqu@@ 425
departments 425
diplomatic 425
numer@@ 425
pered 425
reflec@@ 425
resses 425
roller 425
safely 425
thoroughly 425
boats 424
chester 424
ego 424
grounds 424
nodes 424
offices 424
snake 424
technological 424
tually 424
Jones 423
casual 423
enligh@@ 423
failing 423
heated 423
och@@ 423
shir@@ 423
sophisticated 423
virtue 423
D. 422
My@@ 422
ini 422
journal 422
q@@ 422
robo@@ 422
cad@@ 421
cont@@ 421
timely 421
welding 421
wider 421
Cham@@ 420
Er@@ 420
HIV 420
Oc@@ 420
Soon 420
acity 420
cabinet 420
crossed 420
drunk 420
efficacy 420
urge 420
urgent 420
Canadian 419
Ming 419
Social 419
Up 419
anybody 419
avoided 419
basket 419
bear@@ 419
carto@@ 419
coastal 419
continent 419
gir@@ 419
laughter 419
optimistic 419
rail 419
relaxed 419
vitamin 419
Hal@@ 418
Zealand 418
ado 418
attacked 418
biting 418
cattle 418
channels 418
chaos 418
concerning 418
daughters 418
deny 418
desperate 418
dressing 418
ester@@ 418
matching 418
materi@@ 418
migration 418
sacrif@@ 418
schol@@ 418
vegetable 418
washed 418
whereas 418
wool 418
Cle@@ 417
MS 417
Model 417
Poly@@ 417
Spe@@ 417
atical 417
atomic 417
develop@@ 417
initiative 417
nucle@@ 417
roughly 417
swing 417
tes@@ 417
Hotel 416
Pri@@ 416
alog 416
aning 416
announcement 416
crimes 416
itarian 416
perceived 416
peri@@ 416
pneum@@ 416
probe 416
reveals 416
terror 416
Jewish 415
PO@@ 415
Secretary 415
Ul@@ 415
conversion 415
financing 415
hunger 415
minim@@ 415
stly 415
teen@@ 415
Nothing 414
breeding 414
chat 414
engineer 414
environments 414
hadn 414
modeling 414
paraly@@ 414
reas@@ 414
s. 414
stretched 414
vary 414
beaten 413
deal@@ 413
diff@@ 413
faithful 413
ho 413
icial 413
intim@@ 413
noble 413
penalty 413
spin@@ 413
duties 412
gig@@ 412
istics 412
planted 412
prospects 412
sub-@@ 412
tup 412
Co 411
Daily 411
appreciation 411
attended 411
cigarette 411
ights 411
inate 411
individu@@ 411
ko@@ 411
locations 411
nitrogen 411
pling 411
rying 411
Hawai@@ 410
enger 410
eves 410
fec@@ 410
herd 410
pes@@ 410
pion@@ 410
pois@@ 410
relates 410
till@@ 410
tiv@@ 410
volcan@@ 410
Data 409
Val@@ 409
accumul@@ 409
alli@@ 409
bills 409
boundary 409
conception 409
frag@@ 409
ici@@ 409
iers 409
imaging 409
lash 409
neighb@@ 409
ounds 409
powered 409
provider 409
regulatory 409
shallow 409
stand@@ 409
thi@@ 409
Barack 408
cil 408
depend@@ 408
designers 408
evident 408
geo@@ 408
lists 408
passenger 408
serv@@ 408
9@@ 407
Different 407
Holy 407
OR@@ 407
agenda 407
diamond 407
hall@@ 407
navigation 407
oil@@ 407
predicted 407
sessions 407
Jim 406
Johnson 406
Secondly 406
fraud 406
lined 406
metals 406
modify 406
namely 406
persistent 406
sis@@ 406
thed 406
wages 406
you@@ 406
Harvard 405
Out 405
achievements 405
anymore 405
expanded 405
fierce 405
harsh 405
layout 405
manufacturer 405
password 405
sen 405
turing 405
wid@@ 405
&apos;I 404
Happ@@ 404
Israeli 404
LE@@ 404
assess 404
criteria 404
innovative 404
jury 404
ossi@@ 404
reactor 404
responsibilities 404
resulted 404
ski 404
spokes@@ 404
tour@@ 404
tremendous 404
wis@@ 404
Actually 403
Ra@@ 403
Shan@@ 403
aker 403
commodity 403
eton 403
hills 403
imposed 403
isten@@ 403
manufacture 403
seats 403
thy@@ 403
tra 403
uni@@ 403
12@@ 402
Cur@@ 402
Da@@ 402
Whenever 402
Young 402
afi 402
briefly 402
circular 402
commission 402
complain 402
mortality 402
radar 402
sensitivity 402
sentences 402
tier 402
C. 401
aims 401
alongside 401
bride 401
deck 401
diverse 401
eliness 401
expec@@ 401
onary 401
opponent 401
penetr@@ 401
relate 401
suggestion 401
wondered 401
Again 400
Qing@@ 400
aci@@ 400
affecting 400
attle 400
auto 400
charity 400
disappointed 400
enthusi@@ 400
eption 400
gentleman 400
itely 400
publication 400
rat 400
resear@@ 400
solving 400
veget@@ 400
Dutch 399
Psych@@ 399
accomplished 399
gly@@ 399
harmon@@ 399
investor 399
lowest 399
mut@@ 399
pour 399
spaces 399
topics 399
Swiss 398
adequate 398
bis@@ 398
cing 398
concert 398
flour 398
otive 398
profitable 398
silic@@ 398
~ 398
absorb 397
ared 397
ceram@@ 397
clay 397
physically 397
retain 397
shelter 397
Indonesia 396
Journal 396
ary@@ 396
basketball 396
checks 396
cous@@ 396
drill 396
eni@@ 396
landed 396
mix@@ 396
pending 396
promoting 396
register 396
resc@@ 396
shelf 396
tennis 396
trapped 396
AP 395
Art 395
N. 395
Syn@@ 395
acquisition 395
bour@@ 395
crown 395
desper@@ 395
directions 395
emphasis 395
nal 395
nurse 395
pointing 395
rivals 395
suspected 395
tickets 395
tightly 395
vation 395
Eastern 394
Ford 394
Mao 394
Small 394
assured 394
bench 394
comprehen@@ 394
contest 394
dark@@ 394
drives 394
responses 394
threatening 394
watch@@ 394
Frank@@ 393
casting 393
deemed 393
discussions 393
ik@@ 393
insec@@ 393
main@@ 393
mill 393
ministry 393
oldest 393
tern@@ 393
Bl@@ 392
Black@@ 392
DA@@ 392
Open 392
Public 392
Very 392
allies 392
alloy 392
ari 392
assigned 392
bail@@ 392
cow 392
governance 392
hai 392
ignored 392
indiffe@@ 392
itted 392
olate 392
oss 392
pris@@ 392
protesters 392
sto@@ 392
tolerance 392
upward 392
Communist 391
Experimental 391
Ku@@ 391
Mus@@ 391
Ocean 391
She@@ 391
acking 391
brick 391
designing 391
expanding 391
gang 391
guided 391
plasma 391
reporter 391
scared 391
scheduled 391
sium 391
visi@@ 391
welfare 391
Character@@ 390
EN@@ 390
Fil@@ 390
Put 390
Similarly 390
ballo@@ 390
behaviors 390
domin@@ 390
dozens 390
electron 390
embedded 390
engineers 390
fathers 390
fish@@ 390
gard@@ 390
ili@@ 390
intra@@ 390
outlook 390
practic@@ 390
sar@@ 390
year@@ 390
Administration 389
Flo@@ 389
Joseph 389
Virginia 389
check@@ 389
converted 389
crowded 389
decreased 389
diagram 389
expects 389
nour@@ 389
posted 389
protecting 389
provisions 389
23 388
Commission 388
GDP 388
Gates 388
Taliban 388
Used 388
anth@@ 388
beliefs 388
blank 388
diagno@@ 388
drying 388
evolved 388
exercises 388
friction 388
minority 388
monu@@ 388
organize 388
profession 388
raft 388
resin 388
sir 388
template 388
yan 388
adium 387
approached 387
countryside 387
opinions 387
peculi@@ 387
shook 387
slave 387
sting 387
vap@@ 387
wounded 387
anned 386
antibio@@ 386
axis 386
capitalism 386
despair 386
forgive 386
ified 386
ille 386
lowing 386
ove@@ 386
projec@@ 386
restra@@ 386
yst@@ 386
CN@@ 385
Ko@@ 385
accomplish 385
alcohol@@ 385
bra 385
broader 385
circles 385
grow@@ 385
here@@ 385
mechan@@ 385
mono@@ 385
rigid 385
spite 385
voices 385
Clinical 384
DE@@ 384
Marx@@ 384
Santa 384
Students 384
Water@@ 384
Ya@@ 384
Yu 384
angular 384
constitution 384
crossing 384
defect 384
horizon 384
lateral 384
retail@@ 384
rich@@ 384
rotation 384
securities 384
shortly 384
sic 384
spin 384
tian 384
tives 384
Cop@@ 383
Hum@@ 383
Yang@@ 383
arise 383
atics 383
atin 383
infections 383
inspiration 383
lawyers 383
monthly 383
nish 383
numerical 383
opponents 383
react 383
reactions 383
sonic 383
Gr@@ 382
argues 382
capsul@@ 382
download 382
harmonious 382
immun@@ 382
insi@@ 382
perc@@ 382
scattered 382
tern 382
Dr@@ 381
NASA 381
ala 381
devoted 381
founder 381
hybrid 381
listened 381
lux@@ 381
revolutionary 381
sincere 381
sooner 381
ynam@@ 381
Long@@ 380
Ly@@ 380
ano 380
attempted 380
availability 380
care@@ 380
courts 380
jail 380
mainland 380
scholars 380
small@@ 380
specification 380
willingness 380
Ma 379
Pati@@ 379
USA 379
alert 379
beating 379
cargo 379
clin@@ 379
confused 379
connecting 379
dating 379
dep@@ 379
dest@@ 379
elet 379
enhanced 379
ffs 379
meets 379
mond 379
necessity 379
oud 379
priv@@ 379
signing 379
sional 379
sity 379
transactions 379
unnecessary 379
2004 378
Along 378
CEO 378
Cho@@ 378
Hey 378
Jac@@ 378
Sta@@ 378
forecast 378
indication 378
akers 377
audio 377
calcul@@ 377
disgu@@ 377
fam@@ 377
handful 377
isa 377
plo@@ 377
preventing 377
protests 377
resume 377
specialized 377
vil@@ 377
.@@ 376
28 376
Sel@@ 376
alled 376
applies 376
betra@@ 376
champion 376
excav@@ 376
impressed 376
momentum 376
ower 376
packing 376
patent 376
performances 376
peror 376
sorrow 376
tably 376
ught 376
45 375
Bridge 375
Louis 375
Tro@@ 375
Was 375
asted 375
bleeding 375
eau 375
ession 375
esting 375
feared 375
operators 375
suspended 375
Almost 374
Ev@@ 374
Modern 374
Tim@@ 374
concentrate 374
eal 374
expressions 374
nie 374
substances 374
urged 374
addi@@ 373
citizen 373
consistency 373
invasion 373
maintaining 373
mamm@@ 373
onous 373
phen@@ 373
responded 373
2003 372
Club 372
Med@@ 372
compromise 372
dynam@@ 372
electr@@ 372
exclusive 372
fitted 372
nutrition 372
restricted 372
simultaneously 372
teach@@ 372
threshold 372
violet 372
wage 372
Bec@@ 371
Determination 371
Museum 371
Products 371
aes@@ 371
clubs 371
controversial 371
demanding 371
engines 371
enjoying 371
hired 371
invisible 371
nine@@ 371
ona 371
ongoing 371
paintings 371
photographs 371
there@@ 371
transi@@ 371
travel@@ 371
DC 370
Gi@@ 370
Sichuan 370
abundant 370
copies 370
deposits 370
devil 370
distinguish 370
documentation 370
eding 370
estimates 370
fertiliz@@ 370
interference 370
nition 370
omed 370
outdoor 370
wireless 370
Qing 369
Scotland 369
convers@@ 369
eved 369
garbage 369
icking 369
instruction 369
jam@@ 369
mid 369
ming@@ 369
mosqu@@ 369
occupation 369
ocy@@ 369
paper@@ 369
stressed 369
swear 369
wars 369
Cri@@ 368
Energy 368
Met@@ 368
bab@@ 368
bal 368
conflicts 368
cruel 368
evol@@ 368
integral 368
sna@@ 368
stake 368
EA@@ 367
Mach@@ 367
Medical 367
blast 367
cks 367
cognitive 367
colon@@ 367
employer 367
fatal 367
feasible 367
guns 367
han 367
occurrence 367
orientation 367
pound 367
robust 367
tap 367
troph@@ 367
uan 367
Act 366
Catholic 366
Oil 366
Ser@@ 366
dominated 366
factories 366
fare 366
guards 366
influences 366
mercy 366
occasional 366
possession 366
therap@@ 366
vig@@ 366
volunteers 366
wich 366
27 365
Donald 365
Elec@@ 365
Empire 365
Exchange 365
Land 365
Serv@@ 365
backs 365
buff@@ 365
coll@@ 365
forgot 365
ision 365
nan 365
owns 365
rewar@@ 365
towns 365
Air@@ 364
Mass@@ 364
No. 364
Special 364
acqu@@ 364
appointment 364
centr@@ 364
disorders 364
efficiently 364
expecting 364
farming 364
fires 364
identical 364
ity@@ 364
obby 364
radic@@ 364
refriger@@ 364
rescu@@ 364
scep@@ 364
Hom@@ 363
Pra@@ 363
Set 363
Tem@@ 363
adul@@ 363
author@@ 363
depressed 363
executed 363
fitness 363
hist@@ 363
induc@@ 363
joining 363
near@@ 363
parliament 363
populations 363
quarters 363
rally 363
thereby 363
throwing 363
uncle 363
viral 363
2011 362
Shel@@ 362
`@@ 362
ambition 362
departure 362
existed 362
intent 362
meaningful 362
spectro@@ 362
symp@@ 362
unclear 362
Exc@@ 361
Ju@@ 361
Work 361
acked 361
amy 361
attraction 361
bacterial 361
coalition 361
county 361
differently 361
duration 361
ented 361
quantum 361
strikes 361
ually 361
AIDS 360
Dev@@ 360
Ori@@ 360
believ@@ 360
competent 360
counts 360
dial 360
dignity 360
ede 360
eive 360
entitled 360
los@@ 360
posed 360
probability 360
-making 359
Chin@@ 359
cheaper 359
cking 359
debris 359
descen@@ 359
dial@@ 359
harb@@ 359
healing 359
hid 359
macro@@ 359
overwhel@@ 359
rav@@ 359
segment 359
sentiment 359
speaks 359
speculation 359
temporarily 359
tioner 359
Nature 358
Nu@@ 358
Pic@@ 358
imported 358
loyalty 358
marke@@ 358
masses 358
ora 358
orated 358
prone 358
remarks 358
sacred 358
san 358
therapeutic 358
uded 358
zation 358
Than@@ 357
ab 357
apparatus 357
clinic 357
commerce 357
dimensions 357
fel@@ 357
gases 357
intend 357
itous 357
morality 357
parking 357
partnership 357
supplier 357
surprisingly 357
taxi 357
topo@@ 357
tracks 357
umes 357
Global 356
Golden 356
anten@@ 356
beauti@@ 356
centers 356
competitors 356
ece 356
funeral 356
hua 356
ion@@ 356
ometry 356
opes 356
steal 356
Jews 355
On@@ 355
Southern 355
applicable 355
blocked 355
borrow 355
corrosion 355
fication 355
hind 355
indicating 355
indicator 355
minis@@ 355
mixing 355
onn@@ 355
organisms 355
phenomena 355
posts 355
retirement 355
seized 355
som 355
stop@@ 355
tan 355
ynamic 355
Finally 354
Nor 354
afterwards 354
besides 354
deformation 354
gentl@@ 354
insight 354
nowhere 354
publicly 354
teles@@ 354
theore@@ 354
uss 354
worries 354
Bul@@ 353
Frank 353
Had 353
Islamic 353
Yu@@ 353
azz@@ 353
barrel 353
bulk 353
fall@@ 353
functional 353
furnace 353
injec@@ 353
io 353
izes 353
judicial 353
kes@@ 353
navi@@ 353
onable 353
operational 353
passive 353
proposals 353
regulators 353
reluctant 353
torn 353
Check 352
Georgia 352
Hill 352
Trade 352
af 352
bankruptcy 352
birth@@ 352
breathe 352
consume 352
deserve 352
fake 352
journalists 352
lifting 352
phys@@ 352
servants 352
trail 352
unhappy 352
weigh 352
Berlin 351
CD@@ 351
elastic 351
fore 351
great@@ 351
honesty 351
implications 351
infrared 351
isolation 351
ped@@ 351
ret 351
sealed 351
sisters 351
submit 351
talents 351
timing 351
tuition 351
void 351
yields 351
carbon@@ 350
dynamics 350
economist 350
jiang 350
producer 350
reconstruction 350
shortage 350
vector 350
Boo@@ 349
Cas@@ 349
Phot@@ 349
Song 349
Yi 349
blanket 349
centi@@ 349
completion 349
flour@@ 349
fragile 349
het 349
lining 349
loyal 349
mam@@ 349
nav@@ 349
pap@@ 349
peoples 349
removing 349
suggestions 349
yar@@ 349
EM@@ 348
Micro@@ 348
heter@@ 348
hurry 348
iner 348
mist@@ 348
offset 348
restrictions 348
retired 348
rowing 348
sea@@ 348
shorter 348
strat@@ 348
welling 348
wives 348
But@@ 347
Until 347
ali 347
fled 347
hec@@ 347
hus@@ 347
incu@@ 347
kl@@ 347
lightly 347
ministers 347
ound@@ 347
participation 347
prov@@ 347
reception 347
soap 347
stru@@ 347
supervision 347
tos@@ 347
Green@@ 346
Not@@ 346
Saudi 346
accessible 346
ador@@ 346
costly 346
dal 346
debts 346
mapping 346
ogene@@ 346
operated 346
overhead 346
ports 346
slow@@ 346
successfully 346
yel@@ 346
26 345
Nobel 345
Wen 345
Yuan 345
abnormal 345
drilling 345
ethics 345
expertise 345
exual 345
genital 345
instances 345
mainstream 345
sharply 345
sty@@ 345
suggesting 345
tact 345
turn@@ 345
Hou@@ 344
alike 344
elty 344
iance 344
ito 344
logo 344
midst 344
scores 344
spiral 344
transmitted 344
tration 344
treatments 344
trials 344
Ministry 343
Northern 343
Rio 343
TS 343
acquain@@ 343
backup 343
block@@ 343
buyer 343
encouraging 343
engagement 343
ideology 343
idly 343
lig@@ 343
narrow@@ 343
oga 343
ration@@ 343
ross 343
synthe@@ 343
synthetic 343
tele@@ 343
DO@@ 342
Jon@@ 342
Lib@@ 342
Phone 342
SS 342
affec@@ 342
escaped 342
generating 342
knock 342
knocked 342
ks@@ 342
persuade 342
pulsion 342
AM@@ 341
Amazon 341
Connec@@ 341
Han@@ 341
Lou@@ 341
Real 341
grinding 341
know@@ 341
lean 341
nation@@ 341
references 341
sang 341
tactics 341
var@@ 341
worth@@ 341
Bla@@ 340
Goldman 340
Home 340
Typ@@ 340
addressed 340
analog@@ 340
analyzing 340
classified 340
expan@@ 340
fic@@ 340
hip 340
inventory 340
ki 340
ogenic 340
readily 340
spatial 340
streams 340
trusted 340
ud 340
Between 339
Book 339
Inte@@ 339
Tony 339
cend@@ 339
eball 339
foreigners 339
gen 339
haul 339
intellec@@ 339
lik@@ 339
metry 339
opa@@ 339
politici@@ 339
prompt 339
rier 339
stolen 339
uncertain 339
400 338
Everything 338
Yun@@ 338
abandon 338
analy@@ 338
anniversary 338
bay 338
bilateral 338
colleague 338
compact 338
emer@@ 338
enabled 338
expedi@@ 338
gie 338
portfolio 338
realm 338
recovered 338
survived 338
tland 338
troubled 338
turbul@@ 338
Christian@@ 337
Milan 337
Pu@@ 337
Putin 337
Ther@@ 337
Wu@@ 337
Xia@@ 337
acquire 337
adjusted 337
bever@@ 337
descri@@ 337
insist 337
interc@@ 337
meanwhile 337
milit@@ 337
ograph@@ 337
ores 337
org@@ 337
overnight 337
pati@@ 337
separ@@ 337
supplied 337
terrorism 337
uration 337
Leg@@ 336
Moon 336
Usu@@ 336
advised 336
alleged 336
aned 336
develops 336
divide 336
doub@@ 336
hen 336
inking 336
intake 336
meteor@@ 336
onia 336
ood@@ 336
politically 336
promoted 336
sey 336
slau@@ 336
stimulate 336
van 336
Compared 335
Qi@@ 335
Sin@@ 335
Xin@@ 335
fence 335
imperfec@@ 335
imperi@@ 335
imply 335
inclined 335
kins 335
mun@@ 335
ores@@ 335
requested 335
verbal 335
Engl@@ 334
Local 334
ON 334
Tit@@ 334
alien 334
alter 334
convert 334
directors 334
feder@@ 334
fon@@ 334
inver@@ 334
lah 334
legacy 334
offensive 334
polymer 334
secured 334
senti@@ 334
sep@@ 334
suspension 334
tability 334
tations 334
Dre@@ 333
Ir@@ 333
Otherwise 333
Reu@@ 333
Sm@@ 333
Tibetan 333
Treatment 333
Yellow 333
ambitious 333
axy 333
bank@@ 333
categories 333
celebration 333
cm 333
consuming 333
destiny 333
distribu@@ 333
earliest 333
enforcement 333
guilt 333
hotels 333
impose 333
jer@@ 333
kings 333
meantime 333
monary 333
secrets 333
sel 333
silicon 333
steering 333
subur@@ 333
1990s 332
EC@@ 332
Further 332
God@@ 332
Iraqi 332
Sup@@ 332
asi@@ 332
council 332
fighters 332
fuzzy 332
inevitably 332
lend 332
rie 332
stac@@ 332
strictly 332
transferred 332
vill@@ 332
Def@@ 331
Mom 331
PH@@ 331
Tig@@ 331
approve 331
coding 331
commands 331
diag@@ 331
exam@@ 331
histor@@ 331
mable 331
racks 331
uk@@ 331
Economic 330
German@@ 330
Irish 330
absorbed 330
ascular 330
asph@@ 330
bon 330
chestr@@ 330
curriculum 330
edition 330
lied 330
warn 330
classification 329
cred@@ 329
diver@@ 329
enters 329
gree@@ 329
ishment 329
iting 329
nosis 329
prints 329
psycho@@ 329
reminder 329
respec@@ 329
sam@@ 329
scat@@ 329
viable 329
wed@@ 329
ycle 329
Beau@@ 328
Bol@@ 328
Building 328
Emperor 328
Experi@@ 328
Lam@@ 328
actors 328
amine 328
anism 328
assault 328
cir@@ 328
compli@@ 328
deployment 328
diagnostic 328
execu@@ 328
favorable 328
fluctu@@ 328
heritage 328
icing 328
laying 328
orderly 328
ripe 328
sizes 328
statistical 328
xi@@ 328
Area 327
Blue 327
Brit@@ 327
Conclusions 327
FA@@ 327
Mas@@ 327
capabilities 327
change@@ 327
concentrated 327
convince 327
disc 327
headquarters 327
incess 327
incl@@ 327
itated 327
itors 327
mly 327
nick@@ 327
phra@@ 327
pions 327
qing 327
receives 327
selec@@ 327
sensible 327
utilization 327
Arctic 326
IM@@ 326
Lar@@ 326
Sul@@ 326
Tell 326
Unless 326
aboard 326
alle@@ 326
asser@@ 326
billi@@ 326
bush 326
card@@ 326
declare 326
desires 326
expl@@ 326
honour 326
pipeline 326
severely 326
tail@@ 326
thood 326
thrust 326
usion 326
zes 326
Islam 325
Rol@@ 325
ami 325
ault 325
cerebral 325
dig 325
drought 325
erosion 325
focusing 325
hoo 325
matched 325
notation 325
omen 325
phy@@ 325
pts 325
publish@@ 325
summ@@ 325
suppliers 325
torial 325
villages 325
Tai@@ 324
abstr@@ 324
cli@@ 324
ella 324
encountered 324
even@@ 324
ez 324
focuses 324
imagin@@ 324
liberal 324
novels 324
okay 324
permit 324
ranks 324
selves 324
talented 324
trains 324
verb@@ 324
verify 324
week@@ 324
wished 324
Chapter 323
Cir@@ 323
Hall 323
IR@@ 323
Lau@@ 323
ativity 323
cit@@ 323
combustion 323
conditioning 323
critic@@ 323
discrimination 323
forcing 323
frustration 323
guidelines 323
infant 323
itory 323
leisure 323
neutral 323
objectives 323
ola 323
poten@@ 323
seaf@@ 323
sory 323
steep 323
your@@ 323
Aqu@@ 322
Dad 322
Tibet 322
Way 322
agreements 322
alisation 322
amen@@ 322
collapsed 322
describing 322
desktop 322
elder 322
leng@@ 322
plac@@ 322
presti@@ 322
socialist 322
submitted 322
traders 322
wrec@@ 322
xon 322
0@@ 321
Clar@@ 321
Death 321
Hence 321
Mul@@ 321
Note 321
acknowledge 321
ara 321
argu@@ 321
batch 321
bicycle 321
consensus 321
cylin@@ 321
delayed 321
dynasty 321
hospitals 321
inform 321
owe 321
placing 321
quantitative 321
substitute 321
taneous 321
targeted 321
tigh@@ 321
Bab@@ 320
EM 320
Ram@@ 320
Tow@@ 320
alizes 320
calendar 320
comprises 320
destructive 320
dilig@@ 320
distinctive 320
electronics 320
endure 320
ept@@ 320
foam 320
lessness 320
perform@@ 320
proceed 320
protocol 320
scandal 320
soccer 320
May@@ 319
Pass@@ 319
Square 319
abulary 319
abundance 319
audit 319
constraints 319
distribute 319
draws 319
hedge 319
hence 319
intensive 319
invitation 319
liquidity 319
ob 319
oted 319
pays 319
porter 319
preliminary 319
reviewed 319
specially 319
twelve 319
weed 319
whist@@ 319
Dou@@ 318
Lu 318
Reserve 318
Sc@@ 318
Standard 318
Veg@@ 318
analyst 318
approximately 318
attrac@@ 318
borders 318
bore 318
comparable 318
graduates 318
kilometers 318
li 318
pipes 318
sulph@@ 318
-related 317
2001 317
Buddh@@ 317
Dav@@ 317
Mit@@ 317
Palestinian 317
administrator 317
alizing 317
atism 317
conservation 317
determin@@ 317
drain 317
ington 317
maturity 317
mill@@ 317
observ@@ 317
ocal 317
rat@@ 317
repe@@ 317
sheer 317
sphere 317
stric@@ 317
terrorist 317
2012 316
Civil 316
Financial 316
Hydro@@ 316
Twitter 316
celebrated 316
idal 316
reven@@ 316
150 315
CP@@ 315
Kin@@ 315
Swe@@ 315
aire 315
altogether 315
clou@@ 315
collecting 315
complications 315
emen 315
ener@@ 315
energe@@ 315
finishing 315
ifying 315
ignorance 315
intr@@ 315
lap 315
mits 315
tanks 315
twent@@ 315
Ful@@ 314
Ka@@ 314
Mol@@ 314
TR@@ 314
Techn@@ 314
Upon 314
cameras 314
carcinoma 314
drainage 314
dys@@ 314
ji 314
lacking 314
narrative 314
photo@@ 314
pros@@ 314
squad 314
sustained 314
upgrade 314
Academy 313
Law@@ 313
Prote@@ 313
Us@@ 313
closure 313
compression 313
differential 313
integrate 313
officially 313
partially 313
pillar 313
prediction 313
tility 313
Bern@@ 312
Haw@@ 312
Stu@@ 312
adi@@ 312
adverse 312
bureaucr@@ 312
coefficient 312
discover@@ 312
dramatically 312
generator 312
obesity 312
retreat 312
Acc@@ 311
Cat@@ 311
IP@@ 311
OR 311
Rog@@ 311
Vo@@ 311
age@@ 311
cellular 311
cultivation 311
eleg@@ 311
genous 311
iable 311
icle 311
improvements 311
inserted 311
kidney 311
ometric 311
quote 311
sovereign 311
united 311
useless 311
voting 311
Palace 310
Tel@@ 310
accumulation 310
actu@@ 310
afflic@@ 310
asses 310
bir@@ 310
cast@@ 310
cked 310
commander 310
discount 310
essly 310
gates 310
interact 310
leaf@@ 310
medication 310
phere 310
portable 310
realization 310
reportedly 310
viewing 310
50@@ 309
Adam 309
Lady 309
Large 309
Mount 309
aceful 309
contra@@ 309
corporation 309
coupling 309
dings 309
earth@@ 309
equality 309
eth 309
fraction 309
hable 309
logging 309
mean@@ 309
pressive 309
unprecedented 309
vain 309
cau@@ 308
dairy 308
decides 308
encies 308
giv@@ 308
insert 308
producers 308
seud@@ 308
storms 308
tops 308
transcri@@ 308
triggered 308
yle 308
Obviously 307
Sco@@ 307
activated 307
bidding 307
chains 307
correspond@@ 307
dem 307
flights 307
greenhouse 307
gross 307
highlight 307
km 307
midnight 307
oled 307
quanti@@ 307
risky 307
seismic 307
seldom 307
toler@@ 307
varying 307
wri@@ 307
Flu@@ 306
SE@@ 306
Satur@@ 306
Services 306
accid@@ 306
analyses 306
bac@@ 306
broadcast 306
continually 306
disposal 306
energ@@ 306
paras@@ 306
uro@@ 306
Ken@@ 305
Officials 305
Rus@@ 305
Too 305
anom@@ 305
athletes 305
backward 305
bian 305
diagnosed 305
distinction 305
equilibrium 305
eti@@ 305
fer 305
fertilizer 305
handled 305
outbreak 305
poll 305
professionals 305
screening 305
seasons 305
systematic 305
tense 305
underwater 305
varied 305
visits 305
wom@@ 305
Fra@@ 304
Navy 304
Sam 304
arc 304
bage 304
billions 304
determines 304
fifty 304
grammar 304
insists 304
legitimate 304
len@@ 304
liberty 304
multipl@@ 304
puri@@ 304
unfair 304
volatile 304
weekly 304
Dem@@ 303
LE 303
Lin 303
PR@@ 303
Station 303
accompany 303
alliance 303
attitudes 303
convey 303
defec@@ 303
explosive 303
fisher@@ 303
jar 303
mit 303
osy@@ 303
radioactive 303
risen 303
rs 303
succeed 303
tally 303
uality 303
winding 303
Foundation 302
activis@@ 302
anol 302
child@@ 302
corrupt 302
independently 302
influential 302
lane 302
led@@ 302
males 302
mathematics 302
mes@@ 302
ould 302
tragic 302
ventures 302
Ask 301
Has 301
Jiang@@ 301
Jordan 301
Sl@@ 301
authentic@@ 301
bullet 301
collaboration 301
desirable 301
facilitate 301
firing 301
hazard 301
helicopter 301
ives 301
microwave 301
quake 301
receiv@@ 301
reminded 301
sanctions 301
sibility 301
stopping 301
updated 301
Buddhist 300
Penn@@ 300
Valen@@ 300
anning 300
avoiding 300
complaints 300
demanded 300
developments 300
employers 300
hatred 300
hostile 300
incentive 300
indoor 300
peers 300
propose 300
rey 300
ria 300
sells 300
sensors 300
treaty 300
Ear@@ 299
Ide@@ 299
cular 299
defi@@ 299
displacement 299
eigh@@ 299
erated 299
flooding 299
hang@@ 299
inheritance 299
obligation 299
resent@@ 299
skirts 299
surveillance 299
way@@ 299
west@@ 299
world@@ 299
ylene 299
Der@@ 298
Earlier 298
Iranian 298
LA 298
McC@@ 298
Mediterranean 298
Someone 298
Taking 298
adju@@ 298
associate 298
big@@ 298
bn 298
cents 298
complained 298
correction 298
coupled 298
disputes 298
educ@@ 298
ergy 298
females 298
icians 298
panels 298
reasonably 298
resting 298
satisfactory 298
seeks 298
smoothly 298
solvent 298
sustain 298
swa@@ 298
traditionally 298
transparency 298
votes 298
Chief 297
Nobody 297
Quality 297
Syria 297
Ur@@ 297
Wel@@ 297
achment 297
automobile 297
commodities 297
doctrine 297
eck 297
judges 297
misery 297
nearest 297
odds 297
petroleum 297
publishing 297
spur@@ 297
vity 297
AD@@ 296
BBC 296
Five 296
PL@@ 296
Rice 296
approaching 296
conclude 296
countless 296
designated 296
disappointment 296
epidemic 296
industri@@ 296
paths 296
speakers 296
Gri@@ 295
Hen@@ 295
Ow@@ 295
Some@@ 295
accidents 295
auction 295
blamed 295
civilian 295
compatibility 295
contributions 295
incre@@ 295
jac@@ 295
math 295
negotiation 295
obstacles 295
olutionary 295
outline 295
spor@@ 295
stance 295
tran@@ 295
IF@@ 294
Medic@@ 294
PS 294
Ty@@ 294
alised 294
bonus 294
broad@@ 294
collision 294
dictionary 294
erly 294
eted 294
grades 294
immigration 294
insp@@ 294
involvement 294
itt@@ 294
oun 294
possessed 294
tackle 294
timate 294
Alexander 293
Atlan@@ 293
Fortunately 293
History 293
Oxford 293
ania 293
consumed 293
ctu@@ 293
dling 293
execute 293
inations 293
irrigation 293
stead@@ 293
surplus 293
varieties 293
Francisco 292
Poland 292
Senator 292
Supreme 292
asis 292
aus@@ 292
competence 292
counted 292
declaration 292
dropping 292
etting 292
evaluated 292
failures 292
hierarchy 292
immense 292
imports 292
infer@@ 292
interrupted 292
investing 292
isol@@ 292
maps 292
nau@@ 292
ogen@@ 292
oner 292
orative 292
pharmac@@ 292
proves 292
rane 292
thly 292
visitor 292
Anim@@ 291
Coast 291
Cold 291
Heav@@ 291
Hu 291
Islands 291
axial 291
cleaner 291
deep@@ 291
doubts 291
exhaust 291
fting 291
homos@@ 291
innov@@ 291
iti 291
ix 291
relieve 291
tiles 291
HP 290
Music 290
Pa@@ 290
Toy@@ 290
appoint 290
catalyst 290
continental 290
cushi@@ 290
deliberately 290
discussing 290
elaborate 290
outh 290
pher@@ 290
praised 290
prec@@ 290
presidency 290
respiratory 290
seg@@ 290
steadily 290
threaten 290
32 289
Additionally 289
Cul@@ 289
IBM 289
Switzerland 289
adjacent 289
asu@@ 289
attack@@ 289
backing 289
banned 289
borrowing 289
downturn 289
eft 289
fores@@ 289
kid@@ 289
onomy 289
possibilities 289
preserved 289
prompted 289
rail@@ 289
reserved 289
respected 289
struc@@ 289
torate 289
validity 289
00@@ 288
Abra@@ 288
Guangzhou 288
Jin@@ 288
Manager 288
Morgan 288
Rose 288
Sat@@ 288
dependence 288
dled 288
foreg@@ 288
hao 288
holders 288
oting 288
philanth@@ 288
purchasing 288
regulate 288
separately 288
smoo@@ 288
spouse 288
2002 287
75 287
Chang@@ 287
Egyptian 287
Fire 287
Gro@@ 287
construc@@ 287
credibility 287
dos@@ 287
hosts 287
infectious 287
iser 287
modul@@ 287
premi@@ 287
programmes 287
resident 287
sedi@@ 287
summary 287
terrain 287
udes 287
vac@@ 287
vitality 287
warehouse 287
websites 287
zones 287
Ben 286
Christians 286
Press 286
True 286
attempting 286
barriers 286
che 286
china 286
cultivated 286
curren@@ 286
ele@@ 286
ition 286
itive 286
lecture 286
logistics 286
meta@@ 286
pa 286
sary 286
seam@@ 286
travelling 286
und 286
vague 286
wer 286
worrying 286
IMF 285
Mess@@ 285
Mountain 285
Wei 285
advertisement 285
authentication 285
conceal@@ 285
freezing 285
how@@ 285
intimate 285
obstacle 285
onau@@ 285
progressive 285
punish 285
synthesis 285
tissues 285
toc@@ 285
zi 285
29 284
B. 284
Bon@@ 284
CR@@ 284
Neither 284
Plat@@ 284
aggres@@ 284
allocation 284
alpha@@ 284
anci@@ 284
bloody 284
chairs 284
contributed 284
coordination 284
distress 284
entr@@ 284
eria 284
fossil 284
glos@@ 284
inspire 284
isions 284
locate 284
lov@@ 284
mas 284
matory 284
mens 284
offshore 284
ogeneous 284
preference 284
provision 284
retri@@ 284
strugg@@ 284
usable 284
CE 283
TP 283
addiction 283
airline 283
allo@@ 283
attach 283
closest 283
consent 283
dang@@ 283
deter@@ 283
esteem 283
iced 283
manship 283
missiles 283
planting 283
reasoning 283
requ@@ 283
sac@@ 283
xy 283
Age 282
Anyone 282
Doc@@ 282
ID@@ 282
Non-@@ 282
Pow@@ 282
Stra@@ 282
UL@@ 282
bacter@@ 282
batteries 282
discusses 282
essay 282
establishing 282
exchanges 282
forc@@ 282
forum 282
glob@@ 282
homework 282
pref@@ 282
prototype 282
residential 282
restored 282
some@@ 282
stamp 282
thirty 282
yen 282
Autom@@ 281
Captain 281
Fa@@ 281
Following 281
acknowledged 281
bases 281
bridges 281
buffer 281
bull@@ 281
chloride 281
controversy 281
drift 281
filed 281
medicines 281
modification 281
oci@@ 281
oste@@ 281
quantities 281
societies 281
soy@@ 281
strive 281
symbols 281
treat@@ 281
validation 281
ven 281
wast@@ 281
Michel@@ 280
Type 280
assumption 280
constitute 280
diplom@@ 280
equations 280
floors 280
habit@@ 280
kel 280
lear@@ 280
measurements 280
mechanics 280
optional 280
oti@@ 280
questioned 280
racial 280
rhetoric 280
slavery 280
tsunami 280
wherever 280
Network 279
Sec@@ 279
adoption 279
attachment 279
itary 279
minerals 279
neural 279
noon 279
orate 279
pockets 279
progres@@ 279
shoo@@ 279
stant 279
su 279
sympathy 279
tranqu@@ 279
voted 279
600 278
Ban@@ 278
Daniel 278
Hem@@ 278
Multi@@ 278
NA@@ 278
Rev@@ 278
SH@@ 278
SOA 278
accessories 278
amin 278
arrangements 278
calculating 278
cigaret@@ 278
compos@@ 278
determining 278
electromagnetic 278
extingu@@ 278
farms 278
gated 278
happi@@ 278
magnitude 278
occup@@ 278
pricing 278
restraint 278
rors 278
serum 278
wart 278
wrong@@ 278
E. 277
Hel@@ 277
algorithms 277
beds 277
builds 277
dealt 277
escal@@ 277
fulfill 277
ime 277
inherent 277
inherited 277
marking 277
mig@@ 277
minimal 277
nasty 277
occasions 277
optimism 277
overwhelming 277
premium 277
ptive 277
purely 277
scru@@ 277
stres@@ 277
unified 277
wastewater 277
14@@ 276
= 276
Arch@@ 276
CON@@ 276
Laden 276
ME 276
Mongolia 276
appealing 276
athan 276
caring 276
complaint 276
congres@@ 276
conscience 276
escap@@ 276
obligations 276
publish 276
reject 276
stered 276
translate 276
District 275
GE 275
Kingdom 275
Okay 275
Theory 275
Yan@@ 275
bert 275
dangers 275
dium 275
formerly 275
holidays 275
itte@@ 275
limitations 275
packages 275
purchased 275
races 275
ression 275
scales 275
stems 275
tice 275
tum 275
videos 275
39 274
Bob 274
Gal@@ 274
PA 274
RES@@ 274
Revolution 274
bei 274
claiming 274
combining 274
compliance 274
comply 274
consisting 274
demonstration 274
distinguished 274
employ 274
shells 274
visa 274
Blood 273
Board 273
Div@@ 273
Nov@@ 273
bias 273
caution 273
confid@@ 273
eda 273
edic@@ 273
friend@@ 273
fu 273
gratitude 273
griev@@ 273
halt 273
ient 273
iver 273
junior 273
kindly 273
listing 273
masters 273
maxim@@ 273
minimize 273
motivated 273
oul 273
portal 273
prescription 273
refined 273
speeds 273
symbolic 273
Che@@ 272
Place 272
Run@@ 272
Wol@@ 272
arbitrary 272
assure 272
clarity 272
cycles 272
feasibility 272
gasoline 272
ideological 272
instan@@ 272
issance 272
oils 272
rene 272
representatives 272
spill 272
spir@@ 272
suspicion 272
t. 272
theatre 272
venue 272
violation 272
Electric 271
Generally 271
Len@@ 271
St 271
accoun@@ 271
achieving 271
emergence 271
explicit 271
ois 271
olution 271
paragraph 271
peripheral 271
requiring 271
sympa@@ 271
taining 271
tomy 271
Comm@@ 270
K. 270
Lev@@ 270
Portugal 270
Que@@ 270
Ran@@ 270
Shi 270
Steel 270
Sweden 270
Word 270
atically 270
bi 270
bie 270
circu@@ 270
circumstance 270
cleared 270
compil@@ 270
complain@@ 270
damaging 270
ership 270
malaria 270
memorial 270
moder@@ 270
orrh@@ 270
premature 270
prosperous 270
umbrella 270
Kennedy 269
Mes@@ 269
accepting 269
alien@@ 269
assignment 269
coin 269
contacts 269
contag@@ 269
damages 269
defensive 269
demonstrates 269
disabled 269
entrepreneurs 269
ernal 269
etown 269
fleet 269
inferior 269
pow@@ 269
probable 269
stup@@ 269
witnesses 269
Dan 268
Es@@ 268
Fab@@ 268
adapted 268
advise 268
cautious 268
disturbed 268
inquiry 268
promp@@ 268
pursuing 268
ranging 268
reb@@ 268
reinforced 268
seize 268
shipment 268
sixth 268
soc@@ 268
updates 268
# 267
20th 267
Arabia 267
Best 267
Field 267
Huang 267
M. 267
Point 267
bic 267
colleges 267
deriv@@ 267
dic 267
fem@@ 267
gram@@ 267
habitat 267
incoming 267
insulation 267
justify 267
lau@@ 267
oked 267
onset 267
oppose 267
permitted 267
public@@ 267
spen@@ 267
weak@@ 267
AC 266
Around 266
Bil@@ 266
CC@@ 266
Kenya 266
containers 266
deployed 266
diesel 266
differ 266
elo@@ 266
exceptional 266
exhibit 266
interactions 266
journalist 266
oxidation 266
prevented 266
rememb@@ 266
sport@@ 266
suma@@ 266
unded 266
volcanic 266
00 265
13@@ 265
Bear 265
Bot@@ 265
CT@@ 265
Catherine 265
agrees 265
ani 265
architectural 265
consistently 265
erings 265
exhausted 265
experiencing 265
immigrants 265
manufactured 265
oman 265
physician 265
prisoners 265
renewed 265
traditions 265
unciation 265
undertake 265
vec@@ 265
Certainly 264
NATO 264
Pear@@ 264
W. 264
WTO 264
circul@@ 264
clerk 264
confined 264
coordinate 264
discourse 264
dismissed 264
envelope 264
erring 264
expectation 264
expose 264
ior 264
junction 264
ll@@ 264
mos 264
perpe@@ 264
stepping 264
ycl@@ 264
40@@ 263
Discussion 263
Equ@@ 263
ammon@@ 263
ance@@ 263
dated 263
freeze 263
fren@@ 263
hed@@ 263
openly 263
policeman 263
privilege 263
prob@@ 263
renal 263
repres@@ 263
residence 263
reviews 263
web@@ 263
welcomed 263
Bat@@ 262
Cot@@ 262
Post@@ 262
Shenzhen 262
Shor@@ 262
Simon 262
Van 262
agre@@ 262
cler@@ 262
conclusions 262
correc@@ 262
devi@@ 262
extends 262
i. 262
itch@@ 262
moment@@ 262
motive 262
pension 262
purchases 262
ranking 262
releases 262
residual 262
rogen 262
taneously 262
torture 262
unite 262
uranium 262
ux 262
Ash@@ 261
EL@@ 261
ON@@ 261
anthropo@@ 261
attacking 261
codes 261
cooperate 261
emission 261
ensures 261
exceed 261
humili@@ 261
implies 261
influenza 261
neglect 261
rainy 261
tance 261
valuation 261
villagers 261
Agreement 260
Blu@@ 260
Currently 260
Language 260
Me 260
Mun@@ 260
Performance 260
analytical 260
atri@@ 260
campaigns 260
copyright 260
cyber@@ 260
deem 260
degradation 260
descent 260
economical 260
extr@@ 260
extrem@@ 260
fortunate 260
lobby 260
pack@@ 260
philosophical 260
polar@@ 260
riv@@ 260
sectors 260
thorough 260
toll 260
trauma 260
wounds 260
Current 259
Vir@@ 259
fertility 259
govern@@ 259
informal 259
lish 259
marsh@@ 259
pire 259
prevents 259
rebels 259
reless 259
scanning 259
simil@@ 259
switching 259
vegetation 259
Chu@@ 258
Rock 258
YO@@ 258
ago@@ 258
appearing 258
blan@@ 258
critici@@ 258
defeated 258
mentality 258
naval 258
perceive 258
satisfying 258
specialist 258
vein 258
Rad@@ 257
Resources 257
UN@@ 257
Yor@@ 257
accordingly 257
altered 257
bombs 257
confirmation 257
defining 257
insur@@ 257
interfere 257
kit 257
learnt 257
push@@ 257
ram 257
resi@@ 257
shi 257
sincerely 257
thereof 257
tting 257
volunteer 257
wildlife 257
Ath@@ 256
Ep@@ 256
Fund 256
Muslims 256
Software 256
boundaries 256
comment@@ 256
common@@ 256
dual 256
etc. 256
improves 256
may@@ 256
mind@@ 256
ov 256
reminds 256
spacecraft 256
tina 256
warfare 256
31 255
AB@@ 255
MA 255
Netherlands 255
Sym@@ 255
announce 255
cultivate 255
ean@@ 255
iqu@@ 255
lakes 255
march 255
negotiate 255
nings 255
opher 255
program@@ 255
representing 255
strongest 255
swim@@ 255
themes 255
trucks 255
ype 255
BP 254
Edward 254
Good@@ 254
Line 254
Pin@@ 254
SP@@ 254
ST 254
Shen@@ 254
WH@@ 254
advocate 254
arding 254
brutal 254
bular 254
defines 254
eship 254
frames 254
hem 254
hig@@ 254
illustrate 254
lad 254
legally 254
philosoph@@ 254
pledge 254
rotating 254
sufficiently 254
survivors 254
textile 254
undry 254
versus 254
Consider 253
Especially 253
Gaza 253
Net@@ 253
answ@@ 253
astly 253
bric@@ 253
clause 253
delete 253
deploy 253
ecosystem 253
engaging 253
ful@@ 253
instability 253
lowered 253
magazines 253
medal 253
nee@@ 253
ocratic 253
polis 253
prolif@@ 253
testimony 253
tification 253
tribute 253
valued 253
Cos@@ 252
Dun@@ 252
Hamas 252
Hand@@ 252
La 252
Pakistani 252
Scott 252
aggreg@@ 252
amongst 252
astern 252
cervical 252
chi 252
coral 252
deduc@@ 252
earing 252
effec@@ 252
evolve 252
ga 252
garage 252
gauge 252
inability 252
ingredient 252
loses 252
metallic 252
observers 252
osphere 252
promptly 252
room@@ 252
suited 252
upcoming 252
Centre 251
Econom@@ 251
Mem@@ 251
Nar@@ 251
Williams 251
absent 251
advances 251
breakthrough 251
compensate 251
counting 251
del 251
ecology 251
erted 251
induce 251
infil@@ 251
jud@@ 251
judged 251
pione@@ 251
rooted 251
shifting 251
shipped 251
tool@@ 251
Cambridge 250
Europeans 250
Labour 250
Marine 250
SA 250
Tun@@ 250
assuming 250
atro@@ 250
awarded 250
blocking 250
civil@@ 250
cog@@ 250
colony 250
deficiency 250
energies 250
mounting 250
seas 250
shit 250
spectr@@ 250
termin@@ 250
umn 250
uter@@ 250
ward@@ 250
Columbia 249
Mexican 249
bands 249
breach 249
cape 249
charging 249
consist 249
devastating 249
duce 249
elevated 249
extending 249
itan 249
lacks 249
mayor 249
neighbours 249
nic 249
optimum 249
other@@ 249
qualify 249
raid 249
receipt 249
rejection 249
stabil@@ 249
stays 249
woo@@ 249
19th 248
Alas@@ 248
Helen 248
Iron 248
Organization 248
Pul@@ 248
Sydney 248
Turkish 248
accommodate 248
cables 248
corro@@ 248
criterion 248
du 248
eme@@ 248
endeav@@ 248
ephal@@ 248
explicitly 248
governing 248
hiring 248
interpret 248
oz@@ 248
pressures 248
proliferation 248
propag@@ 248
reproductive 248
sug@@ 248
supplement 248
36 247
Aut@@ 247
Commun@@ 247
Dri@@ 247
Guangdong 247
Malaysia 247
Rep@@ 247
Traditional 247
accelerate 247
constitutional 247
fluor@@ 247
freez@@ 247
guaranteed 247
reflecting 247
schemes 247
unfortunate 247
Athens 246
Bru@@ 246
Conserv@@ 246
Firstly 246
Norway 246
Princess 246
TO 246
alities 246
ame@@ 246
conceiv@@ 246
control@@ 246
convention 246
corporations 246
dian 246
diary 246
encing 246
famili@@ 246
hibition 246
hosp@@ 246
limitation 246
mel 246
nowadays 246
seem@@ 246
sung 246
teenage 246
AD 245
CE@@ 245
Cant@@ 245
Hur@@ 245
Low 245
Medicine 245
Production 245
Ron@@ 245
Susan 245
abe@@ 245
adic 245
ambi@@ 245
announ@@ 245
clearing 245
comparing 245
decreases 245
dominate 245
iconduc@@ 245
idle 245
incomplete 245
j 245
manu@@ 245
propaganda 245
punished 245
repository 245
ski@@ 245
translated 245
withdrawal 245
Listen 244
Mountains 244
Swedish 244
adverti@@ 244
alog@@ 244
assembled 244
broker 244
con 244
eliminated 244
emphasize 244
enjoys 244
eter 244
exploring 244
handic@@ 244
invested 244
limiting 244
news@@ 244
occurring 244
organisation 244
quoted 244
regards 244
solely 244
specifications 244
withstand 244
BO@@ 243
Carolina 243
Chang 243
Cuba 243
Gor@@ 243
Lyn@@ 243
Zhou 243
believing 243
cc@@ 243
complex@@ 243
decisive 243
discre@@ 243
expressing 243
featured 243
inhal@@ 243
livestock 243
stere@@ 243
titles 243
ult 243
&apos;clock 242
CL@@ 242
Cen@@ 242
Sing@@ 242
Win@@ 242
Years 242
definite 242
ellation 242
flation 242
indispensable 242
institutional 242
interactive 242
leverage 242
merged 242
moun@@ 242
oceans 242
outward 242
respective 242
routes 242
succession 242
thief 242
Body 241
Ga@@ 241
Temple 241
downward 241
etary 241
franch@@ 241
ires 241
junc@@ 241
ki@@ 241
level@@ 241
marital 241
modules 241
neighboring 241
neighbour 241
parks 241
proxy 241
remedy 241
render 241
rewards 241
slowdown 241
tensions 241
Asi@@ 240
Thom@@ 240
ailing 240
alignment 240
balancing 240
belonging 240
conviction 240
disper@@ 240
inee 240
ite@@ 240
liable 240
note@@ 240
outcomes 240
parall@@ 240
publicity 240
reat@@ 240
rian 240
sickness 240
stricken 240
subjective 240
suppos@@ 240
Coun@@ 239
Cultural 239
Culture 239
Fran@@ 239
Main@@ 239
Separ@@ 239
Ye@@ 239
contamination 239
dea@@ 239
dispers@@ 239
fi 239
fortun@@ 239
generic 239
interval 239
interviews 239
lith@@ 239
qi 239
undergo 239
unstable 239
100@@ 238
3D 238
Change 238
Fish@@ 238
Industrial 238
Os@@ 238
Ref@@ 238
Rou@@ 238
SD@@ 238
Something 238
Wis@@ 238
\ 238
activists 238
ander 238
anxi@@ 238
cease 238
chick@@ 238
cited 238
compelling 238
detecting 238
diplomacy 238
eman@@ 238
funded 238
globalization 238
likelihood 238
modes 238
nia 238
nonlinear 238
permanently 238
profici@@ 238
scar 238
tend@@ 238
tories 238
well@@ 238
AC@@ 237
Agency 237
Assembly 237
Few 237
RS 237
Start 237
Wilson 237
durable 237
eline 237
estimation 237
graduated 237
hep@@ 237
metres 237
organizational 237
placement 237
prolonged 237
rance 237
scenarios 237
selecting 237
spontaneous 237
substantially 237
ula 237
undoubtedly 237
uniqu@@ 237
wholes@@ 237
Class 236
Comb@@ 236
Mari@@ 236
Nowadays 236
Plant 236
Russi@@ 236
TC 236
Vari@@ 236
abortion 236
angu@@ 236
arith@@ 236
broadly 236
considerably 236
currencies 236
defen@@ 236
destined 236
enjoyment 236
extracted 236
importantly 236
inform@@ 236
insufficient 236
intel@@ 236
journ@@ 236
margins 236
pumps 236
q 236
remov@@ 236
seasonal 236
sten 236
tending 236
uplo@@ 236
workplace 236
Iceland 235
Process 235
TO@@ 235
coherent 235
consum@@ 235
enabling 235
incar@@ 235
inspec@@ 235
iry 235
lag 235
mutually 235
nigh@@ 235
obliged 235
oody 235
platforms 235
positioning 235
revenues 235
sewage 235
smallest 235
tling 235
twin 235
vic 235
Engineering 234
Fol@@ 234
IA 234
Leon@@ 234
Num@@ 234
Sti@@ 234
Working 234
adaptive 234
addresses 234
alley 234
amel 234
audiences 234
authentic 234
competing 234
corridor 234
definitions 234
eless@@ 234
fastest 234
gradual 234
grati@@ 234
isot@@ 234
neglected 234
optimize 234
positively 234
rains 234
rebel 234
recommendations 234
torch 234
variations 234
zinc 234
Either 233
Fore@@ 233
Head 233
Jiang 233
Lehman 233
Libyan 233
Ox@@ 233
Red@@ 233
Taylor 233
ador 233
altern@@ 233
altitude 233
brid@@ 233
certainty 233
cip@@ 233
compatible 233
cooperative 233
coven@@ 233
distortion 233
ensuring 233
ffing 233
fit@@ 233
privileged 233
provinces 233
slides 233
structured 233
trigg@@ 233
trips 233
turmoil 233
unwilling 233
Always 232
Arthur 232
Hello 232
IV@@ 232
Investors 232
Oper@@ 232
Six 232
Smo@@ 232
deadline 232
forty 232
fuels 232
gau@@ 232
inters 232
meaning@@ 232
purpos@@ 232
rainfall 232
sexually 232
siders 232
sile 232
siveness 232
slower 232
solitary 232
spective 232
thedral 232
ventilation 232
vigorous 232
warnings 232
EX@@ 231
Natural 231
Ps 231
Scottish 231
action@@ 231
breakdown 231
competi@@ 231
considers 231
drug@@ 231
elle 231
iding 231
ight@@ 231
leakage 231
lex 231
oto 231
pirates 231
pollu@@ 231
poorly 231
positioned 231
preservation 231
relating 231
rement 231
teenagers 231
thal@@ 231
through@@ 231
Al 230
Blo@@ 230
Growth 230
Optim@@ 230
Qa@@ 230
Stephen 230
Top 230
admission 230
civilians 230
conducting 230
cover@@ 230
dental 230
economically 230
ees 230
exploit 230
gif@@ 230
grap@@ 230
gres@@ 230
heal@@ 230
intermediate 230
mines 230
observations 230
psychiat@@ 230
raz@@ 230
recalled 230
restrict 230
rh@@ 230
tici@@ 230
xed 230
yal 230
1999 229
Gil@@ 229
Neg@@ 229
Philippines 229
Sarah 229
Sher@@ 229
Speaking 229
acoustic 229
activation 229
aggression 229
amb@@ 229
assign 229
cancel 229
ceas@@ 229
contem@@ 229
dan 229
disasters 229
distinc@@ 229
expres@@ 229
freight 229
liv@@ 229
longest 229
posi@@ 229
poultry 229
practiced 229
rehabilitation 229
sporting 229
surrender 229
tolerant 229
tude 229
volumes 229
voluntary 229
workshop 229
Argentina 228
Chris 228
Copenhagen 228
French@@ 228
Premier 228
SU@@ 228
Shu@@ 228
communic@@ 228
disturbance 228
evid@@ 228
grams 228
iner@@ 228
lions 228
maintains 228
migrate 228
unle@@ 228
wells 228
withdraw 228
Dan@@ 227
Denmark 227
ET@@ 227
Family 227
Hop@@ 227
Hospital 227
NA 227
arre@@ 227
cient 227
coc@@ 227
contaminated 227
databases 227
exploitation 227
inappropriate 227
intentions 227
neys 227
occupy 227
practically 227
ressed 227
stained 227
technically 227
42 226
Bureau 226
Eng@@ 226
Jer@@ 226
MP 226
Market 226
Men@@ 226
Practice 226
Property 226
convergence 226
deeds 226
deficits 226
disputed 226
ela 226
farmland 226
followers 226
gery 226
gren@@ 226
inadequate 226
intentionally 226
ko 226
libraries 226
manipulation 226
million@@ 226
min 226
monopoly 226
scoring 226
sovereignty 226
tel 226
traumatic 226
zzy 226
1980s 225
CM 225
Clo@@ 225
Constitution 225
Howard 225
Nev@@ 225
Parliament 225
Where@@ 225
activate 225
alo 225
anticipated 225
arious 225
attorney 225
competitiveness 225
evenly 225
households 225
jian 225
market@@ 225
peasant 225
premise 225
prospective 225
text@@ 225
verification 225
vibrant 225
48 224
Bus@@ 224
Nan@@ 224
QU@@ 224
RU@@ 224
Thai 224
Wales 224
allegations 224
alth 224
aying 224
condemned 224
contradiction 224
convincing 224
disappe@@ 224
entreprene@@ 224
eurozone 224
flee 224
graduation 224
guil@@ 224
heng 224
ideals 224
lands@@ 224
lasted 224
omer@@ 224
prescribed 224
referring 224
remot@@ 224
replication 224
sab@@ 224
suspicious 224
transit 224
yo@@ 224
Cast@@ 223
Cross 223
Nazi 223
Nigeria 223
Ok@@ 223
P. 223
acceler@@ 223
appreci@@ 223
arose 223
atmospheric 223
authorized 223
chequ@@ 223
fertile 223
geological 223
indirect 223
inous 223
intern@@ 223
ledge 223
manif@@ 223
operates 223
remark@@ 223
spirit@@ 223
tribu@@ 223
tural 223
unlimited 223
Andrew 222
Corporation 222
Jersey 222
Region 222
aya 222
certification 222
consultation 222
criticized 222
curb 222
deputy 222
enorm@@ 222
gence 222
hes 222
hub 222
ishable 222
ita 222
linguistic 222
mark@@ 222
nets 222
plastics 222
reuse 222
selective 222
seventh 222
texts 222
unwanted 222
usive 222
wasted 222
Beng@@ 221
Brazilian 221
Inf@@ 221
Key@@ 221
Sand@@ 221
Student 221
Sudan 221
Team 221
Well@@ 221
archae@@ 221
assimil@@ 221
computation 221
crow 221
dedication 221
elementary 221
enduring 221
forbidden 221
ignor@@ 221
itably 221
luggage 221
osa@@ 221
oy 221
prisoner 221
rendered 221
sampling 221
sediment 221
serial 221
severity 221
shareholder 221
stole 221
superiority 221
undermine 221
unfortunately 221
unrest 221
valu@@ 221
Ce@@ 220
Delhi 220
Far 220
Gordon 220
Jean 220
Mercury 220
NBA 220
Pap@@ 220
Rab@@ 220
Tex@@ 220
Ze@@ 220
aggregate 220
allegedly 220
ambitions 220
bargain 220
cleans@@ 220
clusters 220
consult 220
conveni@@ 220
dietary 220
fifteen 220
intervals 220
networking 220
recipient 220
restoration 220
simulated 220
sour@@ 220
Broad@@ 219
Caribbean 219
Chemical 219
Cs 219
Depending 219
Dol@@ 219
EA 219
Ele@@ 219
Fas@@ 219
Jin 219
Post 219
Protection 219
SE 219
Safety 219
Shar@@ 219
Summer 219
crises 219
effor@@ 219
encouragement 219
hypertension 219
invari@@ 219
mat 219
ologically 219
origins 219
persistence 219
routinely 219
spur 219
successor 219
summarize 219
unpredictable 219
xing 219
95 218
Altern@@ 218
Cru@@ 218
Digital 218
Ki@@ 218
R. 218
Spo@@ 218
aled 218
analyse 218
awa 218
cardiovascular 218
deciding 218
deserves 218
homeless 218
nurses 218
optim@@ 218
peer 218
pharmaceutical 218
populated 218
pou@@ 218
rebuild 218
tenth 218
tol@@ 218
ville 218
wanna 218
Cou@@ 217
Defense 217
Gold 217
Justice 217
Mod@@ 217
RC 217
Review 217
Sum@@ 217
Tar@@ 217
acceleration 217
adjusting 217
analyzes 217
arguing 217
defender 217
entries 217
father@@ 217
gaining 217
indicators 217
ligible 217
manned 217
measurable 217
nationality 217
natur@@ 217
nevertheless 217
persist 217
relay 217
researched 217
safer 217
scarce 217
subjec@@ 217
subjected 217
system@@ 217
tah 217
Afghan 216
Everybody 216
Log@@ 216
Members 216
adaptation 216
affordable 216
albeit 216
automated 216
camps 216
clan 216
eb@@ 216
enjoy@@ 216
farm@@ 216
finances 216
founding 216
irregular 216
mandate 216
norm 216
notification 216
observer 216
pronounced 216
susceptible 216
sympath@@ 216
tribal 216
Fel@@ 215
Him@@ 215
Maria 215
Sab@@ 215
Winter 215
abs@@ 215
alter@@ 215
assurance 215
asters 215
aug@@ 215
bond@@ 215
byp@@ 215
combines 215
confront 215
contractor 215
disposed 215
disturbing 215
entities 215
fairness 215
fixing 215
generates 215
hia 215
immunity 215
mak@@ 215
merger 215
patrol 215
phases 215
po 215
providers 215
recycl@@ 215
weaker 215
widow 215
1970s 214
37 214
Companies 214
Ec@@ 214
FC 214
Kel@@ 214
adv@@ 214
annot@@ 214
anonymous 214
biom@@ 214
foo@@ 214
formally 214
gest 214
ground@@ 214
harv@@ 214
ican 214
inland 214
jour@@ 214
manifest 214
maritime 214
memb@@ 214
omni@@ 214
overly 214
pens@@ 214
reliance 214
reproduction 214
sided 214
slowing 214
speeches 214
vendor 214
Forest 213
Fur@@ 213
Hay@@ 213
J. 213
Kit@@ 213
OBJECTIVE 213
Plan 213
Sports 213
acet@@ 213
alleg@@ 213
appreciated 213
assass@@ 213
businessmen 213
challenged 213
disposition 213
dominance 213
elect 213
impacts 213
intrinsic 213
lod@@ 213
logs 213
otes 213
outra@@ 213
qual@@ 213
qualification 213
sidel@@ 213
terrorists 213
tre 213
unions 213
Ass@@ 212
CS@@ 212
Capital 212
Computer 212
Doctor 212
Far@@ 212
Head@@ 212
Hope 212
Madrid 212
Select 212
alternate 212
ambul@@ 212
assemble 212
beli@@ 212
brother@@ 212
churches 212
constructive 212
degra@@ 212
ena 212
favor@@ 212
insu@@ 212
lately 212
lia 212
malicious 212
monitored 212
replacing 212
sensi@@ 212
tl@@ 212
trust@@ 212
urb@@ 212
ustin 212
verified 212
yiel@@ 212
Baghdad 211
Equipment 211
FD@@ 211
Gall@@ 211
Islam@@ 211
Likewise 211
Liter@@ 211
Olymp@@ 211
Spr@@ 211
TB 211
a. 211
asym@@ 211
austerity 211
automation 211
boarding 211
cruise 211
donor 211
geable 211
grat@@ 211
highlights 211
hind@@ 211
hopeful 211
introducing 211
intru@@ 211
locally 211
manag@@ 211
menting 211
merit 211
mois@@ 211
nes@@ 211
performs 211
regulated 211
reservation 211
rounds 211
that@@ 211
timber 211
weakened 211
Arizona 210
Delegation 210
IR 210
Learn 210
Nearly 210
Rock@@ 210
Room 210
Table 210
accommodation 210
agen 210
clear@@ 210
decad@@ 210
disrup@@ 210
explored 210
fies 210
initiatives 210
lingu@@ 210
plight 210
secular 210
speed@@ 210
suspen@@ 210
transmit 210
tribes 210
tty 210
vicious 210
zh@@ 210
----@@ 209
Chairman 209
Don@@ 209
ECB 209
Fun@@ 209
John@@ 209
Main 209
Pur@@ 209
Radi@@ 209
Wan 209
accord 209
arid 209
aspir@@ 209
campa@@ 209
colonial 209
exceptions 209
icable 209
identifying 209
imposing 209
impres@@ 209
oa 209
oss@@ 209
periodic 209
protects 209
sa 209
si 209
similarly 209
struggles 209
theft 209
vo 209
yan@@ 209
yi 209
65 208
Bos@@ 208
DVD 208
FO@@ 208
I. 208
Structure 208
bai 208
exclusively 208
foster 208
geography 208
harm@@ 208
intercourse 208
itating 208
manifestation 208
proceeds 208
propri@@ 208
provincial 208
regression 208
shifted 208
submarine 208
teries 208
trademark 208
ween 208
21st 207
Changes 207
Code 207
Dam@@ 207
Free 207
Haiti 207
ION 207
Orig@@ 207
Recently 207
Sorry 207
TER@@ 207
Thousands 207
bited 207
criminals 207
denial 207
differentiation 207
fax 207
featuring 207
focal 207
frequ@@ 207
incentives 207
incidents 207
influencing 207
investigating 207
lesser 207
notable 207
policymakers 207
relent@@ 207
retriev@@ 207
shifts 207
strengthening 207
strengths 207
toxicity 207
trage@@ 207
translat@@ 207
vaccines 207
Hat@@ 206
Ker@@ 206
Order 206
Yel@@ 206
adhere 206
ambass@@ 206
arize 206
ateway 206
calib@@ 206
inding 206
issu@@ 206
lethal 206
modernization 206
mont 206
nly 206
oblig@@ 206
odes 206
offs 206
parliamentary 206
propagation 206
socialism 206
trillion 206
uals 206
urgency 206
800 205
Brussels 205
Chr@@ 205
Wen@@ 205
Z 205
adopting 205
awards 205
calculations 205
complement 205
constraint 205
derson 205
encourages 205
ennis 205
exhi@@ 205
fibre 205
functioning 205
hardship 205
infants 205
innocence 205
integr@@ 205
lawsuit 205
objec@@ 205
pools 205
prudent 205
regul@@ 205
scrutiny 205
secu@@ 205
sexuality 205
smu@@ 205
straightforward 205
strengthened 205
tolerate 205
turer 205
usal 205
After@@ 204
Ah 204
Barcelona 204
Beg@@ 204
Cheng@@ 204
Domin@@ 204
EN 204
Eli@@ 204
Gener@@ 204
Grant 204
H. 204
You@@ 204
advocates 204
ands 204
appropriately 204
artif@@ 204
asion 204
attending 204
borrowed 204
commitments 204
delays 204
dilemma 204
dist@@ 204
dwelling 204
estial 204
euro@@ 204
floods 204
identi@@ 204
itz 204
mium 204
mony 204
outw@@ 204
projection 204
refu@@ 204
restriction 204
segments 204
strains 204
supreme 204
utmost 204
Director 203
Hong@@ 203
Jim@@ 203
Learning 203
Liqu@@ 203
Moz@@ 203
Poor 203
Say 203
carriers 203
comparative 203
concentrations 203
dable 203
dead@@ 203
downstream 203
exi@@ 203
expenditure 203
heed 203
incorporated 203
municipal 203
preventive 203
roy@@ 203
transmit@@ 203
tuberculosis 203
understands 203
witnessed 203
Above 202
Alex 202
ET 202
Lab@@ 202
Program 202
Seoul 202
Teaching 202
Wi@@ 202
accumulated 202
adequately 202
advantageous 202
applicant 202
bid@@ 202
conceal 202
convicted 202
credible 202
culation 202
deliberate 202
destroying 202
diffusion 202
distur@@ 202
dless 202
documented 202
enclosed 202
enforce 202
follow-up 202
has@@ 202
implementing 202
juvenile 202
metre 202
petrol 202
rais@@ 202
recommendation 202
stereotyp@@ 202
stoc@@ 202
suppress 202
winners 202
38 201
Arm@@ 201
Bet@@ 201
Investigation 201
Money 201
RI 201
Resul@@ 201
Somalia 201
Training 201
ageing 201
alternatives 201
aul 201
calam@@ 201
character@@ 201
counsel 201
disclosed 201
explaining 201
individually 201
maternal 201
modi@@ 201
notably 201
own@@ 201
p. 201
periodically 201
ptions 201
round@@ 201
simplify 201
siz@@ 201
stimulating 201
swiftly 201
tational 201
trajec@@ 201
urated 201
wan 201
Anne 200
Cambodia 200
Counter@@ 200
Environmental 200
FA 200
HS 200
Living 200
Rain@@ 200
Tan@@ 200
Venezuela 200
Victoria 200
Xinjiang 200
acies 200
aga 200
counterfe@@ 200
documentary 200
faculty 200
inviting 200
lati@@ 200
legislative 200
linking 200
osen 200
sta 200
subsequently 200
surviving 200
terial 200
ture@@ 200
urus 200
vide@@ 200
wholly 200
zen 200
700 199
Common 199
Even@@ 199
Ltd 199
Plus 199
Polish 199
Sad@@ 199
Wind@@ 199
atorial 199
confrontation 199
contempl@@ 199
earnest 199
educate 199
enum@@ 199
formulation 199
lengthy 199
mediation 199
monial 199
onian 199
ratings 199
resignation 199
roman@@ 199
rown 199
space@@ 199
supportive 199
unemployed 199
unfol@@ 199
weaken 199
33 198
Arts 198
By@@ 198
Channel 198
Contract 198
Portuguese 198
Victor@@ 198
aim@@ 198
attain 198
burial 198
dation 198
declining 198
eded 198
fa 198
fulfilled 198
func@@ 198
incorrect 198
launching 198
medium@@ 198
micro 198
originated 198
recalls 198
respects 198
sensing 198
stati@@ 198
tionary 198
varies 198
99 197
Cairo 197
Case 197
IG@@ 197
Proper@@ 197
Sy@@ 197
Systems 197
Watch 197
appren@@ 197
arising 197
attributed 197
bli@@ 197
computer@@ 197
consolidation 197
eclipse 197
healthcare 197
humanitarian 197
inhabitants 197
invoke 197
mobility 197
rad@@ 197
refin@@ 197
restructuring 197
rifle 197
situated 197
vendors 197
Jan@@ 196
MS@@ 196
NO 196
Nepal 196
Oscar 196
There@@ 196
addressing 196
allied 196
ana@@ 196
anticipate 196
arena 196
ater@@ 196
categor@@ 196
chr@@ 196
counterparts 196
enhancement 196
guarantees 196
iber@@ 196
jointly 196
justified 196
migrant 196
miners 196
movable 196
optimized 196
pandemic 196
place@@ 196
pupils 196
socially 196
viewpoint 196
volatility 196
Create 195
Fres@@ 195
Off@@ 195
Prize 195
Samuel 195
Value 195
Welcome 195
airy 195
arriving 195
cros@@ 195
disastrous 195
emig@@ 195
programm@@ 195
rability 195
All@@ 194
Cli@@ 194
Dong@@ 194
Lot@@ 194
Philip 194
Stri@@ 194
Ten@@ 194
Ukraine 194
Van@@ 194
Wa@@ 194
Xi 194
backdrop 194
benz@@ 194
buses 194
conspiracy 194
deepest 194
ellers 194
illegally 194
induction 194
inequality 194
inscri@@ 194
langu@@ 194
portions 194
prevalence 194
relies 194
researches 194
rested 194
retention 194
settling 194
solemn 194
Airport 193
CA 193
Comp@@ 193
Dor@@ 193
Dubai 193
Half 193
III 193
Peace 193
Policy 193
allow@@ 193
ample 193
anna 193
bral 193
cleansing 193
disadvantage 193
ebr@@ 193
eligible 193
ero 193
esse 193
faction 193
hij@@ 193
hou 193
hygiene 193
lugg@@ 193
ority 193
outright 193
pilots 193
recycling 193
rendering 193
retire 193
sies 193
sus 193
swift 193
whol@@ 193
Astr@@ 192
Chile 192
Stre@@ 192
ables 192
accountable 192
advis@@ 192
anda 192
choos@@ 192
coast@@ 192
contam@@ 192
derive 192
deviation 192
dispen@@ 192
envel@@ 192
geographical 192
hex@@ 192
interpreted 192
liberation 192
licence 192
pip@@ 192
preserv@@ 192
privately 192
refuses 192
searched 192
slowed 192
subscription 192
tise 192
tonn@@ 192
una 192
would@@ 192
Aer@@ 191
Explo@@ 191
OS 191
Said 191
Stop 191
Strong 191
TE@@ 191
Whe@@ 191
abide 191
appraisal 191
arsen@@ 191
belonged 191
bound@@ 191
candi@@ 191
charts 191
civilized 191
consultant 191
custody 191
deaf 191
did@@ 191
famine 191
guides 191
hepatitis 191
imperative 191
implicit 191
indexes 191
inflic@@ 191
jurisdiction 191
nationwide 191
preceding 191
remark 191
scrap 191
supervisor 191
tarian 191
tif@@ 191
traded 191
Chan@@ 190
Enterprise 190
Person@@ 190
Tam@@ 190
assert 190
closes 190
conjunction 190
delivering 190
departed 190
di 190
editing 190
excellence 190
implied 190
internationally 190
investigators 190
lacked 190
mee@@ 190
prejudice 190
proposition 190
refugees 190
responding 190
ri 190
rigorous 190
rival@@ 190
safeguard 190
sentenced 190
sured 190
tha 190
violate 190
Avenue 189
CB@@ 189
Conference 189
Gas 189
Guang@@ 189
Iv@@ 189
Jos@@ 189
NE@@ 189
SP 189
Urban 189
Vit@@ 189
Wiki@@ 189
compulsory 189
deterioration 189
disclosure 189
discretion 189
dumping 189
eed 189
enrich 189
extensively 189
laun@@ 189
lowering 189
methodology 189
ori 189
partment 189
permits 189
polls 189
presenting 189
realizing 189
repay 189
sci@@ 189
transplantation 189
urgently 189
uted 189
word@@ 189
workforce 189
34 188
Deep 188
GA 188
Inv@@ 188
Lebanon 188
Mam@@ 188
SC 188
Throughout 188
Works 188
aj@@ 188
analysed 188
catastrophe 188
centres 188
developmental 188
disability 188
disclose 188
enclosure 188
incorporate 188
mercury 188
organizing 188
predecessor 188
purification 188
questioning 188
recre@@ 188
ubl@@ 188
validate 188
Chong@@ 187
Chron@@ 187
Colonel 187
Colum@@ 187
Gol@@ 187
Product 187
approxim@@ 187
autonomy 187
consider@@ 187
contracted 187
creditors 187
deliv@@ 187
devote 187
disappointing 187
disrupt 187
editorial 187
environ@@ 187
groundwater 187
implication 187
initiate 187
lag@@ 187
mountainous 187
nationalism 187
oever 187
olds 187
regain 187
relevance 187
resigned 187
rests 187
retained 187
soph@@ 187
ted@@ 187
uation 187
Bran@@ 186
Lewis 186
Major 186
NET 186
Paul@@ 186
Pit@@ 186
Zhu@@ 186
accomplishment 186
aliz@@ 186
alleviate 186
disagree 186
discrete 186
elds 186
exert 186
freed 186
illustration 186
imminent 186
indirectly 186
lander 186
marginal 186
notic@@ 186
oxy@@ 186
prohibited 186
recovering 186
rhy@@ 186
tangible 186
ulously 186
unaware 186
xia 186
1000 185
43 185
Call 185
Euro@@ 185
Except 185
Political 185
Prof@@ 185
Publ@@ 185
Solomon 185
aviation 185
bile 185
communicating 185
conceived 185
conform 185
continuity 185
dealers 185
easing 185
ee@@ 185
exile 185
formidable 185
homeland 185
petty 185
ques 185
questionable 185
releasing 185
rightly 185
rought 185
thirds 185
thodox 185
threatens 185
undergoing 185
yn 185
55 184
60@@ 184
Az@@ 184
Consequently 184
Dig@@ 184
Higher 184
LY 184
Lon@@ 184
Mechan@@ 184
Mongolian 184
Relationship 184
Sem@@ 184
Sev@@ 184
Soci@@ 184
Sor@@ 184
advancement 184
clash 184
disruption 184
enic 184
financially 184
fulfilling 184
futures 184
genuinely 184
globally 184
guiding 184
hospitality 184
icated 184
inefficient 184
marty@@ 184
oling 184
openness 184
passport 184
priorities 184
queries 184
telephon@@ 184
vis 184
Clearly 183
ED@@ 183
Governor 183
Loo@@ 183
Lower 183
Mary@@ 183
Miller 183
Mobile 183
SS@@ 183
Sci@@ 183
Town 183
Wait 183
await 183
bombing 183
breast@@ 183
decision@@ 183
donation 183
elimination 183
genu@@ 183
govern 183
hing@@ 183
pursued 183
renewal 183
stagn@@ 183
tracted 183
tunn@@ 183
utilize 183
IA@@ 182
Os 182
aria 182
certificates 182
doubled 182
dus 182
elor 182
embassy 182
enrichment 182
handing 182
illustrated 182
improper 182
inter-@@ 182
irrelevant 182
navig@@ 182
nered 182
pragmatic 182
rea 182
refusal 182
regn@@ 182
rison 182
town@@ 182
turnover 182
upro@@ 182
yeah 182
120 181
Diag@@ 181
GE@@ 181
Galil@@ 181
Jeff@@ 181
Mass 181
Measu@@ 181
Parents 181
Pav@@ 181
Rap@@ 181
Were 181
aut 181
clamation 181
conformity 181
encoun@@ 181
exten@@ 181
flown 181
found@@ 181
genic 181
hazardous 181
idate 181
indu 181
inherit 181
jar@@ 181
lis 181
manages 181
maximize 181
misunderstanding 181
oval 181
participant 181
refuge 181
siege 181
sors 181
terminate 181
tified 181
tightening 181
unreasonable 181
verdict 181
xious 181
250 180
41 180
85 180
China@@ 180
Hit@@ 180
Jenn@@ 180
Name 180
Peru 180
Pil@@ 180
Provi@@ 180
UF@@ 180
ambiguous 180
ancing 180
appro@@ 180
aquatic 180
artillery 180
atings 180
before@@ 180
bons 180
centrifu@@ 180
confronted 180
destro@@ 180
fruitful 180
hman 180
ials 180
illustr@@ 180
initiated 180
inward 180
merits 180
metadata 180
nomination 180
proposes 180
proving 180
suffers 180
whilst 180
Alan 179
Beyond 179
COM@@ 179
IM 179
Ot@@ 179
Report 179
Rh@@ 179
T. 179
annually 179
assumptions 179
cocoa 179
contraction 179
districts 179
downs 179
ele 179
fundamentally 179
gaps 179
hour@@ 179
lement 179
mandatory 179
merchan@@ 179
ordering 179
pillars 179
pression 179
protec@@ 179
remainder 179
respectful 179
scand@@ 179
systemic 179
thanked 179
weighed 179
whatsoever 179
1997 178
BI 178
Bed@@ 178
Brian 178
CC 178
Charlie 178
Disease 178
Land@@ 178
Sav@@ 178
Squ@@ 178
arbitration 178
consisted 178
credentials 178
dire 178
dissolved 178
donors 178
eland 178
exceeding 178
imagery 178
ni 178
ocean@@ 178
orium 178
oth@@ 178
proportional 178
quo 178
reactive 178
regi@@ 178
reinforcement 178
rental 178
simplified 178
sponsor 178
traced 178
val 178
withdrawn 178
25@@ 177
Chris@@ 177
DA 177
Democr@@ 177
Expl@@ 177
Isa@@ 177
Nile 177
Stat@@ 177
Vie@@ 177
accidental 177
aluminium 177
cite 177
doses 177
embraced 177
festi@@ 177
gered 177
inci@@ 177
injustice 177
inth 177
invariably 177
isms 177
kel@@ 177
lodge 177
overlap 177
profoundly 177
prosecution 177
recruit 177
recur@@ 177
renew 177
storing 177
submission 177
Antarctic 176
Austria 176
Comparison 176
Fire@@ 176
His@@ 176
Key 176
MD@@ 176
Nat@@ 176
UV 176
Zhejiang 176
atis@@ 176
attendance 176
auxiliary 176
constructing 176
counsel@@ 176
curative 176
defending 176
delegation 176
dry@@ 176
fif@@ 176
foundations 176
hail 176
intervene 176
invalid 176
investigations 176
lead@@ 176
motives 176
opposing 176
overview 176
parental 176
plur@@ 176
responsive 176
revised 176
semin@@ 176
stresses 176
train@@ 176
triple 176
unacceptable 176
vacc@@ 176
Finland 175
HR 175
Kevin 175
OP@@ 175
SB@@ 175
Source 175
Truth 175
arises 175
cultiv@@ 175
derivatives 175
dev 175
divi@@ 175
enhancing 175
formul@@ 175
harness 175
kar@@ 175
likewise 175
nutritional 175
occ@@ 175
penetration 175
practi@@ 175
proximity 175
regulator 175
repairs 175
sanitation 175
shrinking 175
trades 175
veg@@ 175
wonder@@ 175
yu 175
200@@ 174
ATION 174
Coal 174
Convention 174
De 174
Fri@@ 174
IF 174
PE 174
Rights 174
Together 174
attendant 174
cky 174
frontier 174
hierarch@@ 174
iliation 174
imbalance 174
immen@@ 174
indigenous 174
intentional 174
lett 174
lump 174
obstruction 174
orbital 174
orth@@ 174
otyp@@ 174
partments 174
peasants 174
proceedings 174
recruitment 174
robbery 174
sibly 174
Against 173
Bom@@ 173
CIA 173
Credit 173
Delta 173
Making 173
access@@ 173
allocated 173
benef@@ 173
caus@@ 173
coura@@ 173
delegate 173
differentiate 173
distingu@@ 173
drin@@ 173
easi@@ 173
int@@ 173
lofty 173
merchandise 173
offence 173
opt 173
oversight 173
parag@@ 173
predictable 173
promotes 173
strateg@@ 173
tactical 173
understandable 173
uto 173
Apart 172
Architec@@ 172
Beli@@ 172
Bou@@ 172
CM@@ 172
Electronic 172
Fish 172
G. 172
Mac 172
Media 172
Prior 172
appliances 172
contradic@@ 172
emin@@ 172
endangered 172
evacuation 172
eventual 172
exchanged 172
fulf@@ 172
indu@@ 172
lease 172
multitude 172
rete 172
revive 172
shaping 172
successive 172
temporal 172
workload 172
1998 171
Adv@@ 171
Community 171
EC 171
Fal@@ 171
Fam@@ 171
Film 171
Hi@@ 171
Histor@@ 171
Less 171
Stan@@ 171
Vic@@ 171
abol@@ 171
actional 171
arely 171
baggage 171
catastrophic 171
clarify 171
commentary 171
comparatively 171
consulting 171
correspondence 171
coup 171
firm@@ 171
foremost 171
frat@@ 171
hap@@ 171
highlighted 171
interviewed 171
judgement 171
kindergar@@ 171
knowled@@ 171
odies 171
preferably 171
quer@@ 171
recurrence 171
sabot@@ 171
servic@@ 171
tioning 171
vaccination 171
zer@@ 171
000@@ 170
Arabic 170
ENT 170
Exam@@ 170
IE 170
Lim@@ 170
assumes 170
carcin@@ 170
censorship 170
eliminating 170
entation 170
fiel@@ 170
financi@@ 170
had@@ 170
idated 170
justification 170
misleading 170
model@@ 170
newborn 170
noticeable 170
renewable 170
rotary 170
searches 170
subsidiary 170
taxpay@@ 170
unchanged 170
undertaking 170
11@@ 169
Aar@@ 169
Cape 169
MP@@ 169
Margaret 169
Non@@ 169
Nonetheless 169
Prec@@ 169
Shand@@ 169
Up@@ 169
apor@@ 169
bursts 169
charitable 169
collections 169
consecutive 169
continual 169
decre@@ 169
diar@@ 169
dine 169
famil@@ 169
hosted 169
ided 169
igned 169
ista 169
mission@@ 169
negotiating 169
preferences 169
prosecutors 169
rim 169
solid@@ 169
territorial 169
tization 169
versa 169
80@@ 168
Care@@ 168
Description 168
Ds 168
Inc 168
Son@@ 168
Technical 168
Vietnamese 168
aly 168
bag@@ 168
champ@@ 168
collectively 168
confidential 168
contradictory 168
deton@@ 168
distances 168
eiv@@ 168
emphas@@ 168
enting 168
mortar 168
ressing 168
revision 168
solic@@ 168
therein 168
tiveness 168
warran@@ 168
wholesale 168
Accordingly 167
Care 167
Child 167
DS 167
GO@@ 167
GPS 167
MI 167
Pos@@ 167
Series 167
Sis@@ 167
Standing 167
Stanley 167
Step 167
Tube 167
aka 167
anticipation 167
baseline 167
casualties 167
conceptual 167
discouraged 167
embark 167
essive 167
exo@@ 167
flag@@ 167
hu 167
inno@@ 167
landmark 167
measles 167
mini 167
pharm@@ 167
problematic 167
redundant 167
registry 167
stag@@ 167
termination 167
underway 167
visibility 167
Benj@@ 166
Better 166
Compar@@ 166
Fair 166
Federation 166
Full 166
Geneva 166
HO@@ 166
IB@@ 166
Juven@@ 166
Kat@@ 166
L. 166
Mubar@@ 166
Myanmar 166
Number 166
Palestinians 166
Roc@@ 166
Simul@@ 166
Southeast 166
Syrian 166
Thirdly 166
abor@@ 166
accountability 166
aided 166
concise 166
country@@ 166
divisions 166
duous 166
eh 166
eighth 166
ek@@ 166
esty 166
follow@@ 166
illustrates 166
infantry 166
inser@@ 166
patents 166
poisoning 166
prefec@@ 166
relying 166
universally 166
Cuban 165
Super 165
associations 165
atal 165
ato@@ 165
authorization 165
brief@@ 165
collateral 165
fab@@ 165
fossi@@ 165
intends 165
litigation 165
mann 165
mathem@@ 165
ml 165
needing 165
nes 165
nickel 165
ough@@ 165
overtime 165
par 165
polluted 165
posting 165
prevalent 165
refusing 165
stationary 165
taxation 165
taxpayers 165
tish 165
undertaken 165
AR 164
Evaluation 164
Kore@@ 164
Mir@@ 164
Ol@@ 164
Robinson 164
Scre@@ 164
Seven 164
Viol@@ 164
adolescent 164
align 164
completing 164
contempt 164
dedic@@ 164
deprived 164
diplomats 164
dividend 164
eighteen 164
embrac@@ 164
furn@@ 164
gues 164
inclusion 164
inhabited 164
lifelong 164
oca@@ 164
piracy 164
proprietary 164
pursu@@ 164
renminbi 164
telec@@ 164
terns 164
tiously 164
1960s 163
ATE 163
CS 163
Fir@@ 163
Gul@@ 163
LL@@ 163
Prevention 163
Ric@@ 163
Sig@@ 163
Sony 163
Span@@ 163
UB@@ 163
accelerated 163
articul@@ 163
chiefly 163
compile 163
compiled 163
damn 163
ello 163
ested 163
evaluating 163
extern@@ 163
floo@@ 163
hui 163
ineffective 163
inj@@ 163
institute 163
itant 163
kilometres 163
outgoing 163
peac@@ 163
phenomen@@ 163
poli@@ 163
recognised 163
stead 163
stro 163
targeting 163
toral 163
ui 163
ulty 163
unting 163
upstream 163
Already 162
Chan 162
Commerce 162
Congo 162
Descri@@ 162
Eric 162
Kir@@ 162
Port 162
Problems 162
Woods 162
alarming 162
ammunition 162
articulate 162
cholera 162
contr@@ 162
deceased 162
decreasing 162
deserved 162
duplicate 162
eminent 162
flags 162
historically 162
inspect 162
lays 162
libr@@ 162
projected 162
reactors 162
repetition 162
reversal 162
subsidies 162
subver@@ 162
sums 162
DF 161
EV@@ 161
Fuk@@ 161
Guinea 161
Hungary 161
Las@@ 161
Norwegian 161
OP 161
Saint 161
accepts 161
agog@@ 161
airlines 161
ayed 161
bodily 161
citizenship 161
clearance 161
correspond 161
defendant 161
denomin@@ 161
electoral 161
empirical 161
harassment 161
immigrant 161
jan 161
pest 161
pha 161
qualitative 161
reason@@ 161
sciences 161
secrecy 161
ska 161
stabilize 161
suppression 161
theses 161
unused 161
Appl@@ 160
Belgium 160
Frequ@@ 160
Labor 160
Nanjing 160
Trust 160
adviser 160
anonym@@ 160
appearances 160
calibration 160
descriptions 160
din 160
disadvantages 160
ements 160
emphasized 160
examining 160
expen@@ 160
g. 160
harvesting 160
interim 160
lords 160
loy@@ 160
neighbouring 160
observing 160
pledged 160
prevail 160
proceeding 160
scholarship 160
specifies 160
speculative 160
stamps 160
uneven 160
workable 160
Access 159
Ali@@ 159
Congres@@ 159
IO@@ 159
Library 159
Ltd. 159
Nur@@ 159
Ve@@ 159
Youth 159
ares 159
avo@@ 159
deepen 159
demographic 159
dependency 159
dispos@@ 159
dispose 159
earning 159
echo@@ 159
exceeds 159
existent 159
food@@ 159
inconsistent 159
indefinitely 159
issuing 159
lor 159
militants 159
paradigm 159
parently 159
particul@@ 159
peacefully 159
piles 159
preparations 159
regulating 159
rels 159
suspend 159
tropol@@ 159
Ali 158
Brothers 158
Friends 158
Israel@@ 158
Pan 158
Pon@@ 158
Produc@@ 158
Work@@ 158
adjustments 158
aerial 158
autonomous 158
customary 158
definitive 158
detention 158
duction 158
emerg@@ 158
enh@@ 158
exhaustion 158
flora 158
formats 158
incomes 158
internally 158
literacy 158
mar 158
marriages 158
petition 158
prerequisite 158
procurement 158
rebel@@ 158
refrain 158
respir@@ 158
revival 158
salaries 158
satellites 158
subsi@@ 158
subsidy 158
succeeded 158
suppl@@ 158
transported 158
uma 158
uniformity 158
warrant 158
Action 157
BM@@ 157
Banks 157
Conversely 157
Emil@@ 157
Gold@@ 157
MENT 157
PM 157
Pack@@ 157
Solar 157
accusations 157
ange 157
appeals 157
behavi@@ 157
corrective 157
distor@@ 157
eo 157
filing 157
forge 157
forging 157
husbands 157
insights 157
ission 157
lenders 157
lier 157
oline 157
parame@@ 157
piled 157
plantation 157
produc@@ 157
religions 157
trop@@ 157
yearly 157
24@@ 156
Agriculture 156
Arkansas 156
Finance 156
Hamp@@ 156
Resistance 156
aired 156
avert 156
continuation 156
credited 156
diversified 156
drastic 156
eur 156
hegem@@ 156
oran@@ 156
overlooked 156
parc@@ 156
piv@@ 156
profession@@ 156
recreation 156
regimes 156
reluctance 156
scrup@@ 156
standpoint 156
systematically 156
triangular 156
tro 156
vicinity 156
y. 156
Andre@@ 155
Att@@ 155
Cad@@ 155
DP 155
Danish 155
Deng 155
Hot@@ 155
Naz@@ 155
Net 155
Ton@@ 155
Unit 155
Vienna 155
aspiration 155
assisted 155
careers 155
catalogue 155
cocaine 155
contributing 155
daw@@ 155
devast@@ 155
dictatorship 155
ensu@@ 155
exceptionally 155
guerr@@ 155
har 155
hoods 155
hurricane 155
iles 155
impairment 155
invoice 155
leis@@ 155
ley@@ 155
notify 155
obsolete 155
pesticide 155
poorest 155
solidarity 155
sume 155
surveys 155
tenure 155
vulnerability 155
1996 154
Bangkok 154
Determin@@ 154
Know@@ 154
academ@@ 154
ady 154
applicants 154
assessed 154
capita 154
cataly@@ 154
diamonds 154
diminish 154
dismiss 154
dispu@@ 154
edes 154
endemic 154
exporter 154
faith@@ 154
governed 154
grants 154
hosting 154
modal 154
murdered 154
orrow 154
referendum 154
station@@ 154
statis@@ 154
suspects 154
variance 154
weaknesses 154
Base 153
CF@@ 153
DE 153
Employ@@ 153
End 153
Former 153
GU@@ 153
Pun@@ 153
Village 153
auditing 153
boycot@@ 153
budgets 153
commerci@@ 153
compelled 153
consolidate 153
critically 153
deleted 153
embodi@@ 153
exporters 153
hostility 153
inaug@@ 153
livelihood 153
migrants 153
nominal 153
potenti@@ 153
presently 153
self@@ 153
sellers 153
soils 153
1995 152
Country 152
Dal@@ 152
Division 152
Kr@@ 152
Measures 152
Sales 152
abusive 152
adopts 152
arities 152
asha 152
bolster 152
conducive 152
contacted 152
corrected 152
defended 152
discourage 152
enceforth 152
enth@@ 152
forthcoming 152
impoverished 152
incremental 152
infringement 152
insertion 152
intangible 152
interpreter 152
lity 152
milestone 152
oppression 152
participating 152
pioneer 152
recurrent 152
refine 152
reinforce 152
saf@@ 152
seminar 152
shortcomings 152
sid@@ 152
statutory 152
utilized 152
warmly 152
90@@ 151
Bun@@ 151
Cer@@ 151
Drug 151
Investment 151
Jun@@ 151
Materials 151
Mov@@ 151
Near 151
Peninsula 151
Rud@@ 151
accompl@@ 151
achi@@ 151
alis 151
ballot 151
ceased 151
cent@@ 151
delinqu@@ 151
enriched 151
incapable 151
mitigate 151
moreover 151
mortgages 151
oratory 151
plots 151
proceeded 151
prosecutor 151
provocative 151
rebellion 151
repeti@@ 151
reside 151
reversed 151
sche 151
sibl@@ 151
tary 151
underes@@ 151
unrelated 151
vocational 151
Basic 150
Buil@@ 150
Direc@@ 150
Fourth 150
Guard 150
Paper 150
Period 150
Private 150
Su 150
aiming 150
ancho@@ 150
approximate 150
bribery 150
complementary 150
duly 150
editors 150
estic 150
exploded 150
geographic 150
heavier 150
heroin 150
ingo 150
ira 150
irresponsible 150
ja 150
multimedia 150
presidents 150
profiles 150
relied 150
strata 150
tatively 150
toil@@ 150
transforming 150
urging 150
46 149
Agen@@ 149
Engine@@ 149
Guil@@ 149
Gun@@ 149
LS 149
List 149
Mah@@ 149
Tianjin 149
Tol@@ 149
Various 149
advertisements 149
ancellor 149
benchmark 149
bottlen@@ 149
chinese 149
comprise 149
considerations 149
constra@@ 149
containment 149
dict 149
dignified 149
dow@@ 149
endured 149
formity 149
icide 149
icit 149
linkage 149
objection 149
organised 149
orum 149
prevailing 149
pro 149
quota 149
racism 149
remin@@ 149
replen@@ 149
sizing 149
smen 149
stigma 149
tailor 149
tant@@ 149
unilateral 149
unjust 149
unsafe 149
1990 148
Alg@@ 148
Cancer 148
Carbon 148
Clean 148
Colombia 148
Continu@@ 148
Earth@@ 148
Ess@@ 148
PLC 148
Processing 148
Recor@@ 148
Section 148
Single 148
Taiwan@@ 148
Ten 148
Tripoli 148
bably 148
bids 148
deposited 148
disappearance 148
exclude 148
exis@@ 148
expresses 148
freshwater 148
hinder 148
imm@@ 148
instructed 148
isc@@ 148
lawful 148
m. 148
macro 148
metall@@ 148
monitors 148
mountain@@ 148
ocul@@ 148
pei 148
possesses 148
prepares 148
proxim@@ 148
publications 148
recommends 148
stagnation 148
streaming 148
surviv@@ 148
voluntarily 148
70@@ 147
Bak@@ 147
Basin 147
Compu@@ 147
Conver@@ 147
Distribution 147
Franc@@ 147
Human@@ 147
IV 147
Merc@@ 147
Movement 147
O. 147
Stock 147
aftermath 147
ag 147
airports 147
alian 147
ardo 147
cla@@ 147
classify 147
contributes 147
diligence 147
dissolution 147
earthquakes 147
entrepreneurial 147
girl@@ 147
ifies 147
initiation 147
keepers 147
multilateral 147
onna 147
outdated 147
ranges 147
resilience 147
resilient 147
ror@@ 147
scientifically 147
studi@@ 147
transform@@ 147
unavailable 147
unification 147
Close 146
Cook 146
Environment 146
Executive 146
Fifth 146
Modi@@ 146
Phys@@ 146
Vice 146
advisers 146
alia 146
bargaining 146
chapters 146
closures 146
dos 146
escort 146
foreigner 146
furnished 146
juven@@ 146
outset 146
pollutants 146
practise 146
quarterly 146
richest 146
seriousness 146
shortages 146
summarized 146
tenance 146
troop 146
uh 146
urations 146
vigorously 146
44 145
Christ@@ 145
Coc@@ 145
Kun@@ 145
Male 145
Morocco 145
Observation 145
Shan 145
adoles@@ 145
advocacy 145
aids 145
appen@@ 145
apy 145
assertion 145
autonom@@ 145
carri@@ 145
colum@@ 145
compilation 145
econom@@ 145
excessively 145
exclusion 145
fruit@@ 145
heigh@@ 145
ilia 145
intermediary 145
labor@@ 145
malnutrition 145
multinational 145
needy 145
norms 145
participated 145
polarization 145
preserving 145
profitability 145
provoked 145
question@@ 145
rockets 145
schooling 145
sophistic@@ 145
ticle 145
unavoidable 145
uru 145
Albert 144
BA 144
CO 144
CR 144
Collec@@ 144
Combined 144
DP@@ 144
Emer@@ 144
Girl 144
Kur@@ 144
Lama 144
Lia@@ 144
Live 144
MBA 144
Physical 144
Quar@@ 144
Total 144
Workers 144
Write 144
accessed 144
administered 144
antry 144
atus 144
bureaucratic 144
cancelled 144
constitutes 144
dispar@@ 144
earnestly 144
iat@@ 144
inned 144
negatively 144
obtaining 144
plea 144
process@@ 144
professors 144
prostitution 144
separating 144
testify 144
thes@@ 144
tracked 144
utes 144
Aug@@ 143
CONCLUS@@ 143
Dalai 143
Front 143
Guide 143
Multiple 143
Parts 143
Preliminary 143
Whereas 143
connectivity 143
deprivation 143
doubtful 143
emancip@@ 143
enced 143
ether 143
forecasts 143
gation 143
gents 143
gi 143
hazards 143
hereby 143
hic@@ 143
ific 143
invaluable 143
iro 143
joins 143
restrictive 143
retrieval 143
strife 143
subordinate 143
unauthorized 143
Americ@@ 142
Christopher 142
Dur@@ 142
Jack@@ 142
Ky@@ 142
Max 142
Nichol@@ 142
Notice 142
OM 142
Ontario 142
PR 142
Responsible 142
SL@@ 142
breadth 142
broadcasting 142
burg 142
charter 142
condemn 142
conditional 142
contention 142
demonstrations 142
deration 142
evolving 142
identifies 142
instrumental 142
oni 142
onization 142
organisations 142
poorer 142
qualifications 142
sterilization 142
terrestrial 142
vou@@ 142
worksh@@ 142
47 141
51 141
Alabama 141
Bad@@ 141
Failure 141
Od@@ 141
Ou@@ 141
Population 141
Rate 141
Rot@@ 141
Sadd@@ 141
Sic@@ 141
Tradi@@ 141
Univer@@ 141
Wild 141
activ@@ 141
advancing 141
chloro@@ 141
confession 141
disregard 141
equival@@ 141
exhibits 141
incumbent 141
influx 141
mobilize 141
occupational 141
oni@@ 141
pervasive 141
preferable 141
qi@@ 141
republic 141
reservo@@ 141
sistence 141
then@@ 141
tu 141
undergone 141
uphold 141
Back@@ 140
Cher@@ 140
Ci@@ 140
Customer 140
Customs 140
Differen@@ 140
Nam@@ 140
Premi@@ 140
Support 140
VE@@ 140
aligned 140
alteration 140
aud 140
brilli@@ 140
bullets 140
collap@@ 140
comprising 140
coordinates 140
counterpart 140
cumulative 140
demon@@ 140
dimin@@ 140
drop@@ 140
evacu@@ 140
excluding 140
footing 140
inputs 140
jeop@@ 140
liance 140
mobil@@ 140
nonetheless 140
periph@@ 140
pheric 140
recreational 140
redund@@ 140
renovation 140
repairing 140
rhetor@@ 140
simultaneous 140
subsidi@@ 140
sumes 140
whereby 140
Adap@@ 139
Ara@@ 139
Award 139
CP 139
Double 139
Gao 139
Hil@@ 139
Initi@@ 139
Le 139
N1 139
Operation 139
Puerto 139
RT@@ 139
Sachs 139
administer 139
airs 139
asty 139
borrow@@ 139
broaden 139
compares 139
declines 139
drastically 139
etry 139
fellowship 139
ffee 139
hemisphere 139
itative 139
overdue 139
peninsula 139
policemen 139
pornography 139
prohibit 139
psychiatric 139
recti@@ 139
repaired 139
stat 139
thematic 139
unrealistic 139
unsustainable 139
vacant 139
1992 138
AN 138
Anna 138
Fr@@ 138
Gradu@@ 138
Kh@@ 138
Level 138
Pas@@ 138
Pel@@ 138
Radio 138
Survey 138
WITH 138
academia 138
acent 138
adherence 138
advisable 138
aints 138
cue 138
delegates 138
deter 138
differs 138
diversion 138
encro@@ 138
exha@@ 138
expectancy 138
inherently 138
install@@ 138
insured 138
markedly 138
ozone 138
pardon 138
payable 138
penalties 138
ponent 138
prescri@@ 138
ranked 138
raped 138
refugee 138
regim@@ 138
repression 138
rho@@ 138
solem@@ 138
substantive 138
tents 138
unpaid 138
variability 138
voiced 138
widen 138
1994 137
Dom@@ 137
Electr@@ 137
Francis 137
Gene@@ 137
RMB 137
SW@@ 137
Sierra 137
Sri 137
Starting 137
Sus@@ 137
Termin@@ 137
Tou@@ 137
Walter 137
Zone 137
assignments 137
att 137
blueprint 137
communal 137
creditor 137
deficient 137
dise@@ 137
disparity 137
divert 137
egu@@ 137
emphasizes 137
entially 137
forth@@ 137
fraudulent 137
governmental 137
inclusive 137
inde@@ 137
instru@@ 137
lawed 137
neighbourhood 137
numbered 137
organiz@@ 137
polling 137
postal 137
respecting 137
seri@@ 137
societal 137
suffic@@ 137
technolog@@ 137
tril@@ 137
Agricultural 136
Ak@@ 136
Alexand@@ 136
Allow 136
Bernard 136
Dak@@ 136
Form 136
Material 136
Military 136
Mill@@ 136
Video 136
Zimbabwe 136
aki 136
ambiguity 136
arization 136
ask@@ 136
cancellation 136
certi@@ 136
cid@@ 136
condu@@ 136
detained 136
disagreement 136
domains 136
eleven 136
ensis 136
humane 136
ignoring 136
innovations 136
integrating 136
kidn@@ 136
median 136
opium 136
osph@@ 136
phoon 136
reat 136
rennial 136
revise 136
ropic 136
shocks 136
sufficiency 136
suming 136
summon@@ 136
surveying 136
transfers 136
undesirable 136
66 135
AL 135
Ann 135
Bangladesh 135
Boston 135
Condi@@ 135
Consul@@ 135
Gib@@ 135
Introduction 135
Lun@@ 135
SD 135
Top@@ 135
Tru@@ 135
UT 135
Victor 135
WA@@ 135
Yo@@ 135
allocate 135
anti 135
ballistic 135
clearer 135
concerted 135
conserve 135
culmin@@ 135
denying 135
diction 135
dissemination 135
doms 135
engine@@ 135
ew@@ 135
forestry 135
impetus 135
implement@@ 135
ital 135
lan 135
mindful 135
misuse 135
nado 135
obstruc@@ 135
ony@@ 135
outbreaks 135
polio 135
promotional 135
sanitary 135
travelled 135
Box 134
Certain 134
Climate 134
Consum@@ 134
Dum@@ 134
Egyp@@ 134
Eu@@ 134
Excuse 134
IX 134
Kal@@ 134
Khan 134
PV@@ 134
arduous 134
atitis 134
attracting 134
authoritative 134
avoidance 134
beta 134
chea@@ 134
commemorate 134
convic@@ 134
crit@@ 134
debates 134
deduction 134
dispersed 134
diversification 134
dreds 134
hos@@ 134
idation 134
illicit 134
invoked 134
ipp@@ 134
ont@@ 134
osoph@@ 134
outlets 134
pivotal 134
premises 134
quarantine 134
racist 134
recru@@ 134
responds 134
ricul@@ 134
seabed 134
supporter 134
tality 134
unconditional 134
unintended 134
Alliance 133
Am 133
Concrete 133
Experience 133
Gabri@@ 133
Hi 133
Ho 133
NATION 133
Open@@ 133
Railway 133
Thor@@ 133
asa 133
brochure 133
choc@@ 133
coherence 133
dispat@@ 133
divorced 133
dram@@ 133
ev 133
harbour 133
hospit@@ 133
imprisonment 133
insecure 133
inspir@@ 133
macroeconomic 133
ods 133
signatures 133
supplements 133
surance 133
thes 133
vil 133
wet@@ 133
Bin 132
Bolivia 132
Job 132
MR 132
Macao 132
PRO@@ 132
Raf@@ 132
Regul@@ 132
Sex 132
Shall 132
accounted 132
acier 132
apprehen@@ 132
awa@@ 132
bec 132
borrowers 132
chen 132
deadlock 132
depreciation 132
descendants 132
erni@@ 132
fail@@ 132
fishery 132
fulfil 132
helicopters 132
hostage 132
interventions 132
ipel@@ 132
monies 132
oura@@ 132
substitution 132
suscep@@ 132
wishing 132
worthwhile 132
ye@@ 132
64 131
Active 131
Angel@@ 131
Av@@ 131
Battle 131
Criminal 131
Fann@@ 131
Female 131
Internal 131
Mechanism 131
Pierre 131
Prin@@ 131
Tax 131
Teachers 131
concession 131
consolidated 131
constituent 131
contex@@ 131
depos@@ 131
deteriorate 131
discrepancy 131
dupl@@ 131
explanations 131
formations 131
hima 131
ila 131
impu@@ 131
intensify 131
legislature 131
mediate 131
oh@@ 131
operability 131
predominantly 131
procedural 131
reconcile 131
renov@@ 131
resol@@ 131
stating 131
vers 131
1993 130
Conf@@ 130
Finding 130
OL@@ 130
Reform 130
Tunisia 130
aggrav@@ 130
ancestral 130
annu@@ 130
backbone 130
brigade 130
bureau 130
climatic 130
coincide 130
collaborate 130
collaborative 130
compliant 130
contingent 130
demol@@ 130
detrimental 130
devise 130
distorted 130
donated 130
endorsement 130
enlargement 130
enrol@@ 130
factual 130
fis@@ 130
genocide 130
illnesses 130
lis@@ 130
mary 130
persecu@@ 130
posters 130
prises 130
progressively 130
proportions 130
ral 130
rationale 130
realities 130
reti@@ 130
scarcity 130
tours 130
unequal 130
zi@@ 130
Authorities 129
Baltic 129
Develop@@ 129
FT 129
LL 129
Member 129
Palestine 129
Resid@@ 129
Rest@@ 129
Search 129
Yemen 129
amendment 129
brevi@@ 129
cians 129
commission@@ 129
constrained 129
defer 129
ende@@ 129
enlarged 129
iddle 129
ii 129
incompatible 129
insti@@ 129
interruption 129
mingly 129
notions 129
pave 129
pering 129
privileges 129
prom@@ 129
qualif@@ 129
readiness 129
sixty 129
substitu@@ 129
testi@@ 129
vigilant 129
49 128
Express 128
Nicol@@ 128
Peri@@ 128
Rum@@ 128
STA@@ 128
Stor@@ 128
Understanding 128
VER@@ 128
bery 128
compromising 128
coordinated 128
demolition 128
dispatch 128
entic@@ 128
eu 128
horizon@@ 128
icating 128
ida 128
inaccurate 128
legitimacy 128
payroll 128
posite 128
precedent 128
reath 128
refrigeration 128
specialists 128
standardized 128
stringent 128
stud@@ 128
tariff 128
underwent 128
vacancy 128
vering 128
veto 128
viability 128
weapon@@ 128
56 127
ALL 127
Cathol@@ 127
Hus@@ 127
IPO 127
Index 127
Laboratory 127
Mak@@ 127
Mont@@ 127
Primary 127
Scot@@ 127
blockade 127
cater 127
chambers 127
cia 127
concep@@ 127
concludes 127
contentious 127
contractual 127
decree 127
dissertation 127
domination 127
elders 127
eving 127
exercising 127
explosions 127
forensic 127
join@@ 127
liabilities 127
matri@@ 127
museums 127
narr@@ 127
pastor@@ 127
physicians 127
precursor 127
proclaimed 127
prominence 127
revert 127
52 126
Cases 126
Clin@@ 126
Corps 126
Forum 126
HK 126
Hold 126
Lat@@ 126
Meeting 126
Mine 126
OS@@ 126
Rid@@ 126
Romania 126
abolish 126
amend 126
congratulate 126
countermeasures 126
forecasting 126
ither 126
ja@@ 126
learners 126
ounced 126
outlined 126
perimeter 126
ported 126
postpone 126
practicable 126
rices 126
scaled 126
standby 126
steril@@ 126
supervisory 126
usefulness 126
wording 126
17th 125
1950@@ 125
Bar 125
Bay@@ 125
Cab@@ 125
Corp. 125
Girls 125
ODS 125
TER 125
Tehran 125
Trin@@ 125
allowance 125
aspirations 125
certified 125
characterization 125
chec@@ 125
competitions 125
conclusive 125
consequently 125
continu@@ 125
credits 125
demonstrators 125
descend@@ 125
devastation 125
eived 125
embodied 125
equitable 125
este@@ 125
exemption 125
expire 125
forefront 125
gens 125
impair 125
inaccessible 125
inactive 125
noting 125
purch@@ 125
regrets 125
sponsored 125
subordin@@ 125
suspec@@ 125
tler 125
tortured 125
ul 125
Cell 124
Century 124
Commercial 124
Design@@ 124
Guatemala 124
Lag@@ 124
Lor@@ 124
Machin@@ 124
Pac@@ 124
administrators 124
aine 124
avail 124
bail 124
briefing 124
cohesion 124
continuum 124
discipl@@ 124
disciplines 124
dise 124
expiration 124
forged 124
fundraising 124
gangs 124
hn 124
icitly 124
liberalization 124
motions 124
nationally 124
ocity 124
perceptions 124
rella 124
sives 124
thereafter 124
upbringing 124
Califor@@ 123
Considering 123
Czech 123
Developing 123
Embassy 123
Factors 123
Heavy 123
Ord@@ 123
Pay@@ 123
Reflec@@ 123
Similar 123
TE 123
VA 123
anne 123
ascertain 123
balances 123
census 123
childbirth 123
circulate 123
cyclical 123
deprive 123
displaced 123
enforced 123
ers@@ 123
firstly 123
forec@@ 123
formulated 123
humankind 123
hygi@@ 123
incur 123
indictment 123
macy 123
manifestations 123
manpower 123
practitioners 123
precau@@ 123
precedence 123
predecessors 123
prudence 123
shortfall 123
tenant 123
terminology 123
v. 123
18th 122
1st 122
AF@@ 122
Communication 122
Custom@@ 122
Help 122
Hungarian 122
Incre@@ 122
Manila 122
Native 122
Nuclear 122
Philippine 122
Recent 122
Swit@@ 122
Uni@@ 122
affirm 122
aliens 122
debtor 122
domes@@ 122
endanger 122
enthusias@@ 122
exempt 122
fragmentation 122
frank 122
holdings 122
housed 122
incid@@ 122
judic@@ 122
newsletter 122
nominated 122
onel 122
ophone 122
orer 122
resid@@ 122
stering 122
tem 122
timetable 122
transitional 122
unidentified 122
utilizing 122
whereabouts 122
BE@@ 121
Dro@@ 121
Ever@@ 121
Examples 121
Phase 121
Price 121
Wit@@ 121
acquiring 121
alumni 121
appointments 121
assassination 121
bilingual 121
casualty 121
citing 121
civic 121
counteract 121
cumbersome 121
deterrent 121
efs 121
ernity 121
formulate 121
gment 121
interven@@ 121
lectures 121
margin@@ 121
null 121
omission 121
perv@@ 121
photocop@@ 121
professionalism 121
protocols 121
rati@@ 121
rents 121
scheduling 121
speedy 121
standardization 121
tium 121
transl@@ 121
tribunal 121
violated 121
Areas 120
Ari@@ 120
Authority 120
Conc@@ 120
Control@@ 120
Giv@@ 120
ICAL 120
Jam@@ 120
Jennifer 120
Judge 120
Kansas 120
Online 120
Tak@@ 120
Upper 120
Virgin 120
accompan@@ 120
accompanying 120
awaiting 120
casu@@ 120
concurrent 120
debated 120
decisively 120
deserv@@ 120
duplication 120
ei 120
enact 120
igning 120
ism@@ 120
itations 120
ku 120
negoti@@ 120
ninth 120
reconciliation 120
resumption 120
sha 120
stipulated 120
tariffs 120
tices 120
troop@@ 120
ug 120
vie 120
Advanced 119
Ah@@ 119
Had@@ 119
Kuwait 119
Lad@@ 119
Liv@@ 119
MB@@ 119
Panama 119
Riv@@ 119
Save 119
Staff 119
Travel 119
Whoever 119
accession 119
arming 119
assessing 119
backgrounds 119
consultancy 119
diminished 119
discharged 119
dividing 119
erron@@ 119
excluded 119
exempl@@ 119
express@@ 119
faithfully 119
generalized 119
grassroots 119
guardian 119
hamper 119
igno@@ 119
illiterate 119
improv@@ 119
insectici@@ 119
insepar@@ 119
invites 119
isten 119
istically 119
negligence 119
prostitu@@ 119
protracted 119
rented 119
repayment 119
settlements 119
settlers 119
striving 119
supervise 119
tremend@@ 119
trustee 119
voter 119
withdrew 119
72 118
Ambassador 118
Arabian 118
Bish@@ 118
Discus@@ 118
Inter 118
Preparation 118
Rod@@ 118
Vel@@ 118
advisory 118
arisen 118
ator@@ 118
equipments 118
executing 118
exported 118
guideline 118
impede 118
journals 118
licensed 118
militia 118
persisted 118
perspectives 118
plant@@ 118
poc@@ 118
pollutant 118
ponents 118
presentations 118
refinement 118
sponsorship 118
stakeholder 118
subsistence 118
tentative 118
tis@@ 118
ventions 118
2nd 117
98 117
Bio@@ 117
El 117
Excell@@ 117
Gas@@ 117
How@@ 117
Innovation 117
LC 117
Madagascar 117
Malaysian 117
Marriage 117
Reserv@@ 117
Rules 117
Santiago 117
Transport 117
Waste 117
assy 117
aux 117
biotechnology 117
blatant 117
commen@@ 117
dynamism 117
elimin@@ 117
eradicate 117
exacerbate 117
holistic 117
maternity 117
month@@ 117
restoring 117
rue 117
suring 117
urin@@ 117
vie@@ 117
1991 116
Countries 116
Formul@@ 116
Fried@@ 116
Mom@@ 116
Officer 116
Problem 116
Scientific 116
Tour@@ 116
Warsaw 116
appealed 116
biased 116
ced 116
centrally 116
characterize 116
coercion 116
cohesive 116
confinement 116
derly 116
disadvantaged 116
elective 116
elli 116
enhances 116
furnish 116
gid 116
juncture 116
las 116
occupancy 116
orating 116
persecution 116
precarious 116
punitive 116
reluc@@ 116
resul@@ 116
scrutin@@ 116
sification 116
simplification 116
slum 116
sm 116
spheres 116
tho@@ 116
toms 116
tracing 116
unds 116
which@@ 116
05 115
AA 115
CH 115
Commonwealth 115
Compl@@ 115
ESS 115
Ensure 115
Fixed 115
Personal 115
Previous 115
TION 115
Teacher 115
Transfer 115
Treaty 115
WS@@ 115
abandonment 115
academics 115
aforementioned 115
asylum 115
bread@@ 115
commencement 115
compel 115
conscientious 115
consig@@ 115
convoy 115
designation 115
donations 115
equip 115
ethnicity 115
eties 115
evi@@ 115
exploited 115
explosives 115
flagship 115
grazing 115
jure 115
mo 115
objectivity 115
oversee 115
recipients 115
respondents 115
retains 115
ulted 115
unlawful 115
voy 115
28@@ 114
3rd 114
Arn@@ 114
Belgian 114
Dat@@ 114
EL 114
Expec@@ 114
G20 114
IAEA 114
Inten@@ 114
Jan 114
Joint 114
Leave 114
Millennium 114
NS 114
PER@@ 114
RE 114
SY@@ 114
Selection 114
Wall@@ 114
Week 114
accessibility 114
airspace 114
ante 114
attributable 114
beneficiary 114
casts 114
cha 114
completeness 114
contraception 114
disintegration 114
ensured 114
espec@@ 114
extremism 114
havi@@ 114
huh 114
impartial 114
kg 114
managerial 114
manoeuv@@ 114
mort@@ 114
overe@@ 114
predominant 114
preferential 114
reciproc@@ 114
recruited 114
referral 114
relinqu@@ 114
resolutely 114
resor@@ 114
resumed 114
satisfactorily 114
sizeable 114
surveyed 114
tonnes 114
twentieth 114
vals 114
zai 114
Af@@ 113
Arti@@ 113
Awards 113
BY 113
Conditions 113
Cour@@ 113
F. 113
Hague 113
Legal 113
OD@@ 113
Peter@@ 113
Pir@@ 113
Provide 113
Repe@@ 113
Securities 113
Short 113
bay@@ 113
broadband 113
consul@@ 113
courtroom 113
denies 113
dismissal 113
empower 113
entail 113
extremist 113
flexi@@ 113
generously 113
imprisoned 113
indebted 113
index@@ 113
indicative 113
informative 113
instruct 113
ld@@ 113
nian 113
normative 113
ouses 113
peti@@ 113
preci@@ 113
pus 113
rah 113
ratios 113
reefs 113
resolute 113
revi@@ 113
say@@ 113
seizure 113
staff@@ 113
statute 113
undue 113
utilities 113
ves@@ 113
1980 112
Chem@@ 112
EP 112
FP 112
Future 112
Governments 112
MAT@@ 112
Marketing 112
Page 112
Pers@@ 112
Planning 112
Proc@@ 112
Tax@@ 112
acknowled@@ 112
adversely 112
atar 112
budgetary 112
deforestation 112
designate 112
directing 112
disarmament 112
discriminate 112
enterpris@@ 112
fai@@ 112
fauna 112
hoc 112
iki 112
immunization 112
licensing 112
massacre 112
period@@ 112
pertinent 112
rants 112
replies 112
resourc@@ 112
roster 112
simile 112
speech@@ 112
supplying 112
tancy 112
thodo@@ 112
vigilance 112
54 111
8th 111
Associated 111
Effective 111
Electrical 111
Football 111
Gam@@ 111
Inc. 111
Objec@@ 111
Som@@ 111
TA 111
Television 111
above@@ 111
abused 111
archiv@@ 111
ati 111
biodiversity 111
biomass 111
collabor@@ 111
depended 111
depletion 111
diversify 111
embargo 111
endorse 111
grounded 111
herein 111
redistribution 111
restructure 111
reunification 111
stalled 111
suitability 111
thorou@@ 111
tiliz@@ 111
transf@@ 111
tribution 111
unresolved 111
500@@ 110
53 110
DV@@ 110
Davi@@ 110
EST 110
Eg@@ 110
Every@@ 110
Haz@@ 110
Historical 110
Nigerian 110
Present 110
Rico 110
TD 110
That@@ 110
User 110
affirmation 110
assemblies 110
behavioural 110
build@@ 110
committees 110
concurrently 110
condemnation 110
confidentiality 110
coping 110
defe@@ 110
discretionary 110
escalation 110
ico 110
info 110
justifiable 110
ligent 110
nomin@@ 110
ongs 110
org 110
overlapping 110
petro@@ 110
plann@@ 110
raph@@ 110
recourse 110
rectify 110
resurgence 110
retali@@ 110
schedules 110
sugg@@ 110
textbooks 110
thropo@@ 110
tigu@@ 110
unarmed 110
wered 110
Additional 109
Champion@@ 109
Ground 109
Jose 109
Kan@@ 109
Lao 109
Meg@@ 109
Previ@@ 109
ROM 109
RT 109
Records 109
Sop@@ 109
UR 109
Var@@ 109
aires 109
amer@@ 109
apartheid 109
arized 109
boosting 109
cessation 109
compromised 109
devised 109
draulic 109
emic 109
extensions 109
fficiency 109
ggl@@ 109
grou@@ 109
habitual 109
illi@@ 109
impart 109
inaction 109
judiciary 109
nineteenth 109
plaintiff 109
reconnaissance 109
rities 109
sburg 109
waiver 109
zo 109
5th 108
Airlines 108
Ban 108
CO2 108
Command 108
Complete 108
Deg@@ 108
EF@@ 108
GA@@ 108
Gan@@ 108
Gy@@ 108
Individual 108
Malawi 108
Wid@@ 108
aerospace 108
ani@@ 108
chap 108
checkpoint 108
conventions 108
employs 108
endo@@ 108
environmentally 108
evasion 108
exhaustive 108
field@@ 108
harmed 108
illegitimate 108
los 108
migratory 108
offender 108
pesticides 108
prescribe 108
provi@@ 108
supplementary 108
vacu@@ 108
validated 108
violations 108
volunte@@ 108
wastes 108
yielded 108
yu@@ 108
1989 107
21@@ 107
AV@@ 107
Chancellor 107
Farmers 107
Fif@@ 107
Hann@@ 107
Improvement 107
Natur@@ 107
OL 107
PRC 107
Ping 107
Program@@ 107
SO 107
Self 107
Senior 107
Us 107
acquisitions 107
affili@@ 107
applicability 107
condoms 107
consortium 107
contingency 107
corresponds 107
das 107
dean 107
detriment 107
dismantle 107
ecosystems 107
entirety 107
feel@@ 107
fines 107
inhabit@@ 107
mitigation 107
nea@@ 107
necess@@ 107
ologies 107
onwards 107
optimis@@ 107
paramount 107
personalities 107
principally 107
prospec@@ 107
reconsider 107
reinforcing 107
remuneration 107
tained 107
tence 107
unanimous 107
ysical 107
AIG 106
Antarctica 106
App@@ 106
Card 106
Flem@@ 106
IL 106
Moun@@ 106
Organic 106
Setting 106
alarmed 106
associates 106
authorize 106
awaited 106
barrels 106
ben 106
communicable 106
comple@@ 106
demonstrating 106
dru@@ 106
entrust 106
expel 106
expired 106
goodwill 106
groundwork 106
impunity 106
mediator 106
minorities 106
misconduct 106
neutrality 106
obstruct 106
olid@@ 106
orally 106
orm@@ 106
outreach 106
parity 106
permissible 106
pill@@ 106
pite 106
postgraduate 106
relocation 106
remedies 106
repeal 106
sig@@ 106
speak@@ 106
stalemate 106
stipul@@ 106
sub 106
trition 106
unsuccessful 106
updating 106
urges 106
wer@@ 106
Aj@@ 105
Canal 105
Goo@@ 105
Intelligence 105
Ital@@ 105
Kis@@ 105
Merrill 105
Nelson 105
Panel 105
Patrick 105
Priv@@ 105
Quanti@@ 105
Suppl@@ 105
accredited 105
agen@@ 105
arbit@@ 105
assem@@ 105
atic@@ 105
augment 105
bans 105
bulletin 105
chin@@ 105
communicated 105
constituency 105
constituted 105
d. 105
defenders 105
deliver@@ 105
erred 105
expiry 105
fledged 105
identifiable 105
jo 105
kering 105
mistrust 105
modifying 105
ning@@ 105
oso@@ 105
reorganization 105
requisite 105
specialization 105
tative 105
toire 105
township 105
1979 104
57 104
93 104
96 104
AI 104
Aud@@ 104
Ball@@ 104
Build 104
ITY 104
NU@@ 104
Plaza 104
Rail@@ 104
Relations 104
Risk 104
Round 104
Schools 104
Sound 104
Status 104
Stockholm 104
Tan 104
Universal 104
V. 104
VO@@ 104
WW@@ 104
accelerating 104
accommod@@ 104
ariat 104
coinci@@ 104
commend 104
commissioned 104
contractors 104
contributor 104
declaring 104
es. 104
husban@@ 104
imbalances 104
incidental 104
jah 104
judgments 104
morals 104
mov@@ 104
objections 104
obligatory 104
partnerships 104
porters 104
prioritize 104
prohibition 104
rebuilding 104
redress 104
rets 104
succeeding 104
Auth@@ 103
Beth@@ 103
CK 103
Comparative 103
Correc@@ 103
Havana 103
Janeiro 103
Knowledge 103
MT@@ 103
OPEC 103
Plac@@ 103
Principle 103
Provides 103
Ray@@ 103
Rural 103
U.@@ 103
aquaculture 103
aren@@ 103
booklet 103
claim@@ 103
counselling 103
daugh@@ 103
directive 103
dpa 103
encompass 103
eri 103
exceeded 103
exercised 103
expressly 103
federation 103
functionality 103
implements 103
lam 103
locality 103
mitting 103
moratorium 103
onds 103
pamph@@ 103
pipelines 103
porno@@ 103
preparatory 103
pretext 103
recognizes 103
recognizing 103
relocate 103
remedial 103
scaling 103
spared 103
stub 103
surve@@ 103
tack@@ 103
territories 103
vities 103
weakening 103
Anthony 102
Austrian 102
Core 102
Direct 102
Hav@@ 102
Heal@@ 102
ICE 102
Inst@@ 102
Ottawa 102
RA 102
RD 102
attainable 102
commented 102
concessions 102
desi@@ 102
disseminate 102
dividends 102
enquiry 102
fellows 102
forcibly 102
fucking 102
fuelled 102
heightened 102
impasse 102
inspected 102
introductory 102
just@@ 102
kilome@@ 102
mi 102
pene@@ 102
promo@@ 102
pronoun@@ 102
protectionism 102
reviewing 102
standardize 102
tireless 102
transferring 102
180 101
Corporate 101
FM@@ 101
Foot@@ 101
House@@ 101
Investig@@ 101
MC 101
Quick@@ 101
RB@@ 101
Regional 101
Shang@@ 101
Singh 101
Sit@@ 101
VI 101
Yugoslavia 101
abolition 101
acknowledges 101
adequacy 101
armoured 101
az 101
circl@@ 101
clarification 101
clauses 101
commence 101
comparisons 101
corpus 101
deepening 101
destinations 101
elabor@@ 101
essively 101
extre@@ 101
incurred 101
investigator 101
irrespective 101
leep 101
meteorological 101
modifications 101
olen 101
ourable 101
portation 101
rol 101
solicit 101
solvency 101
specifying 101
stration 101
streamline 101
templates 101
undertook 101
uniforms 101
unsatisfactory 101
welcoming 101
63 100
AM 100
HB@@ 100
Immun@@ 100
Monetary 100
Nab@@ 100
Nic@@ 100
Occup@@ 100
Parties 100
Pet@@ 100
Rule 100
SAR 100
Sao 100
Sof@@ 100
Utiliz@@ 100
advises 100
advocated 100
contin@@ 100
continents 100
convene 100
depl@@ 100
echoed 100
effici@@ 100
frameworks 100
fuller 100
gating 100
hol 100
homicide 100
hotline 100
impaired 100
indefinite 100
interdisciplinary 100
longed 100
modernize 100
multiplier 100
outputs 100
perman@@ 100
programmed 100
provocation 100
reimbursement 100
resolving 100
retaliation 100
sustainability 100
tailored 100
tection 100
til 100
unqualified 100
urbanization 100
vey 100
&apos;S 99
900 99
Applications 99
Citigroup 99
Contact 99
Din@@ 99
Marie 99
Mean@@ 99
Owing 99
Somali 99
auditor 99
bellige@@ 99
cation 99
challeng@@ 99
commanders 99
confer 99
constituents 99
contraceptive 99
deliberation 99
distributing 99
estin@@ 99
ethn@@ 99
exemplary 99
expulsion 99
fred 99
handicapped 99
highways 99
involuntary 99
iz 99
midterm 99
peace@@ 99
publicize 99
reductions 99
reiterate 99
residency 99
stakeholders 99
stereotypes 99
tackling 99
tertiary 99
tinc@@ 99
tolerated 99
unfounded 99
upheld 99
youths 99
é 99
22@@ 98
DI 98
Defin@@ 98
Follow 98
It@@ 98
Leader 98
Mayor 98
Nation 98
Patri@@ 98
Peruvian 98
Situation 98
Sla@@ 98
attainment 98
barracks 98
competency 98
conscienti@@ 98
delim@@ 98
ematic 98
enko 98
explanatory 98
fe 98
habitats 98
icates 98
inex@@ 98
modelling 98
notified 98
osa 98
preparedness 98
provisional 98
pursuant 98
receivable 98
reciprocal 98
routin@@ 98
scourge 98
strategically 98
surg@@ 98
ticl@@ 98
62 97
Accounting 97
Antonio 97
Bai@@ 97
CI 97
Cambodian 97
Consumer 97
Economy 97
Eura@@ 97
Exercise 97
Incid@@ 97
Iraqis 97
Kabul 97
Martin@@ 97
Mining 97
Quick 97
SV@@ 97
Serge@@ 97
UT@@ 97
assembl@@ 97
committing 97
confirms 97
edited 97
enders 97
examinations 97
factor@@ 97
favourable 97
favoured 97
financed 97
gravely 97
navigational 97
ocar@@ 97
prenatal 97
rin 97
sands 97
tendencies 97
treasury 97
workflow 97
ze@@ 97
AI@@ 96
Armed 96
Bulgaria 96
Course 96
ERS 96
East@@ 96
Enter@@ 96
Freedom 96
Genetic 96
Greenland 96
HR@@ 96
Hurricane 96
Indonesian 96
JA@@ 96
Jaz@@ 96
Limited 96
MT 96
Marshall 96
RP@@ 96
Say@@ 96
Socialist 96
Uganda 96
Wed@@ 96
abuses 96
acknowledgement 96
ais 96
contradictions 96
dispatched 96
elf 96
feed@@ 96
gotta 96
halted 96
ifications 96
intensified 96
list@@ 96
overy 96
presumption 96
repeat@@ 96
retaining 96
tiers 96
350 95
61 95
67 95
83 95
86 95
Amendment 95
Aw@@ 95
Competition 95
Dut@@ 95
Focus 95
Galaxy 95
Highway 95
Protec@@ 95
Remote 95
agreeing 95
asant 95
attained 95
battalion 95
cheap@@ 95
checklist 95
compe@@ 95
ct@@ 95
cus@@ 95
dissen@@ 95
erce 95
extortion 95
forums 95
fronts 95
hardships 95
indications 95
job@@ 95
kan 95
magistrate 95
multi 95
nautical 95
notices 95
plutonium 95
questionnaire 95
ral@@ 95
referenced 95
securing 95
seekers 95
span@@ 95
sponsors 95
stipulate 95
thereon 95
unanimously 95
underline 95
widening 95
130 94
71 94
Applied 94
Clim@@ 94
Day@@ 94
Diamond 94
Fat@@ 94
HD 94
Integr@@ 94
Keeping 94
Lanka 94
Mandel@@ 94
Mohammed 94
ND@@ 94
Nordic 94
Schol@@ 94
Sciences 94
Text 94
Vill@@ 94
aran@@ 94
bonded 94
cis@@ 94
clinics 94
daunting 94
detain 94
disciplinary 94
extremists 94
hr 94
inflicted 94
istent 94
kov 94
ministerial 94
motherhood 94
natal 94
obste@@ 94
opi@@ 94
present@@ 94
ratify 94
remittance 94
rupted 94
solicited 94
sul 94
vism 94
wa 94
AA@@ 93
Affairs 93
Africans 93
Assad 93
Balkans 93
Corp 93
Dyn@@ 93
Economics 93
Elev@@ 93
GNP 93
HA 93
IU@@ 93
MAN 93
PD 93
Reports 93
achiev@@ 93
archives 93
benefited 93
border@@ 93
brokers 93
conflicting 93
corridors 93
directs 93
employing 93
enz@@ 93
eradication 93
essions 93
fleeing 93
fluctuations 93
foreseen 93
forty-@@ 93
fundamentals 93
ife 93
impediment 93
inadequacy 93
internation@@ 93
isl@@ 93
itz@@ 93
lever@@ 93
more@@ 93
optimizing 93
percus@@ 93
recurring 93
residues 93
shipper 93
similarities 93
tants 93
textiles 93
tob@@ 93
topical 93
trafficking 93
underscore 93
urban@@ 93
@ 92
Amaz@@ 92
Ay@@ 92
Chamber 92
Database 92
Extre@@ 92
Gaz@@ 92
Heritage 92
INE 92
Kam@@ 92
Maori 92
Overall 92
Return 92
Strait 92
accessing 92
affirmative 92
beau@@ 92
conveyed 92
corps 92
dification 92
discoura@@ 92
drome 92
endeavour 92
excell@@ 92
igns 92
impacted 92
indic@@ 92
ing. 92
inhuman 92
injecting 92
jur@@ 92
mb@@ 92
notwithstanding 92
omen@@ 92
opted 92
paved 92
ploy 92
reforming 92
sexes 92
situ 92
spelled 92
twelfth 92
upgraded 92
usi@@ 92
&#@@ 91
92 91
Assessment 91
DC@@ 91
Develop 91
EP@@ 91
Enterprises 91
Eth@@ 91
IDE 91
IND@@ 91
Kosovo 91
Kyoto 91
Lay@@ 91
Monitoring 91
NC 91
NY@@ 91
PP@@ 91
Rac@@ 91
SAP 91
SM 91
Speci@@ 91
Zi@@ 91
abstain 91
agers 91
chiefs 91
clustering 91
evalu@@ 91
expedite 91
generators 91
idating 91
ifer 91
insecurity 91
mater@@ 91
munitions 91
obil@@ 91
projections 91
sanction 91
sident 91
uri 91
01 90
1988 90
23@@ 90
68 90
73 90
Bach@@ 90
Diver@@ 90
Domestic 90
Fem@@ 90
HC@@ 90
Hai@@ 90
Harv@@ 90
Lack 90
Meth@@ 90
Mik@@ 90
Nation@@ 90
Orthodox 90
Pad@@ 90
Progress 90
Strategy 90
Wolf@@ 90
Writ@@ 90
accreditation 90
affiliation 90
agues 90
appendix 90
arma@@ 90
barred 90
catalytic 90
comprised 90
divergent 90
enqu@@ 90
forfe@@ 90
infringe 90
inmates 90
manifested 90
methyl 90
nob@@ 90
oundly 90
preschool 90
preventable 90
recruiting 90
sar 90
58 89
78 89
Cau@@ 89
Certificate 89
DL@@ 89
FL@@ 89
Kor@@ 89
Lead 89
Les@@ 89
NG@@ 89
Response 89
SR 89
Six@@ 89
Specifically 89
Supply 89
arranging 89
attach@@ 89
centralized 89
curricul@@ 89
desks 89
enactment 89
english 89
enrolled 89
eum 89
gan 89
illiteracy 89
jurisprudence 89
launches 89
millennium 89
miscellaneous 89
miti@@ 89
negotiable 89
offenders 89
omitted 89
piec@@ 89
publ@@ 89
ront 89
shipments 89
supple@@ 89
transnational 89
unforeseen 89
35@@ 88
81 88
Contrary 88
FAO 88
Fernando 88
Forms 88
Increasing 88
JO@@ 88
Mission 88
PP 88
Rein@@ 88
Requirements 88
Roma 88
Secretariat 88
aining 88
allot@@ 88
alties 88
arers 88
bagg@@ 88
bre 88
contested 88
dealings 88
defin@@ 88
establishes 88
freedoms 88
inauguration 88
incur@@ 88
inher@@ 88
inspections 88
irrig@@ 88
licenses 88
lodged 88
metropolitan 88
persists 88
reduc@@ 88
solven@@ 88
spill@@ 88
venues 88
4th 87
82 87
Contractor 87
Dim@@ 87
Emergency 87
Explan@@ 87
Holding 87
Id@@ 87
Impact 87
Istanbul 87
Jap@@ 87
Maj@@ 87
Nicaragua 87
Notes 87
Representatives 87
Requ@@ 87
SI 87
Surve@@ 87
Traffic 87
Virtual 87
accomplishments 87
atize 87
belong@@ 87
consequent 87
costing 87
culp@@ 87
derives 87
eligibility 87
fined 87
informational 87
inventories 87
ios 87
istry 87
kou 87
oc 87
organizers 87
remnants 87
salts 87
vian 87
15th 86
16th 86
97 86
Administrative 86
Ann@@ 86
BR@@ 86
Brid@@ 86
Complex 86
DIS@@ 86
Exploration 86
Figh@@ 86
Ig@@ 86
Majesty 86
Mau@@ 86
Monitor 86
Nav@@ 86
Tobacco 86
UD@@ 86
armament 86
atol@@ 86
classi@@ 86
conferences 86
contrac@@ 86
coordinator 86
custodi@@ 86
dwellers 86
eath 86
euros 86
foregoing 86
gradu@@ 86
killings 86
normalization 86
prise 86
regret@@ 86
strong@@ 86
tely 86
thing@@ 86
uncertainties 86
unconstitutional 86
vez 86
weal@@ 86
2015 85
GC 85
Household 85
Insurance 85
NP@@ 85
Nas@@ 85
Observatory 85
PO 85
Peak 85
Pier@@ 85
Sheikh 85
Supplies 85
Tanzania 85
acquies@@ 85
burdens 85
chae@@ 85
circulated 85
civilizations 85
cloning 85
compens@@ 85
formance 85
galvan@@ 85
him@@ 85
icides 85
ku@@ 85
liaison 85
narcotic 85
nuclear-@@ 85
orig@@ 85
penal 85
progressed 85
refining 85
reform@@ 85
thereto 85
weighted 85
wron@@ 85
140 84
1982 84
1987 84
84 84
88 84
Afric@@ 84
Americas 84
Creating 84
EG 84
FF@@ 84
Geor@@ 84
HK@@ 84
Housing 84
Hussein 84
Leone 84
Question 84
Rapid 84
Ras@@ 84
SM@@ 84
SR@@ 84
Summary 84
Survi@@ 84
TRA@@ 84
classrooms 84
commo@@ 84
confin@@ 84
contracting 84
erto 84
ications 84
idem@@ 84
incen@@ 84
infr@@ 84
inju@@ 84
interpretations 84
invest@@ 84
itious 84
lu 84
pare@@ 84
preceded 84
preclude 84
quotas 84
revitalize 84
specif@@ 84
tari@@ 84
transmitting 84
upgrading 84
27@@ 83
76 83
Batt@@ 83
Bonn 83
Camp 83
Changing 83
Friend@@ 83
Maxim@@ 83
PE@@ 83
Quin@@ 83
Serbia 83
Turning 83
VC 83
Vin@@ 83
Vladimir 83
WAS 83
accus@@ 83
asp 83
assistants 83
bombard@@ 83
counseling 83
deficiencies 83
differentiated 83
exes 83
importing 83
insic 83
later@@ 83
limit@@ 83
manufac@@ 83
niture 83
oi 83
olo 83
oven@@ 83
perpetuate 83
relics 83
subsection 83
terminals 83
unduly 83
12th 82
77 82
87 82
Arabs 82
Func@@ 82
Identification 82
Improved 82
Independence 82
Independent 82
Interest 82
Lic@@ 82
Lisbon 82
ML@@ 82
Memorial 82
NG 82
Pharm@@ 82
Pret@@ 82
RIC@@ 82
Raj@@ 82
Subject 82
TH 82
Target 82
Transportation 82
aret 82
bidden 82
cium 82
commercially 82
compensatory 82
concentrating 82
consultants 82
conv@@ 82
denounced 82
dh@@ 82
estimating 82
examines 82
governors 82
harmonize 82
importation 82
installations 82
manife@@ 82
noteworthy 82
olutions 82
possessing 82
segregation 82
state@@ 82
uli@@ 82
undermined 82
ury 82
26@@ 81
59 81
Appe@@ 81
Cabinet 81
Clear@@ 81
Concept 81
DB 81
Iran@@ 81
JP@@ 81
Participants 81
Prof. 81
Resource 81
Rotary 81
Scale 81
Seg@@ 81
Stability 81
Storage 81
alliances 81
appropriation 81
arrests 81
bu 81
chilling 81
clas@@ 81
discrimin@@ 81
eased 81
efulness 81
ffor@@ 81
idi 81
ik 81
inage 81
inating 81
inev@@ 81
iques 81
legislat@@ 81
lifestyles 81
mentions 81
multidisciplinary 81
negotiated 81
plenary 81
prehensive 81
protot@@ 81
ranged 81
regretted 81
sinks 81
timeline 81
unrestricted 81
violating 81
08 80
160 80
1986 80
BS 80
Bermuda 80
Clu@@ 80
Comprehensive 80
Cris@@ 80
Fig@@ 80
Framework 80
HA@@ 80
Lind@@ 80
Maz@@ 80
Nik@@ 80
Oz@@ 80
Paulo 80
Qaida 80
Saf@@ 80
Syl@@ 80
Tox@@ 80
Tren@@ 80
Vac@@ 80
Vehicle 80
Witnesses 80
allegation 80
anticip@@ 80
bromide 80
congress 80
declares 80
discontinue 80
endorsed 80
enty 80
escorted 80
identities 80
inquiries 80
landers 80
legisl@@ 80
observance 80
poly 80
powering 80
renders 80
resettlement 80
review@@ 80
revis@@ 80
separatist 80
setbacks 80
stem@@ 80
ultra 80
1968 79
69 79
Applic@@ 79
Assistant 79
Brun@@ 79
CDs 79
Cost 79
Crown 79
Doha 79
Improving 79
Jar@@ 79
Junior 79
Layer 79
Madam 79
Medi@@ 79
Ocean@@ 79
Scho@@ 79
Summ@@ 79
Tat@@ 79
aiting 79
arance 79
bara 79
births 79
cautioned 79
confron@@ 79
disabilities 79
discriminatory 79
disrupted 79
edo 79
exporting 79
footnote 79
grouping 79
ickness 79
itability 79
mergers 79
on. 79
orient@@ 79
planners 79
prag@@ 79
predomin@@ 79
railways 79
reimbur@@ 79
renounce 79
requisi@@ 79
satis@@ 79
segreg@@ 79
smuggling 79
staur@@ 79
transporting 79
Austr@@ 78
Cum@@ 78
End@@ 78
Hos@@ 78
IK@@ 78
Liberty 78
Millions 78
Navi@@ 78
Opening 78
PM@@ 78
PS@@ 78
Pattern 78
Pop@@ 78
Professional 78
Qual@@ 78
RF@@ 78
Related 78
Rwanda 78
Smart 78
Specific 78
URE 78
aid@@ 78
cadres 78
clashes 78
consequ@@ 78
contacting 78
contro@@ 78
counties 78
dele@@ 78
elessness 78
enacted 78
fifteenth 78
grading 78
ishi 78
iza 78
postponed 78
promis@@ 78
rations 78
recordings 78
reservations 78
search@@ 78
seni@@ 78
shelters 78
terminated 78
usa 78
1981 77
1984 77
Armenian 77
Atmos@@ 77
Conservation 77
Contemporary 77
Forces 77
GS 77
Greater 77
IVE 77
Jacqu@@ 77
Organ@@ 77
Palermo 77
Potential 77
RF 77
RM@@ 77
Regarding 77
Regulation 77
River@@ 77
Sid@@ 77
Thir@@ 77
Yam@@ 77
arrears 77
assessments 77
confronting 77
consular 77
convictions 77
departmental 77
eighteenth 77
embarked 77
erting 77
grouped 77
guaran@@ 77
hab 77
huan 77
mani@@ 77
overed 77
proposing 77
remediation 77
rently 77
rom 77
survi@@ 77
telecommunications 77
uda 77
1985 76
300@@ 76
Activity 76
Components 76
Deb@@ 76
Editor 76
Efficiency 76
Establishment 76
Four@@ 76
Ghana 76
IGH@@ 76
Inspection 76
Israelis 76
Mixed 76
Representative 76
Wide 76
apprais@@ 76
burd@@ 76
circled 76
concentr@@ 76
congratulations 76
constitu@@ 76
disturbances 76
eleventh 76
exchanging 76
expelled 76
forwar@@ 76
gement 76
graded 76
kh@@ 76
laboratories 76
lawfully 76
locating 76
machin@@ 76
mentioning 76
objected 76
paragraphs 76
prisons 76
rength 76
republ@@ 76
rial 76
seventy 76
sson 76
technicians 76
uk 76
underestimated 76
witnessing 76
400@@ 75
94 75
Activities 75
Continental 75
DM 75
Defence 75
Educational 75
Employees 75
Et@@ 75
FOR@@ 75
Flor@@ 75
Fuel 75
Initial 75
Interior 75
Mental 75
Nep@@ 75
Nine 75
Outlook 75
Pay 75
Roll 75
Structural 75
TED 75
TP@@ 75
ael 75
ale@@ 75
avoid@@ 75
constructively 75
contexts 75
entials 75
factions 75
inception 75
incorporation 75
industrialized 75
monopoli@@ 75
penetrated 75
people@@ 75
prece@@ 75
preside 75
qualifying 75
rationalization 75
reciprocity 75
recruits 75
rejects 75
representations 75
restricting 75
shortest 75
stationed 75
strides 75
telecommunication 75
uman 75
underpin 75
urch 75
waive 75
And@@ 74
Atomic 74
Bog@@ 74
DD@@ 74
Deputy 74
Expres@@ 74
Farm@@ 74
Fron@@ 74
Hab@@ 74
Has@@ 74
Mea@@ 74
Montreal 74
Stock@@ 74
accep@@ 74
applic@@ 74
chann@@ 74
clusion 74
compensated 74
conciliation 74
diminishing 74
diverted 74
doubling 74
echan@@ 74
eler@@ 74
esel 74
exploiting 74
inet 74
irregul@@ 74
irreversible 74
is. 74
issuance 74
keynote 74
noti@@ 74
opportun@@ 74
orian 74
outlines 74
ovo 74
printers 74
punishing 74
raf 74
seizures 74
situ@@ 74
stabilization 74
stewardship 74
stream@@ 74
tet 74
turers 74
110 73
Abu 73
Aff@@ 73
Approach 73
Assist 73
Attemp@@ 73
Creation 73
Damascus 73
Eight 73
HU@@ 73
Municipal 73
Official 73
Statistics 73
Task 73
Torres 73
Ultimately 73
Zero 73
appar@@ 73
clarified 73
crimin@@ 73
distinguishing 73
eighty 73
emergencies 73
erals 73
evic@@ 73
fiable 73
fortunately 73
hedr@@ 73
heres 73
insurgency 73
mercenary 73
milli@@ 73
onym@@ 73
ourse 73
ova 73
reaffirm 73
recover@@ 73
sities 73
success@@ 73
79 72
AG@@ 72
Ale@@ 72
Annex 72
Anth@@ 72
Biological 72
Final 72
GR@@ 72
Goods 72
Imp@@ 72
Intel@@ 72
Kazakhstan 72
LAN 72
Licen@@ 72
Organisation 72
Original 72
Scheme 72
Spon@@ 72
Subsequently 72
Universities 72
asserted 72
deadlines 72
declarations 72
deteriorating 72
differenti@@ 72
empt 72
entrenched 72
entrusted 72
francs 72
gry 72
hereinafter 72
honoured 72
ilies 72
industrialization 72
istan 72
marg@@ 72
mortg@@ 72
municipality 72
outsourcing 72
patriarchal 72
plete 72
professions 72
prud@@ 72
requesting 72
resolutions 72
supervisors 72
tos 72
translating 72
tropolitan 72
vigor@@ 72
xim@@ 72
11th 71
2020 71
Bahrain 71
Diseases 71
FI@@ 71
GT@@ 71
ISO 71
Improve 71
KS 71
Mao@@ 71
Measuring 71
Purch@@ 71
Species 71
Tourism 71
WO@@ 71
aceu@@ 71
ains 71
arib@@ 71
attend@@ 71
aux@@ 71
chairmen 71
clandestine 71
consulted 71
empowered 71
entre@@ 71
epts 71
eutenant 71
harass@@ 71
keting 71
kidnapping 71
offen@@ 71
onne 71
precautions 71
von 71
91 70
Abdullah 70
Annual 70
Bag@@ 70
Balance 70
Carlos 70
Details 70
Emirates 70
External 70
FR@@ 70
Fail@@ 70
Generation 70
Gir@@ 70
Items 70
Journ@@ 70
King@@ 70
Positive 70
Protocol 70
Qatar 70
RY 70
Shal@@ 70
Signific@@ 70
TT 70
Yesterday 70
abil@@ 70
angered 70
anz@@ 70
bered 70
defendants 70
depleted 70
eclip@@ 70
elap@@ 70
exus 70
finalize 70
indiscriminate 70
mart 70
nee 70
occupying 70
pam@@ 70
pertain 70
pover@@ 70
prevailed 70
sever@@ 70
smugg@@ 70
strengthens 70
tainment 70
workshops 70
14th 69
1972 69
ASEAN 69
Cyprus 69
Document 69
Dru@@ 69
FS 69
Georgian 69
Income 69
Kashmir 69
Kle@@ 69
Leaders 69
Lis@@ 69
Macau 69
Nag@@ 69
Naval 69
Objects 69
Omar 69
Sport 69
Whole 69
abandon@@ 69
achi 69
affiliated 69
amnesty 69
ancies 69
bombings 69
compounded 69
degraded 69
deportation 69
erve 69
hearings 69
incorporates 69
indis@@ 69
mone@@ 69
mp@@ 69
neonatal 69
occupations 69
odic 69
pensions 69
piling 69
policy@@ 69
poppy 69
record@@ 69
secretari@@ 69
seventeenth 69
spear@@ 69
successes 69
summar@@ 69
surrendered 69
13th 68
450 68
Audi@@ 68
Bacter@@ 68
EG@@ 68
Election 68
IAL 68
Kil@@ 68
LD 68
Lec@@ 68
MAN@@ 68
MM 68
NEW 68
Operations 68
Particularly 68
Solutions 68
Strategic 68
Wash@@ 68
abad 68
atization 68
enrich@@ 68
facto 68
ffic@@ 68
foreseeable 68
herewith 68
ilateral 68
indices 68
ingual 68
kilo@@ 68
logistic 68
multilingual 68
murders 68
nationals 68
nul@@ 68
pension@@ 68
polic@@ 68
presumed 68
rak@@ 68
respon@@ 68
shoul@@ 68
sk 68
staining 68
stral 68
sustaining 68
thal 68
understandings 68
89 67
Address 67
Background 67
Bali 67
Budapest 67
Declaration 67
Democracy 67
Euro 67
Experts 67
Hans 67
Hist@@ 67
IE@@ 67
JS@@ 67
Kim@@ 67
Lit@@ 67
Manufac@@ 67
Operating 67
Prosecutors 67
Recovery 67
Regular 67
Regulations 67
Tab@@ 67
WIPO 67
agic 67
anj@@ 67
ationary 67
desirability 67
discharging 67
epidem@@ 67
exacerbated 67
illustrative 67
ima 67
iming 67
inflationary 67
interconnected 67
morbidity 67
necessities 67
nik 67
observes 67
orge 67
portfol@@ 67
porting 67
rationalize 67
rehabilitate 67
worsening 67
3000 66
Comple@@ 66
DR@@ 66
Diplom@@ 66
Execu@@ 66
Flight 66
Jab@@ 66
Juan 66
Kay@@ 66
Kaz@@ 66
Liber@@ 66
Liberation 66
Mut@@ 66
PB@@ 66
Points 66
Position 66
Prefecture 66
Rescue 66
Shin@@ 66
Steering 66
Terms 66
Translation 66
Warning 66
analysing 66
assive 66
beneficiaries 66
commensurate 66
conducts 66
contributors 66
dau@@ 66
doctr@@ 66
effected 66
elaboration 66
enne 66
evacuated 66
exerted 66
fications 66
fund@@ 66
ganese 66
ingu@@ 66
justi@@ 66
kilograms 66
offic@@ 66
presum@@ 66
pur 66
rees 66
replicated 66
sixteenth 66
swif@@ 66
therefrom 66
trainers 66
é@@ 66
09 65
10th 65
32@@ 65
Candi@@ 65
Chair 65
Costa 65
Hybrid 65
IZ@@ 65
Icel@@ 65
LES 65
Marc 65
NAT@@ 65
PI 65
Petroleum 65
Prac@@ 65
Purpose 65
Reducing 65
Standards 65
Straits 65
Strip 65
appellate 65
arbitrarily 65
attaches 65
audits 65
catering 65
complicity 65
confirming 65
corporal 65
deepened 65
derog@@ 65
dt 65
interf@@ 65
isco 65
ision@@ 65
neum@@ 65
notifications 65
obsol@@ 65
odic@@ 65
pledges 65
prejudices 65
princip@@ 65
proportion@@ 65
prosecute 65
registers 65
rejecting 65
restitution 65
utiliz@@ 65
45@@ 64
Academic 64
Advis@@ 64
Atlas 64
Aviation 64
Bau@@ 64
Bearing 64
Beij@@ 64
Commissioner 64
Continue 64
Darfur 64
EPA 64
Ethiopia 64
FIFA 64
FT@@ 64
GO 64
Goals 64
Hamburg 64
Important 64
Integrated 64
LP 64
Maintenance 64
Muhammad 64
OECD 64
Role 64
SEC 64
Secondary 64
Share 64
Turks 64
aba 64
abolished 64
accor@@ 64
acknowledging 64
adolescents 64
arsenal 64
banning 64
centred 64
cogn@@ 64
democr@@ 64
diarrho@@ 64
every@@ 64
excep@@ 64
fficient 64
handbook 64
indemnity 64
ingh@@ 64
izations 64
kitch@@ 64
looting 64
loqu@@ 64
mea@@ 64
memorandum 64
otechnology 64
outlying 64
pha@@ 64
slums 64
sored 64
thol@@ 64
trag@@ 64
1945 63
1970 63
1974 63
1975 63
6th 63
Acts 63
Articles 63
Autonomous 63
Avi@@ 63
CPC 63
CU@@ 63
Contro@@ 63
Date 63
ECT@@ 63
Immigration 63
Lakes 63
NP 63
Nec@@ 63
Outer 63
Paren@@ 63
Petro@@ 63
SER@@ 63
Session 63
Sexual 63
Stud@@ 63
Summit 63
adapting 63
akia 63
annum 63
ashi 63
assisting 63
biennial 63
coer@@ 63
dismis@@ 63
drafted 63
educators 63
grievances 63
ichi 63
ili 63
incorporating 63
inscribed 63
interpreting 63
involun@@ 63
ketball 63
leasing 63
lobbying 63
negotiators 63
nesses 63
orship 63
overcoming 63
practised 63
prostitutes 63
receipts 63
redouble 63
reproduced 63
restric@@ 63
rifles 63
sp 63
supervised 63
symposium 63
welcomes 63
29@@ 62
33@@ 62
7th 62
COM 62
Communications 62
Coordin@@ 62
Drawing 62
EF 62
Event 62
Fis@@ 62
GIS 62
GRA@@ 62
Groups 62
Horn 62
Manual 62
Objectives 62
SN@@ 62
Schem@@ 62
Struc@@ 62
Trading 62
Tul@@ 62
Tunis 62
Zu@@ 62
adi 62
chair@@ 62
chang@@ 62
colleg@@ 62
cooper@@ 62
ded@@ 62
deple@@ 62
deploying 62
differing 62
empir@@ 62
expenditures 62
fistula 62
gress 62
incite 62
inquired 62
inspectors 62
interrog@@ 62
itions 62
objectively 62
ospace 62
pre 62
proactive 62
reformed 62
soever 62
stabilized 62
stabl@@ 62
sumption 62
translations 62
vigil@@ 62
violates 62
warehouses 62
1978 61
1983 61
Argentine 61
BT 61
Canc@@ 61
Collection 61
Conventional 61
Damage 61
Expan@@ 61
HC 61
Implementation 61
Infra@@ 61
Jakarta 61
Managers 61
Map 61
Need 61
Niger 61
Platform 61
Sham@@ 61
Sustainable 61
UP 61
Vil@@ 61
adian 61
anese 61
announcements 61
assists 61
brea@@ 61
commissions 61
commits 61
[...]
