的 1536065
， 1346448
。 1037968
在 330063
是 261057
了 248988
和 202271
我 194648
他 175361
你 147400
一个 130668
、 110927
中 98315
有 97341
我们 94422
“ 89747
人 87937
” 87725
上 86914
对 83977
会 73904
也 73901
她 73845
他们 72988
就 72518
不 70815
说 66136
将 65810
都 65572
这 65446
到 64225
可以 60645
与 59108
它 57103
： 56947
被 54609
而 54223
着 51867
为 51229
但 50590
地 49791
没有 48449
并 47780
如果 44473
来 44360
（ 44133
） 44070
时 44003
或 43058
这个 41934
自己 41130
要 40837
从 40064
可能 40040
把 39638
里 39385
很 39236
一@@ 37869
让 36225
这些 35758
？ 35738
能 35651
但是 33583
； 33465
用 32719
去 32663
子 32096
下 31926
— 30567
以 29795
一种 29591
还 29451
更 29403
当 28883
因为 28075
给 27577
后 27360
问题 27285
不@@ 26799
已经 26563
其 26349
一些 26170
进行 25951
做 25870
性 25711
那 25704
于 24975
好 24895
美国 24851
者 24744
像 24325
这种 24298
需要 24220
不是 24136
所 24037
大@@ 23911
使用 23603
出 23467
公司 23320
多 23198
想 22805
使 22741
研究 22519
过 22503
工作 22467
这样 22444
就是 22412
该 22249
开始 21330
您 21263
们 21208
通过 21181
小@@ 21178
得 20915
现在 20813
新 20708
时候 20685
知道 20413
中国 20287
认为 20276
个 20119
年 20071
最 19861
向 19841
！ 19425
所有 19287
大 19147
又 19095
方法 18620
无@@ 18591
可 18459
什么 18437
任何 17948
时间 17715
及 17540
其他 17377
或者 16990
发现 16597
人们 16496
那些 16233
头 16078
一样 15977
成为 15967
系统 15881
国家 15857
以及 15759
影响 15511
生活 15456
它们 15443
前 15396
由 15311
提供 15264
不会 15257
必须 15219
能够 15061
一 14992
比 14848
对于 14646
水 14604
却 14553
非常 14537
器 14535
等 14533
小 14417
你们 13854
看到 13825
然后 13720
作为 13718
世界 13654
那么 13501
不能 13447
高@@ 13377
重要 13315
应该 13295
点 13241
水@@ 13081
- 12976
而且 12863
希望 12822
表示 12798
上@@ 12787
· 12763
孩子 12692
所以 12688
已 12635
事 12615
发生 12603
内 12595
情况 12551
因此 12486
并且 12382
许多 12351
经济 12346
不同 12273
方式 12181
家 12145
由于 12054
为了 12047
看 11977
手 11956
起 11692
还是 11671
主要 11658
化 11529
只 11427
》 11403
《 11382
具有 11321
出现 11273
只是 11213
带 11180
得到 11179
. 11084
月 11058
斯 10935
中@@ 10921
设计 10905
这是 10869
道 10866
发展 10799
地方 10764
一次 10710
心@@ 10684
机 10674
结果 10634
选择 10631
心 10586
政府 10580
技术 10550
多@@ 10525
帮助 10524
, 10501
过程 10483
力 10471
一直 10454
包括 10453
体 10442
高 10415
之 10353
一位 10334
之@@ 10329
正在 10313
很多 10262
同时 10249
成 10196
之间 10161
然而 10063
起来 10038
市场 10037
东西 10010
地@@ 9941
式 9929
爱 9902
则 9873
来说 9873
再 9846
自@@ 9845
人@@ 9818
告诉 9805
一起 9803
存在 9800
之一 9776
… 9772
不过 9702
要求 9659
车 9657
走 9607
产生 9599
两个 9584
分析 9552
是否 9499
喜欢 9463
发@@ 9433
光@@ 9428
之后 9375
如何 9330
打@@ 9322
这@@ 9310
长@@ 9281
特 9244
可@@ 9213
计划 9203
吗 9197
下@@ 9185
关系 9170
的话 9100
事情 9064
似乎 9049
信息 9041
还有 9025
两@@ 8975
部 8961
其中 8932
部分 8924
天@@ 8900
决定 8880
有@@ 8845
花 8803
美@@ 8783
能力 8734
色 8714
度 8711
产品 8660
呢 8656
出来 8638
社会 8621
通常 8605
不要 8548
甚至 8547
手@@ 8536
数据 8501
方面 8487
每个 8459
线 8411
控制 8406
量 8397
获得 8388
花@@ 8376
好@@ 8371
那个 8235
尽管 8150
才 8150
活动 8135
光 8121
气 8116
新@@ 8096
面 8094
虽然 8078
这里 8077
行为 8053
组织 8051
处理 8027
地区 8014
出@@ 8010
动 7992
朋友 7988
作用 7974
服务 7948
那@@ 7938
另 7920
之前 7910
海@@ 7892
一点 7874
法 7873
克 7812
完全 7801
如 7787
无法 7782
过去 7772
日 7744
如此 7742
住 7723
没 7723
场 7722
电@@ 7718
外@@ 7716
感到 7709
一定 7687
开@@ 7672
风@@ 7665
拉@@ 7659
吃 7626
门 7623
准备 7565
请 7564
开 7561
觉得 7556
长 7547
钱 7511
球 7494
生 7489
德 7484
原因 7446
应用 7425
用于 7417
也许 7409
斯@@ 7398
金@@ 7397
容易 7387
目的 7384
马@@ 7369
感觉 7328
关于 7326
导致 7324
只有 7303
% 7301
内@@ 7293
本 7279
增加 7275
每 7273
片 7252
板 7237
西@@ 7218
目标 7203
治疗 7200
行 7199
英国 7181
入 7179
一切 7166
老@@ 7159
吧 7147
边 7144
州 7125
跟 7124
前@@ 7115
最后 7103
目前 7099
重@@ 7068
热@@ 7037
发 7024
环境 7012
人类 7007
物 6997
正 6970
至少 6966
有些 6945
企业 6921
利用 6918
显示 6908
项目 6906
层 6903
支持 6895
声 6875
称 6871
型 6867
精@@ 6864
接受 6834
继续 6828
实现 6821
来自 6814
生@@ 6805
面@@ 6800
结构 6792
名 6789
学 6780
那里 6773
拥有 6761
改变 6760
掉 6750
这一 6739
路 6734
三@@ 6710
气@@ 6703
感 6673
进 6670
间 6660
此 6588
时@@ 6582
流@@ 6580
特@@ 6542
外 6477
先生 6462
尔 6458
分@@ 6457
因 6415
进入 6390
银行 6388
有关 6381
带来 6378
身@@ 6369
提出 6368
写 6362
简单 6357
类 6351
安全 6348
几@@ 6307
流 6290
学生 6287
白@@ 6287
曾 6278
一下 6255
身 6251
城市 6234
头@@ 6234
站 6232
造成 6228
整个 6219
建立 6193
人员 6184
岁 6181
努力 6157
表现 6142
较 6141
山@@ 6128
叫 6100
运动 6100
我@@ 6091
总是 6081
受到 6073
特别 6073
形 6069
提高 6068
相@@ 6068
死 6040
听 6031
找到 6005
仍然 5984
管理 5981
那样 5978
天 5964
即使 5954
变得 5951
平@@ 5951
今天 5924
拉 5912
采用 5912
相信 5906
过@@ 5905
同样 5904
一名 5885
加@@ 5877
完成 5873
了解 5863
星 5820
离开 5812
随着 5793
保持 5792
有效 5771
几乎 5763
口 5747
生产 5741
形成 5736
一天 5734
位 5734
神@@ 5732
神 5725
身体 5700
用@@ 5682
风 5664
应 5621
卡@@ 5614
考虑 5601
话 5594
根据 5587
大学 5576
变化 5558
味 5555
区 5537
问 5533
作 5529
真正 5525
剂 5524
全@@ 5520
状态 5492
罗@@ 5485
为什么 5467
本@@ 5465
用户 5461
书 5452
图 5449
更加 5429
文化 5426
仍 5424
生命 5420
见 5420
黑@@ 5414
当然 5406
一只 5398
试图 5381
室 5365
机会 5361
几个 5352
价值 5350
文件 5338
利 5323
动@@ 5291
最大 5263
正@@ 5254
德@@ 5253
阿@@ 5249
? 5243
车@@ 5239
最好 5230
处 5227
保护 5224
员 5223
解决 5222
回@@ 5220
减少 5219
; 5215
大量 5214
管 5207
而@@ 5204
政治 5200
油 5195
明@@ 5191
对@@ 5169
深@@ 5169
便 5167
动物 5159
意义 5150
值 5140
历史 5138
号 5130
口@@ 5122
四@@ 5106
中心 5102
总统 5098
火@@ 5093
队 5088
意识 5084
健康 5076
质 5062
细胞 5059
儿 5058
太 5058
非 5052
唯一 5050
安@@ 5046
成@@ 5042
内容 5040
其它 5035
意 5019
这么 5018
传统 5006
全球 5006
主 5005
传@@ 5004
确定 5004
当@@ 4991
率 4988
事件 4987
鱼 4980
谁 4972
表明 4971
转@@ 4971
设备 4968
木@@ 4967
后@@ 4956
形式 4950
性@@ 4947
未来 4946
主义 4940
不断 4919
想要 4918
爱@@ 4913
相关 4913
受 4911
经常 4906
病 4894
波@@ 4886
女人 4869
理解 4868
放@@ 4857
比较 4856
夫 4853
太@@ 4850
轻@@ 4850
一般 4841
最终 4841
理论 4836
测试 4832
而是 4828
落 4827
将会 4819
低@@ 4816
引起 4814
欧洲 4814
学习 4812
条 4808
方 4803
一条 4802
多少 4780
效果 4774
比@@ 4769
故事 4764
低 4758
男人 4750
程序 4740
克@@ 4739
母亲 4738
利@@ 4733
比赛 4723
因素 4719
回 4717
巨大 4711
直接 4707
一家 4700
反@@ 4689
模型 4680
语言 4680
大多数 4679
错误 4676
有人 4668
门@@ 4667
一年 4663
亚@@ 4662
古@@ 4656
品 4652
空间 4652
装 4652
看起来 4651
红@@ 4642
重新 4639
师 4637
热 4623
模式 4618
台 4612
美 4600
真的 4595
布@@ 4588
想@@ 4588
网络 4582
制 4578
端 4574
允许 4570
分 4569
教育 4561
程度 4556
油@@ 4553
血@@ 4547
汽车 4546
结束 4542
下来 4541
明显 4535
十@@ 4530
建议 4527
一项 4526
语 4526
解释 4525
各种 4523
奇 4514
日本 4512
单@@ 4501
小时 4497
打 4494
证明 4492
马 4491
双@@ 4480
曾经 4475
严重 4466
反应 4458
眼睛 4457
沙@@ 4452
体@@ 4451
当时 4448
公@@ 4443
无 4437
主@@ 4429
意味着 4426
变成 4423
位置 4419
树 4416
增长 4404
电影 4395
空@@ 4390
词 4383
士 4380
-- 4377
标准 4376
注意 4365
女@@ 4363
政策 4362
拿 4358
船 4358
工具 4354
个人 4353
至 4348
食物 4345
行业 4344
达到 4342
家庭 4341
如@@ 4338
投资 4337
皮@@ 4331
材料 4330
来@@ 4326
以前 4323
情@@ 4312
尼 4311
别人 4310
令人 4306
国际 4305
价格 4300
基础 4298
节 4295
山 4290
调查 4280
圣@@ 4274
快 4274
盘 4272
风险 4271
机构 4270
微@@ 4268
行动 4259
画 4256
精神 4239
一部分 4238
声音 4237
星@@ 4231
达 4224
起@@ 4223
指 4222
二@@ 4220
日@@ 4220
1 4214
领域 4213
火 4209
压力 4203
法律 4203
且 4198
水平 4191
法@@ 4175
万@@ 4173
表面 4173
学校 4172
类型 4171
经过 4156
脚@@ 4153
力量 4152
条件 4150
同 4148
得@@ 4136
眼@@ 4134
西 4117
买 4110
笑 4103
另外 4100
清@@ 4090
行@@ 4082
黄@@ 4080
布 4073
这位 4072
女性 4070
报告 4070
数 4070
看@@ 4064
参加 4060
讨论 4060
块 4056
不再 4051
世纪 4050
及其 4042
速度 4035
愿意 4034
毛@@ 4029
疾病 4024
文 4023
情 4017
用来 4017
持续 4014
穿 4013
变@@ 4002
运行 3998
林 3995
父亲 3992
尔@@ 3986
战争 3980
白 3975
2 3970
皮 3970
时代 3969
自由 3968
怎么 3967
可是 3966
满 3966
范围 3964
基@@ 3958
才能 3956
格@@ 3952
象 3949
自然 3943
游戏 3941
约 3933
点@@ 3932
飞@@ 3932
冷@@ 3929
化@@ 3918
件 3915
电 3915
交@@ 3913
经历 3909
状 3904
任务 3898
这次 3897
香@@ 3895
同@@ 3892
大家 3889
干 3888
或是 3886
料 3884
即 3875
客户 3862
巴@@ 3842
走@@ 3840
会@@ 3838
种 3832
某些 3831
最近 3830
路@@ 3829
受@@ 3825
每@@ 3825
真@@ 3813
看见 3811
直@@ 3809
区域 3805
哈@@ 3797
没@@ 3796
医生 3794
结@@ 3793
色@@ 3792
使得 3791
放在 3791
一场 3789
跑 3787
检查 3784
除了 3777
石 3776
温@@ 3767
一件 3766
网站 3766
重 3764
排@@ 3758
复@@ 3756
角 3756
超@@ 3752
死亡 3751
或许 3750
需求 3750
期 3744
格 3742
超过 3734
实验 3730
患者 3728
10 3726
只能 3725
永远 3721
尼@@ 3716
言 3715
思想 3710
开发 3699
以后 3697
华@@ 3697
消息 3695
卡 3687
危险 3685
地球 3681
音乐 3680
倒 3678
他@@ 3677
观察 3677
酒 3675
架 3671
好像 3664
突然 3661
于是 3656
首先 3655
以@@ 3649
介绍 3645
从@@ 3642
机@@ 3640
毛 3640
执行 3638
素 3637
衣 3637
应用程序 3629
找 3628
然 3628
沉@@ 3626
时期 3625
半@@ 3622
妻子 3622
质量 3622
调 3618
丝 3617
家@@ 3613
操作 3612
十分 3610
尝试 3609
认识 3606
说@@ 3605
描述 3603
科@@ 3601
3 3600
冰@@ 3597
里@@ 3592
眼 3590
失@@ 3589
石@@ 3588
避免 3582
入@@ 3581
计算 3580
身上 3579
位于 3576
代表 3575
滑@@ 3569
包 3563
担心 3559
说明 3553
米 3548
降低 3543
女 3539
金 3539
充满 3536
装@@ 3536
老 3530
维@@ 3528
解@@ 3523
最@@ 3521
酸 3521
上帝 3513
段 3512
变 3503
有时 3501
回到 3500
食 3500
房 3497
正确 3497
称为 3495
步 3494
很@@ 3491
期间 3489
想法 3488
表 3487
试验 3480
类似 3479
印度 3471
先@@ 3470
她们 3470
包含 3467
进@@ 3467
资源 3464
足够 3459
清楚 3455
狗 3451
直到 3451
加 3448
河 3446
寻找 3443
妈妈 3441
记录 3439
脑@@ 3434
座 3433
性能 3431
该@@ 3431
关注 3427
科学 3427
而言 3427
父母 3425
些 3420
坐在 3417
所@@ 3417
背@@ 3417
业务 3416
游@@ 3416
基本 3414
其@@ 3411
是因为 3409
附近 3407
很快 3405
著 3404
啊 3402
大部分 3398
物质 3398
干@@ 3396
名@@ 3394
对象 3394
更好 3394
交易 3391
听到 3391
五@@ 3386
很大 3386
未 3379
定义 3378
作@@ 3374
实际上 3374
良好 3373
纳 3372
作品 3364
结论 3364
恶@@ 3363
顶@@ 3363
照片 3362
难 3358
探讨 3356
年轻 3351
切@@ 3346
往往 3346
近 3342
图@@ 3341
不得不 3337
南@@ 3336
洗@@ 3333
联系 3333
药 3333
放 3331
事实 3329
看看 3328
连接 3325
周@@ 3322
脚 3322
有着 3321
防@@ 3319
一份 3313
做出 3311
派 3308
加入 3307
树@@ 3307
美元 3306
处于 3303
里面 3303
提@@ 3301
仅仅 3298
有点 3297
肯定 3295
难@@ 3293
闪@@ 3292
抗@@ 3291
具 3288
尤其 3287
从而 3286
米@@ 3286
观点 3286
子@@ 3285
方向 3279
设置 3279
采取 3277
觉 3276
会议 3274
市 3271
冲@@ 3267
今年 3260
症 3257
迷@@ 3255
稳定 3252
相当 3251
合@@ 3247
原@@ 3246
复杂 3244
官员 3244
修@@ 3243
字@@ 3241
文@@ 3239
病@@ 3238
经验 3235
牛@@ 3231
创造 3222
合作 3222
长期 3220
5 3219
表@@ 3217
城 3215
科学家 3212
少 3208
数@@ 3208
调@@ 3208
儿子 3207
若 3201
创建 3197
艺术 3190
为@@ 3186
草 3185
成本 3183
亮 3179
保证 3178
名字 3177
例如 3175
膜 3175
肉 3174
令 3173
向@@ 3168
组 3166
接@@ 3164
飞机 3162
指出 3160
20 3157
青@@ 3155
当地 3153
奇@@ 3149
强 3148
措施 3145
信 3141
压@@ 3141
细@@ 3141
限制 3128
亲@@ 3126
制造 3123
骨@@ 3123
学家 3122
那种 3122
恩 3112
快速 3108
植物 3108
一旦 3102
明 3102
我会 3098
基 3097
极@@ 3089
数量 3087
级 3082
取@@ 3079
后来 3076
息 3076
需 3075
望 3072
事实上 3066
上面 3063
叶 3063
特征 3056
王@@ 3052
三个 3050
失去 3050
怎样 3050
权 3049
正如 3049
推@@ 3047
活@@ 3045
进一步 3043
越来越 3042
成员 3040
确保 3040
太阳 3036
空气 3036
以来 3035
达@@ 3035
只要 3034
指@@ 3034
吉@@ 3033
生物 3032
写@@ 3030
感@@ 3030
组成 3030
摇@@ 3029
收@@ 3024
困难 3021
液 3018
不到 3017
伯@@ 3013
确实 3013
制度 3011
短@@ 3010
规定 3010
合 3008
造@@ 3004
喷@@ 3002
每天 3002
术 2997
声@@ 2995
取 2993
力@@ 2991
通@@ 2991
远 2988
常常 2986
痛苦 2986
概念 2985
球@@ 2984
经 2982
店 2981
普@@ 2981
实际 2977
面对 2977
不可 2976
满足 2974
这项 2974
快乐 2971
阶段 2968
书@@ 2966
必要 2964
音 2963
乐@@ 2957
表达 2957
伤 2950
系 2949
阴@@ 2949
试@@ 2942
相 2940
音@@ 2940
发出 2937
定@@ 2937
无论 2937
带@@ 2936
代码 2933
现代 2933
现象 2930
百@@ 2928
根 2925
整@@ 2920
一张 2918
商 2918
惊@@ 2916
正常 2916
线@@ 2915
密@@ 2909
恢复 2904
广泛 2902
拒绝 2902
满@@ 2901
轮 2899
森 2894
落@@ 2894
论 2891
工 2889
在于 2887
腿 2887
强@@ 2885
建筑 2884
顿 2882
海 2881
隐@@ 2881
波 2878
人民 2877
华 2876
承认 2876
自 2876
伦敦 2871
雪@@ 2871
粉@@ 2865
骨 2862
预@@ 2861
别 2859
威胁 2858
雷@@ 2857
灯 2853
衣服 2849
内部 2846
纳@@ 2845
真 2844
来到 2838
装置 2838
之中 2836
连 2836
德国 2835
周围 2834
教 2833
面临 2833
空 2832
报道 2829
铁@@ 2824
巴 2823
晚上 2823
特性 2821
不仅 2819
夜 2817
衣@@ 2814
语@@ 2814
像是 2811
消@@ 2806
再次 2804
电话 2802
法国 2800
随@@ 2800
糖 2794
不管 2792
基于 2792
房间 2791
做@@ 2789
团队 2787
压 2782
价 2777
单 2775
危机 2774
吸引 2772
套 2770
能量 2770
其实 2769
人士 2768
员工 2768
连@@ 2764
食品 2758
讲 2757
应当 2756
据 2754
迅速 2754
食@@ 2754
销售 2750
检测 2747
林@@ 2745
看来 2741
奥@@ 2739
资金 2738
反对 2737
如今 2735
胡@@ 2735
软件 2733
本身 2728
角色 2728
异@@ 2726
先 2725
移动 2720
假@@ 2719
错 2718
工程 2715
颜色 2715
木 2709
元素 2707
取得 2707
塔 2707
院 2704
军 2702
属于 2699
团 2696
明白 2696
河@@ 2695
电脑 2694
牌 2693
顶 2693
回答 2690
萨@@ 2689
手术 2688
麦@@ 2688
仅 2686
失败 2686
引@@ 2686
特殊 2683
相对 2683
此外 2682
灵@@ 2682
脱@@ 2678
全部 2674
更@@ 2672
打开 2671
草@@ 2670
定 2669
适合 2668
知识 2667
莫@@ 2667
纸 2666
放弃 2665
松@@ 2665
党 2662
方@@ 2662
姆 2661
S@@ 2657
专家 2657
血 2656
凯@@ 2655
4 2653
美丽 2653
脸 2653
破坏 2650
独立 2647
追@@ 2641
岛 2639
媒体 2638
制作 2636
安装 2634
访问 2634
攻击 2633
孔 2631
药物 2631
相同 2628
态度 2627
参与 2626
年@@ 2626
多年 2625
文章 2625
看着 2625
独@@ 2622
菜 2622
赛 2622
学@@ 2617
缺乏 2616
投资者 2615
理@@ 2613
箱 2612
要@@ 2608
规则 2608
管@@ 2606
字 2603
床 2599
底 2596
土@@ 2594
病人 2589
坚持 2587
举行 2586
星期 2584
负责 2584
挑战 2583
野@@ 2582
一块 2581
收入 2579
奥巴马 2578
体系 2574
往 2572
方案 2572
伟大 2571
协议 2571
国 2571
业 2569
巨@@ 2569
想象 2566
列 2565
势 2564
皮肤 2564
总@@ 2563
自我 2563
房子 2562
妇女 2560
同意 2556
战 2556
虫 2552
各 2549
办法 2548
现实 2547
男@@ 2546
# 2543
张 2543
儿童 2542
赛@@ 2541
针对 2540
乐 2539
听@@ 2539
帮 2539
快@@ 2539
权利 2533
训练 2533
常@@ 2531
数字 2531
事@@ 2529
牛 2526
伊@@ 2524
调整 2524
完 2519
「 2518
制@@ 2517
特定 2516
女孩 2511
西方 2511
近@@ 2511
面前 2510
视 2509
既 2508
专业 2503
远@@ 2502
和@@ 2500
跳@@ 2497
」 2496
离 2496
导@@ 2495
求 2495
服务器 2493
土地 2492
停止 2491
以上 2487
俄罗斯 2485
土 2484
特点 2484
红 2483
读 2483
粗@@ 2482
英@@ 2480
关键 2477
苏@@ 2474
威@@ 2473
静@@ 2471
洛@@ 2468
红色 2467
高兴 2467
烟@@ 2466
活 2465
第一个 2465
破@@ 2464
罗 2462
展示 2461
专@@ 2459
情绪 2459
保@@ 2458
购买 2453
集 2453
一边 2451
平衡 2451
根本 2450
源 2450
在@@ 2447
非@@ 2447
下降 2446
大约 2446
工@@ 2445
地位 2443
喜@@ 2441
教@@ 2437
局 2432
委员会 2431
降@@ 2430
靠 2426
真实 2424
第一@@ 2421
莱@@ 2420
国@@ 2418
英语 2418
费用 2418
部门 2417
信@@ 2416
倒@@ 2413
多么 2413
图像 2412
警察 2407
病毒 2406
果@@ 2405
信号 2401
服 2401
P@@ 2399
死@@ 2398
群 2396
常 2392
广告 2391
酒@@ 2391
习惯 2390
张@@ 2390
能@@ 2389
新闻 2387
兰@@ 2386
解 2386
遇到 2384
再@@ 2382
下面 2381
第一次 2380
享受 2375
均 2375
强烈 2375
观 2374
配@@ 2372
责任 2370
分子 2368
留下 2368
实施 2367
博@@ 2366
塞 2366
说道 2365
软@@ 2365
鸟 2360
曼 2358
共同 2357
形@@ 2350
托@@ 2350
想到 2349
炎 2348
以为 2347
怀疑 2347
药@@ 2347
商业 2346
富@@ 2346
& 2345
绝@@ 2345
T@@ 2343
手机 2343
添加 2343
指定 2342
黑 2342
友 2341
结合 2339
&@@ 2337
大小 2336
改革 2336
每年 2336
优@@ 2333
刀 2333
弱 2332
改善 2332
圆@@ 2331
界 2331
策略 2331
不想 2330
圈 2330
并非 2330
办公室 2328
程 2328
世@@ 2327
某个 2325
利益 2319
别@@ 2319
左@@ 2319
很少 2318
元 2317
比如 2316
诺@@ 2316
感染 2315
早期 2315
灰@@ 2315
紧@@ 2315
预测 2315
北@@ 2314
以色列 2313
按 2313
磁@@ 2313
酸@@ 2310
柔@@ 2305
出去 2303
距离 2299
越@@ 2298
完美 2296
灵 2294
相反 2294
伤害 2292
雨 2290
参数 2289
金属 2284
乳@@ 2283
视@@ 2283
丰富 2282
测量 2279
名称 2278
意思 2278
此@@ 2278
美国@@ 2278
丈夫 2277
基因 2277
尽 2275
照@@ 2275
香 2275
最佳 2274
杯 2272
依然 2268
温度 2265
首@@ 2263
科 2260
竞争 2260
王 2259
意@@ 2255
福@@ 2255
网@@ 2255
片@@ 2254
手段 2253
暴@@ 2253
网 2249
雪 2249
节@@ 2248
我国 2247
自身 2246
证据 2245
几年 2244
样 2243
默@@ 2242
早 2241
酒店 2240
世 2238
杂@@ 2237
上升 2236
迪@@ 2233
6 2232
安 2232
盖 2232
女儿 2230
投@@ 2230
思考 2229
离@@ 2229
评价 2229
一片 2226
伦 2225
刺激 2225
我要 2224
公众 2220
击 2220
省 2220
痛 2219
电视 2218
照 2217
自动 2217
塞@@ 2216
理 2216
代@@ 2215
头发 2215
状况 2214
当前 2213
接触 2212
粉 2211
建设 2210
塔@@ 2208
说话 2208
普通 2206
黑暗 2205
经@@ 2204
态 2203
老师 2203
风格 2203
被@@ 2200
充@@ 2199
时刻 2197
理由 2197
逐渐 2196
接近 2195
见@@ 2195
评估 2194
道@@ 2194
数据库 2192
断@@ 2192
请求 2192
八@@ 2190
总 2189
等待 2186
质@@ 2185
分钟 2183
白色 2183
旧 2182
耐@@ 2181
亚 2180
结 2179
叶@@ 2178
镜 2176
临床 2175
穿着 2175
大脑 2166
待 2164
粘@@ 2164
怀@@ 2163
环@@ 2162
银@@ 2159
睡 2157
乱 2155
有趣 2154
菌 2153
着@@ 2152
角度 2152
值得 2149
编@@ 2149
支付 2148
画@@ 2148
送 2148
亚洲 2144
结果表明 2144
弗@@ 2141
坏 2140
人物 2139
关@@ 2138
贝@@ 2136
下去 2134
正是 2134
消失 2134
战@@ 2133
硬@@ 2133
消费者 2132
夜@@ 2128
日子 2127
玩 2126
龙 2122
留@@ 2121
耳@@ 2119
军@@ 2118
机制 2117
六@@ 2116
实 2115
客@@ 2114
30 2113
果 2113
虚@@ 2112
道路 2112
领@@ 2111
侧 2110
安排 2110
选 2109
逊 2107
‘ 2105
例 2104
回来 2103
载 2103
两种 2102
耶和华 2101
某 2100
摩@@ 2098
实@@ 2097
千@@ 2096
曲@@ 2096
勒 2095
杀 2095
医院 2094
猫 2093
贷款 2093
轮@@ 2092
通 2092
坐 2090
墙 2090
台@@ 2089
演@@ 2088
理想 2087
右@@ 2086
射@@ 2085
速 2084
旅行 2083
知 2083
帕@@ 2081
宣布 2079
属性 2079
课程 2079
北京 2078
纹 2078
只@@ 2077
记者 2077
鲁@@ 2076
算法 2073
生长 2071
共@@ 2070
第 2070
剧 2069
显得 2069
义 2068
报 2067
大型 2066
思@@ 2066
’ 2065
版 2065
材 2063
梅@@ 2062
看上去 2062
包@@ 2061
馆 2061
差 2060
阅读 2059
希@@ 2057
X@@ 2053
两年 2053
立@@ 2053
跳 2053
国内 2052
急@@ 2052
歌@@ 2051
客 2050
转 2050
积极 2049
角@@ 2049
强大 2048
工业 2046
补充 2045
丝@@ 2043
计算机 2043
主题 2042
优势 2042
兰 2042
思 2040
贸易 2038
相比 2036
聚@@ 2036
一座 2034
固定 2033
切 2030
弄 2030
曼@@ 2030
藏 2030
代 2029
洞 2027
往@@ 2025
尾@@ 2024
构成 2023
资产 2022
集团 2022
工艺 2021
丽 2020
底@@ 2020
钢@@ 2018
刺@@ 2017
模@@ 2017
不错 2015
显然 2015
雅 2012
云 2011
石油 2010
越 2008
年代 2007
过来 2007
家里 2006
支@@ 2006
几天 2005
梦 2002
以便 1999
工人 1999
赢得 1999
B@@ 1998
作出 1998
承诺 1997
甜@@ 1994
某种 1992
第一 1992
诊断 1992
一致 1991
云@@ 1990
形象 1990
耶稣 1989
记 1989
鞋 1989
绿色 1987
权力 1986
东@@ 1985
12 1984
小说 1982
领导 1982
混合 1980
选举 1979
目 1978
立 1978
防止 1978
幸福 1977
容 1975
男性 1975
军队 1974
应@@ 1973
汉@@ 1972
妙 1971
微 1971
标@@ 1971
唱 1970
来看 1969
库 1966
击@@ 1963
士@@ 1963
感受 1962
款 1962
球员 1962
一系列 1961
漫@@ 1961
纽约 1958
令人@@ 1955
易@@ 1955
教授 1954
费@@ 1954
明确 1953
这场 1952
一半 1951
人生 1951
提升 1951
迪 1951
胸@@ 1950
言@@ 1948
停@@ 1947
核心 1947
页 1947
静 1946
羊@@ 1944
给予 1943
宗教 1942
抽@@ 1942
苦@@ 1942
吃@@ 1941
伤@@ 1939
胶@@ 1939
合理 1938
纸@@ 1938
到达 1936
对此 1936
货@@ 1935
凝@@ 1934
道德 1932
债务 1930
打算 1930
深 1929
七@@ 1928
肉@@ 1928
警告 1928
从来 1927
暗@@ 1927
梦想 1927
原则 1924
句 1923
探@@ 1923
J@@ 1922
早@@ 1922
李@@ 1922
足 1922
还要 1922
未@@ 1921
引发 1920
影 1920
高度 1920
8 1918
园 1918
散@@ 1917
更为 1916
运用 1916
后面 1915
命 1915
封@@ 1914
中间 1912
天空 1911
损失 1911
H@@ 1909
传播 1908
接着 1907
楼 1907
索@@ 1907
响 1906
鲜@@ 1905
记得 1904
剧@@ 1903
发表 1902
极 1902
睡@@ 1902
骑@@ 1900
冲突 1899
刚 1899
标 1898
事物 1897
组合 1896
魔@@ 1892
刻 1891
资料 1891
散 1890
他人 1888
著名 1887
楼@@ 1885
次 1884
坚@@ 1883
老板 1880
戴@@ 1879
问@@ 1878
浮@@ 1877
滑 1876
难以 1876
公开 1875
之外 1874
那时 1872
寻求 1871
劳@@ 1870
狂@@ 1870
阻止 1870
母 1866
其他人 1864
回家 1864
减@@ 1863
壁 1863
碎 1863
即将 1860
杆 1859
桥 1859
输入 1859
曲 1858
职业 1858
动作 1854
增@@ 1853
D@@ 1851
插@@ 1849
方便 1847
就@@ 1846
招@@ 1846
纯@@ 1845
恐惧 1844
龙@@ 1844
反映 1843
否则 1842
于@@ 1841
公园 1841
意大利 1838
除@@ 1838
顺@@ 1838
餐 1838
品@@ 1836
发布 1835
分布 1834
上述 1833
就要 1832
嘴@@ 1831
奶@@ 1830
工厂 1830
偏@@ 1829
开放 1828
批评 1828
首 1828
例子 1827
喝 1827
提到 1826
集中 1826
欢@@ 1825
真是 1825
双 1824
每次 1824
全 1823
具体 1823
平 1823
加强 1822
费 1822
翻@@ 1821
涉及 1820
合同 1819
玩@@ 1819
G@@ 1818
了@@ 1818
差异 1818
赶@@ 1818
流行 1817
前面 1816
读@@ 1816
鼓励 1816
怪@@ 1815
朝 1815
人口 1814
渴望 1814
穿@@ 1814
出口 1813
旁 1812
促进 1810
加工 1808
年轻人 1808
尽@@ 1807
晚 1807
灵魂 1806
紧张 1806
伦@@ 1803
品牌 1803
森林 1802
或@@ 1800
阳光 1800
配置 1797
救@@ 1796
趋势 1796
释放 1796
乔@@ 1794
恩@@ 1794
歌 1794
男孩 1794
列@@ 1793
障碍 1793
养@@ 1792
双方 1792
是不是 1792
久 1791
观@@ 1791
qu@@ 1789
买@@ 1789
瓶 1789
丽@@ 1788
横@@ 1788
羊 1788
命令 1787
核@@ 1787
含量 1786
选@@ 1786
要是 1785
非洲 1785
7 1784
污染 1784
潜@@ 1784
短 1784
围@@ 1782
交流 1781
致 1781
杰@@ 1780
领导人 1780
适用 1779
50 1778
单位 1778
有助于 1778
紧 1778
强调 1777
量@@ 1775
黑色 1775
的确 1774
露@@ 1773
视为 1772
函数 1771
麻@@ 1771
多个 1770
泥@@ 1770
显著 1769
成长 1768
南 1767
固@@ 1767
倾向 1766
约翰 1766
绿@@ 1765
雅@@ 1765
印@@ 1764
母@@ 1764
含 1763
射 1763
本书 1763
独特 1763
作者 1762
景@@ 1761
初@@ 1760
厂 1758
物@@ 1758
假如 1757
求@@ 1757
称@@ 1757
奖 1756
武器 1755
居民 1753
机器 1752
ot 1751
害怕 1751
背景 1751
各@@ 1748
改进 1748
敌人 1747
除非 1743
除 1742
一段 1741
异 1741
国王 1740
猎@@ 1739
脸@@ 1739
乌@@ 1738
厚 1738
所谓 1738
可怕 1737
弹@@ 1737
烧@@ 1737
电子 1737
创新 1736
制定 1733
忙 1733
适应 1733
版本 1732
边缘 1731
蒙@@ 1730
鱼@@ 1730
壳 1729
笔 1729
维持 1729
修改 1728
接下来 1727
生成 1727
意见 1725
兴趣 1723
现 1723
糟糕 1723
记忆 1723
施@@ 1722
普遍 1721
漂亮 1721
怪 1720
标志 1719
环 1719
最高 1718
甲@@ 1718
带有 1717
迷 1717
15 1716
全国 1716
去年 1716
堆 1715
戴 1715
随后 1711
笑@@ 1709
票 1708
合适 1707
规模 1707
症状 1705
运@@ 1705
交 1701
纤维 1700
磨@@ 1699
表演 1699
念 1698
东 1696
声明 1696
步@@ 1696
立即 1696
存 1695
家人 1695
见到 1694
返回 1694
追求 1694
必@@ 1693
拿@@ 1692
瓦@@ 1692
做法 1691
教堂 1691
记@@ 1689
转移 1688
密 1687
场@@ 1686
不用 1685
心理 1684
不久 1683
产 1683
做到 1683
雕@@ 1681
如同 1680
这件 1680
终于 1679
船@@ 1679
护@@ 1678
醒 1677
同事 1676
伸@@ 1675
基金 1675
热情 1674
退@@ 1674
棒 1673
符合 1673
地震 1672
成熟 1672
吸@@ 1671
泰@@ 1671
敏@@ 1669
半 1667
饰 1666
收集 1665
气体 1665
验证 1665
货币 1664
实践 1662
突@@ 1662
适当 1662
事业 1661
苦 1661
雄@@ 1661
社区 1660
商品 1659
梦@@ 1656
拖@@ 1655
绝对 1655
呆 1654
盛@@ 1654
贵 1654
股 1653
麽 1653
律 1652
混@@ 1652
常见 1651
霍@@ 1650
罪 1649
陷入 1649
商@@ 1648
图片 1647
摆@@ 1646
经理 1646
折@@ 1642
毒@@ 1642
缩@@ 1642
展@@ 1641
收到 1641
申请 1641
和平 1640
牙@@ 1640
礼物 1640
鬼 1638
完整 1637
父 1635
因@@ 1634
便@@ 1632
何@@ 1631
第二 1631
一周 1630
球队 1630
神经 1629
正式 1628
秘密 1627
覆盖 1627
卖 1626
潜在 1626
玻璃 1626
财富 1626
传 1625
原 1624
培养 1624
样子 1624
心里 1623
详细 1623
不幸 1618
激@@ 1618
索 1618
刻@@ 1617
刚@@ 1616
剪@@ 1616
按照 1616
艾@@ 1616
螺@@ 1616
雨@@ 1616
报@@ 1615
重大 1615
存储 1614
彩@@ 1614
反 1613
禁止 1613
试 1613
推动 1612
谈 1612
两 1611
税 1611
细节 1611
慢慢 1610
所说 1610
核 1610
瑞@@ 1610
最新 1609
袋 1609
路上 1608
辛@@ 1608
嘴 1607
生存 1607
男子 1607
希腊 1606
100 1605
讲@@ 1605
原来 1603
去@@ 1603
排 1603
针 1603
模拟 1602
经营 1602
准确 1601
紫@@ 1601
计@@ 1601
境 1600
软 1600
断 1599
蒂 1598
偷@@ 1597
汁 1597
救 1594
那儿 1594
麻烦 1591
呼吸 1590
旋转 1590
湿@@ 1590
烟 1585
礼 1585
神经@@ 1585
般 1585
哪 1583
调用 1582
含有 1581
触@@ 1581
挂 1579
动力 1578
保留 1576
徒 1576
卖@@ 1574
守@@ 1574
形状 1574
透@@ 1574
换@@ 1573
接 1573
终@@ 1573
袭击 1573
作家 1572
地面 1572
愤怒 1572
托 1572
苹果 1572
获取 1572
不得 1571
拍 1570
穿过 1568
到@@ 1567
成分 1565
整体 1565
淡@@ 1565
边@@ 1565
身份 1564
却是 1563
当中 1563
灯@@ 1563
寄@@ 1562
海洋 1562
伊拉克 1558
众@@ 1558
岩 1556
举@@ 1555
化学 1554
阻@@ 1554
司 1553
这时 1553
占 1552
所属 1552
效应 1552
消除 1552
女士 1551
可能性 1550
战略 1550
现有 1550
丰@@ 1549
更新 1549
期望 1548
杂志 1548
一段时间 1547
三 1547
循环 1546
宇宙 1545
身边 1545
处@@ 1543
甘@@ 1543
能源 1543
跑@@ 1543
餐@@ 1543
象@@ 1542
胆@@ 1540
天气 1538
婴儿 1537
是从 1537
上海 1536
典型 1536
玛@@ 1536
体验 1535
强度 1534
演 1534
阵@@ 1534
使@@ 1533
一步 1532
夫人 1532
田@@ 1532
分享 1531
登@@ 1531
L 1530
M@@ 1530
一部 1530
打击 1530
欧@@ 1530
转换 1530
丁 1529
产业 1529
金融 1529
泡 1526
测定 1523
算 1522
9 1521
信心 1521
投入 1521
人群 1520
胜利 1520
荒@@ 1520
顾客 1520
鸡 1520
换 1519
显@@ 1518
坐@@ 1517
腹@@ 1517
输@@ 1517
俱乐部 1516
房@@ 1516
蓝色 1514
兵 1511
律师 1511
温 1511
癌 1511
躺 1511
钟 1509
铁 1508
伊朗 1507
浓@@ 1507
别的 1506
坏@@ 1506
确认 1506
学院 1505
机械 1505
维护 1505
R@@ 1504
异常 1504
情感 1504
私人 1504
博士 1503
染@@ 1503
联 1503
外面 1502
好处 1502
评论 1502
关闭 1501
出生 1501
窗@@ 1500
装饰 1499
对方 1498
年龄 1498
判断 1497
到底 1497
笔@@ 1496
迹 1496
震@@ 1495
分离 1494
熟悉 1494
以下 1493
不足 1492
仿佛 1492
优化 1492
预期 1492
马上 1492
答案 1491
必 1489
货 1489
转变 1489
休@@ 1488
商店 1487
智慧 1487
等@@ 1487
举 1486
少@@ 1486
族 1486
班 1486
端@@ 1485
居住 1484
欢迎 1484
陈@@ 1484
分配 1483
奇怪 1483
民族 1483
连续 1482
移@@ 1481
效率 1480
警@@ 1480
混乱 1478
胶 1478
吸收 1477
很难 1477
洗 1477
咖啡 1476
建@@ 1476
致@@ 1476
犯 1475
联合 1475
瓜 1474
茶 1474
幼@@ 1473
婚姻 1472
地上 1471
元@@ 1470
多数 1470
慢 1470
有所 1470
实在 1469
尖@@ 1469
湖@@ 1469
联@@ 1468
读者 1468
预计 1468
B 1467
按@@ 1466
有时候 1465
套@@ 1464
公共 1463
期待 1463
娜 1462
应对 1462
月@@ 1462
硬 1462
诗 1462
拼@@ 1461
充分 1460
感谢 1460
技能 1460
改@@ 1460
斯特 1460
注 1460
饼 1459
卷 1458
相似 1458
花费 1458
礼@@ 1457
蓝@@ 1457
登 1456
般的 1456
卷@@ 1455
建造 1455
枪 1455
爱情 1455
仪 1454
可靠 1454
埃及 1453
由@@ 1453
11 1452
取决于 1452
任 1451
属 1451
规范 1451
还@@ 1450
扩大 1449
教学 1448
最初 1448
飞行 1448
学会 1447
稀@@ 1447
藏@@ 1447
全面 1446
赫@@ 1446
士兵 1445
缺陷 1445
伊 1444
农@@ 1443
旁边 1443
轴 1443
医疗 1442
冷 1441
国会 1441
消费 1441
哦 1440
民主 1440
证实 1439
加拿大 1438
积@@ 1438
重复 1438
声称 1437
矿@@ 1437
蒸@@ 1437
诺 1437
进程 1436
平台 1435
聪明 1435
增强 1434
感情 1434
洁 1434
小组 1432
老人 1432
清 1431
舞 1431
A 1429
估计 1429
呼@@ 1429
富有 1429
课 1429
一群 1428
文档 1428
组件 1428
考@@ 1427
造 1427
邀请 1426
微笑 1425
演员 1424
移民 1423
不好 1422
体现 1422
吹@@ 1422
到来 1421
喝@@ 1421
结婚 1420
美好 1420
印象 1419
沿着 1419
轻 1419
另@@ 1418
耀 1418
联盟 1418
克斯 1417
记住 1417
L@@ 1416
搜索 1416
有用 1416
英里 1416
通知 1416
分别 1415
信任 1414
晚@@ 1414
肌@@ 1414
哪里 1413
旅游 1413
保存 1412
算@@ 1412
假设 1411
度@@ 1411
乎 1410
层@@ 1410
民@@ 1410
洋@@ 1410
报纸 1408
类@@ 1408
华盛顿 1407
看法 1407
统一 1407
愿 1405
教师 1405
刚刚 1404
飞 1404
心脏 1403
章 1403
锁 1403
间@@ 1403
素@@ 1402
养 1401
来源 1401
识别 1401
炉 1400
色彩 1400
达成 1400
拍摄 1399
从未 1398
从事 1397
厅 1397
观众 1397
扩展 1395
指导 1395
不够 1394
爆发 1394
一套 1393
升@@ 1393
送@@ 1393
饭 1393
不了 1392
爬 1392
运动员 1392
阳@@ 1391
愉快 1390
板@@ 1390
脏 1390
对待 1389
视频 1387
说法 1385
胜@@ 1384
不仅仅 1383
邮件 1383
刺 1382
夹@@ 1382
捕@@ 1381
第二天 1381
互联网 1380
十年 1380
旋@@ 1380
旧@@ 1380
轻松 1379
逻辑 1379
镇 1379
T 1378
九@@ 1378
兹 1378
抑@@ 1378
欧盟 1378
脸上 1378
兴奋 1377
包装 1376
展开 1376
成功 1376
足@@ 1376
菲@@ 1374
销 1374
依赖 1373
免费 1371
盘@@ 1370
统治 1370
谈判 1370
这家 1370
与@@ 1369
左右 1369
盖@@ 1369
链 1369
小孩 1368
开发@@ 1368
绕 1368
生物@@ 1367
谱 1367
钱@@ 1367
健@@ 1366
周 1365
肩@@ 1365
农民 1364
撒@@ 1364
糖@@ 1364
根@@ 1363
成就 1362
浆 1360
浪 1360
蛋白 1360
一生 1359
含@@ 1359
地说 1359
性质 1359
喜 1357
沃@@ 1357
月份 1354
隔@@ 1354
屋 1352
数据@@ 1352
关心 1351
条@@ 1351
永@@ 1351
负 1351
重点 1351
加上 1350
坡 1350
服@@ 1350
给出 1350
鼠 1350
抑制 1349
呼 1348
构建 1348
残@@ 1348
谷 1348
提 1347
涂@@ 1347
醇 1347
严格 1345
参@@ 1345
启动 1345
幕 1345
额外 1345
垃圾 1344
忘记 1344
技巧 1344
叫@@ 1343
肌肉 1343
一辆 1342
相应 1342
四个 1341
官 1341
电子@@ 1341
印 1340
观念 1340
警方 1340
对手 1339
放松 1339
犯罪 1339
古老 1338
埃@@ 1338
提醒 1338
气候 1338
资本 1338
途径 1338
宽@@ 1337
持 1337
腔 1337
利亚 1336
味道 1336
项 1336
针@@ 1335
难以@@ 1335
西班牙 1333
薄@@ 1331
解决方案 1331
e@@ 1330
一把 1330
传递 1330
抓住 1330
权@@ 1330
彻底 1327
茶@@ 1327
贴 1327
翻译 1326
营 1326
松 1325
输出 1325
主人 1324
任何人 1324
池 1324
宾@@ 1323
田 1322
豪@@ 1322
遭到 1322
F@@ 1321
尾 1321
灌@@ 1321
出售 1320
一面 1319
全世界 1319
幅 1318
逃@@ 1318
承担 1317
本文 1317
什 1316
做好 1316
战斗 1316
机场 1315
组@@ 1314
证 1314
不安 1313
休息 1313
莉 1313
假 1312
领 1312
液@@ 1311
现场 1311
疯狂 1310
不必 1309
已@@ 1309
灾难 1309
衰@@ 1309
你@@ 1308
土壤 1308
小心 1308
亿美元 1307
损害 1307
相互 1307
监管 1306
韩国 1306
40 1305
动态 1302
懂 1302
福 1302
柱 1301
彩 1300
抱 1300
列表 1299
抱怨 1299
更大 1299
供应 1298
发挥 1298
品质 1298
太太 1298
怒 1298
比例 1298
胃@@ 1298
事故 1297
出于 1297
各国 1297
痛@@ 1297
荡 1297
蛋 1297
即便 1296
朝@@ 1296
神秘 1296
长时间 1296
滚@@ 1295
遭受 1295
公平 1294
久@@ 1293
失望 1293
展 1293
康@@ 1293
束 1293
枝 1293
产@@ 1292
差@@ 1292
掌握 1292
雾 1292
露 1292
须 1292
创作 1291
悲@@ 1290
股票 1290
过于 1290
冰 1288
可爱 1288
猪 1288
他会 1287
外部 1287
摄@@ 1287
文学 1287
野 1287
优秀 1286
心中 1286
斗 1286
联合国 1286
叫做 1285
争议 1284
清晰 1284
简@@ 1284
过度 1284
并@@ 1283
细菌 1282
夏天 1281
宝@@ 1281
牙 1281
进步 1281
一句 1280
义@@ 1280
探索 1280
文本 1280
淡 1280
裤 1280
钻@@ 1280
A@@ 1279
指标 1279
部队 1279
页面 1279
关 1278
宁@@ 1278
蜂@@ 1278
足以 1278
内心 1277
满意 1277
爆炸 1276
象征 1276
贴@@ 1276
洞@@ 1275
碳@@ 1275
肠 1275
蒙 1275
史@@ 1274
床@@ 1274
划@@ 1273
南部 1273
家伙 1272
患 1272
井 1269
ML 1268
借@@ 1268
泽 1268
革命 1268
严@@ 1267
但@@ 1267
信仰 1267
园@@ 1267
振@@ 1267
源@@ 1266
似的 1264
店@@ 1263
归@@ 1261
溶@@ 1261
燃烧 1261
农业 1260
想起 1260
易 1260
S 1259
心灵 1259
计 1259
样@@ 1258
始终 1257
恒@@ 1257
法庭 1257
多种 1256
得以 1256
随 1256
黄色 1256
吻 1255
联邦 1255
所在 1254
珍@@ 1254
潮 1252
破 1252
肠@@ 1252
众多 1251
背 1251
尘@@ 1250
某@@ 1250
灭 1250
有个 1249
桶 1249
导 1248
目@@ 1248
首次 1248
兄弟 1247
单独 1247
盛 1247
祖@@ 1247
科技 1247
刀@@ 1246
唱@@ 1246
拍@@ 1246
早上 1246
系列 1246
肿瘤 1245
V@@ 1244
突出 1243
卵@@ 1242
普 1242
萨 1241
郁 1240
93 1239
悦 1239
燃料 1239
一点@@ 1238
个@@ 1238
影@@ 1238
槽 1238
盐 1238
典 1237
游 1237
查看 1236
此次 1236
若@@ 1236
集@@ 1236
怕 1235
挥@@ 1235
无疑 1235
游客 1235
论文 1235
一颗 1234
犹@@ 1234
供@@ 1233
细 1233
脂肪 1233
舒适 1233
还会 1233
史 1232
恨 1232
物品 1231
行星 1230
军事 1229
利润 1229
屏幕 1229
进展 1229
雷 1229
黄 1229
响@@ 1228
地点 1228
法院 1228
修复 1227
幸运 1227
框架 1227
矛盾 1227
惊讶 1226
不可@@ 1225
事务 1225
份 1225
预算 1225
厚@@ 1224
汉 1224
烂 1224
直 1224
四 1223
那天 1223
孔@@ 1222
篇 1222
血液 1222
这座 1222
以外 1221
广@@ 1221
夫@@ 1220
标记 1220
置 1220
一个@@ 1218
原理 1218
桑@@ 1218
毫无 1218
甲 1218
一会儿 1217
街 1217
中有 1216
倍 1216
外国 1215
敬@@ 1215
C@@ 1214
培训 1214
所述 1214
服装 1214
清洁 1214
节目 1214
尿@@ 1213
一支 1212
损伤 1212
略@@ 1212
酶 1212
熊 1211
精神@@ 1211
练习 1211
肥 1211
荷@@ 1211
零@@ 1211
翼 1210
肥@@ 1210
大概 1209
爸爸 1209
91 1208
告 1207
置@@ 1207
膀 1207
底部 1206
控 1206
暗 1206
步骤 1206
词@@ 1206
即@@ 1205
大陆 1205
哭 1204
疲@@ 1204
豆@@ 1204
走进 1204
这儿 1204
闻 1204
发言人 1202
居 1202
库@@ 1202
疼痛 1202
暴力 1201
因而 1200
丁@@ 1199
激烈 1199
裂 1199
实验室 1198
诱@@ 1198
班@@ 1197
所有人 1196
削减 1195
新型 1195
海岸 1195
一对 1194
佩@@ 1194
公民 1192
谈论 1192
宫 1191
悬@@ 1191
圆 1189
居@@ 1188
湖 1188
为此 1187
争论 1187
官方 1187
轨道 1187
不愿 1186
佛@@ 1186
博 1186
取消 1186
完善 1186
亮@@ 1185
P 1184
思维 1184
澳大利亚 1184
彼此 1183
找@@ 1183
更改 1183
机器人 1183
流动 1183
知@@ 1183
社 1182
邮@@ 1182
长度 1182
基地 1181
扎@@ 1181
演讲 1181
穆@@ 1181
谨慎 1181
代理 1180
命运 1180
晶@@ 1180
禁@@ 1180
罩 1179
建 1177
脱 1177
前景 1176
司机 1176
群@@ 1176
党@@ 1175
呈 1175
诗@@ 1175
各个 1174
城@@ 1174
案 1173
i@@ 1172
受伤 1171
夏@@ 1171
大规模 1170
将来 1170
极大 1170
浅@@ 1170
走向 1170
醒@@ 1170
高级 1170
宣传 1169
乱@@ 1168
在线 1168
妮 1168
意外 1168
欲 1168
一组 1167
遮@@ 1167
万 1166
敏感 1166
预防 1166
模糊 1165
而已 1165
主席 1164
成立 1164
摸 1164
沙 1164
有限 1163
物种 1162
等等 1162
私@@ 1161
一根 1159
平均 1159
斜@@ 1159
本质 1158
这份 1158
饮食 1158
尖 1157
忧@@ 1157
感兴趣 1157
手中 1157
滤@@ 1157
规划 1157
亦 1156
供 1156
文明 1156
液体 1156
维 1154
貌 1154
采@@ 1154
升 1153
下午 1152
俄@@ 1152
闲@@ 1152
D 1151
不少 1151
幻@@ 1151
论@@ 1151
指控 1150
查@@ 1150
粒 1150
团体 1149
治 1149
测@@ 1149
适@@ 1149
手指 1148
复苏 1147
摆脱 1147
物体 1147
目录 1147
靠近 1147
巾 1146
然@@ 1146
立刻 1146
繁@@ 1146
餐厅 1146
实例 1145
民众 1145
乐观 1143
姑娘 1143
废@@ 1143
温暖 1143
I 1142
场景 1142
椅 1142
肺@@ 1142
明天 1141
此时 1141
罪@@ 1141
花园 1141
客人 1140
影片 1140
戒@@ 1140
罗马 1140
蛇 1140
沟通 1139
货物 1139
队@@ 1139
复制 1138
清单 1138
一本 1137
依据 1137
依靠 1137
峰 1137
电池 1137
韦@@ 1137
五 1136
教会 1135
面包 1135
平静 1134
朝鲜 1134
遗@@ 1134
闭@@ 1134
魅力 1134
屈@@ 1133
空中 1133
谈话 1133
回应 1132
批准 1132
杀@@ 1132
筒 1132
设施 1132
采访 1132
制成 1131
文字 1131
漂@@ 1131
运输 1131
规律 1130
墙@@ 1129
齐 1129
受欢迎 1128
水果 1128
缓慢 1128
途 1128
献@@ 1127
现@@ 1127
代价 1126
框 1126
法官 1126
利率 1125
深刻 1125
贵@@ 1125
投票 1124
谷歌 1124
儿@@ 1123
打电话 1123
江@@ 1123
石头 1123
话题 1123
协调 1122
守 1122
末@@ 1122
尊重 1121
当作 1121
给@@ 1121
这部 1121
滴 1119
发明 1118
弄@@ 1118
民 1118
坦@@ 1117
囊 1116
庆祝 1116
忘 1116
定位 1115
次@@ 1115
疫苗 1115
镇@@ 1115
仪式 1114
原始 1114
扬 1114
驱@@ 1114
鸡@@ 1114
25 1113
学者 1113
任@@ 1111
后果 1111
孤@@ 1111
我能 1111
引用 1110
污@@ 1110
艰难 1110
配 1110
幽@@ 1109
末 1109
豆 1108
跟踪 1108
体内 1107
围绕 1107
斑@@ 1107
综合 1107
遇@@ 1107
t@@ 1106
主义者 1106
兽 1106
侧@@ 1105
讨厌 1105
隐藏 1104
频率 1104
W@@ 1103
睡眠 1103
社会@@ 1103
腰@@ 1103
迹象 1103
债券 1102
吞@@ 1102
婚@@ 1102
引导 1102
撞 1102
网上 1102
西部 1102
乙@@ 1100
斗争 1098
业@@ 1096
浴@@ 1096
命@@ 1095
度过 1095
担忧 1095
符 1095
自信 1095
英尺 1095
及时 1094
堆@@ 1094
沉 1094
珠 1094
链接 1094
阿富汗 1094
之下 1093
呈现 1093
弹 1093
额 1093
人体 1092
客户@@ 1092
取代 1091
火车 1091
腺 1090
许 1090
同学 1088
无论是 1088
冒@@ 1087
地址 1087
抗议 1087
驱动 1087
000 1086
医学 1086
厨房 1086
岩石 1085
区别 1084
运 1084
一道 1083
人会 1083
艺术家 1083
杜@@ 1082
航@@ 1082
远离 1082
尺寸 1081
盒 1081
飘@@ 1081
布什 1080
编辑 1080
踏@@ 1080
基督 1079
小姐 1079
薄 1079
宫@@ 1078
春@@ 1078
灰 1078
背后 1078
否认 1077
检验 1076
不停 1075
垫 1075
巧 1075
栏 1075
物理 1075
伯 1074
裂@@ 1074
转向 1074
哲学 1073
担任 1073
指责 1073
格式 1073
煤@@ 1073
依@@ 1072
小型 1072
部位 1072
N@@ 1071
回忆 1071
约@@ 1071
专门 1070
创@@ 1070
卫生 1070
容器 1070
故障 1070
标签 1070
分类 1069
告@@ 1069
熟@@ 1069
舞@@ 1068
夹 1067
午@@ 1066
心情 1066
英雄 1066
营养 1066
通道 1066
E@@ 1065
域 1065
容@@ 1065
只会 1064
提取 1064
毒 1064
贡献 1063
透露 1063
C 1062
前往 1062
尽可能 1062
房屋 1062
不知 1061
恶 1061
皇@@ 1061
玩具 1059
像@@ 1058
可见 1058
理念 1058
码 1058
群体 1058
财政 1058
退 1058
状@@ 1057
凡 1056
奖@@ 1056
工资 1056
新鲜 1056
识 1056
调节 1056
车辆 1056
交通 1055
佛 1055
提交 1055
精确 1055
作业 1054
制品 1054
塑料 1054
领袖 1054
仔细 1053
地板 1053
堂 1053
景 1053
法案 1053
觉@@ 1053
上周 1052
完@@ 1052
最为 1052
闻@@ 1052
推出 1051
老鼠 1051
临@@ 1050
赞@@ 1050
挤@@ 1049
匹配 1048
存@@ 1048
枪@@ 1047
浪费 1047
示@@ 1047
鲁 1047
M 1046
尘 1046
香港 1046
卢@@ 1044
困境 1044
时尚 1044
晶 1044
武@@ 1044
自由@@ 1044
泽@@ 1043
超 1043
二 1042
暂时 1042
琴 1042
吊@@ 1041
管道 1041
18 1040
公布 1040
周末 1040
脊@@ 1040
发送 1039
戏@@ 1039
深入 1039
荣@@ 1039
讲话 1039
销@@ 1039
临时 1038
较大 1038
尤@@ 1037
血管 1037
设 1037
赛季 1037
浪@@ 1036
菜@@ 1036
冒险 1035
此类 1035
息@@ 1034
搭@@ 1034
泡沫 1034
走出 1034
副 1033
校@@ 1033
聚集 1033
选项 1033
勇气 1032
可怜 1032
喻 1032
当局 1032
朵 1032
简直 1032
考试 1032
抗 1031
赌@@ 1031
出版 1030
扮演 1030
非法 1030
付出 1029
价@@ 1029
开展 1029
柔 1029
关联 1028
艇 1028
博客 1026
辐射 1026
忙@@ 1025
竞选 1025
鼓@@ 1025
伏 1024
冲 1024
尼亚 1024
杰克 1024
欣赏 1024
自然@@ 1024
超越 1024
键 1024
一篇 1023
哪些 1023
家族 1023
牵@@ 1023
职位 1023
对话 1022
巴基斯坦 1022
替 1022
牛奶 1022
至@@ 1022
命名 1021
收益 1021
流程 1021
到处 1020
周期 1020
壮@@ 1020
少数 1020
承@@ 1020
透 1020
壁@@ 1019
博物馆 1018
喜爱 1018
尚未 1018
种子 1018
选民 1018
毫无疑问 1017
长大 1017
圣经 1016
截@@ 1016
抛@@ 1016
牧师 1016
臂 1016
运作 1015
决心 1014
惊人 1014
承受 1014
卧@@ 1013
尸体 1013
耳 1013
合成 1012
对比 1012
秒 1012
要么 1012
剩下 1011
可用 1011
冲击 1010
巧@@ 1010
敏 1010
脂 1010
认真 1010
那位 1009
随时 1009
填@@ 1008
愚蠢 1008
留在 1008
重建 1008
鼻@@ 1008
y@@ 1007
人数 1007
修 1007
请@@ 1007
送到 1007
减轻 1006
头脑 1006
教练 1006
蜜@@ 1006
饮@@ 1006
丹@@ 1005
宝 1005
前进 1004
发射 1004
哈 1004
宽 1004
数学 1004
墨@@ 1003
腐@@ 1003
观看 1003
非常@@ 1003
堡 1002
干净 1002
支撑 1002
惩罚 1001
明星 1001
英格兰 1001
60 1000
友好 1000
拯救 1000
缓 1000
交换 999
女子 999
青 999
查询 998
视觉 998
露出 998
帝国 997
早晨 997
昏@@ 997
-@@ 996
金钱 996
智@@ 995
烤 995
余@@ 994
对抗 993
暗示 993
案件 993
设法 992
争@@ 991
本人 991
天然 990
蜜 990
构 989
财产 989
卫 988
干燥 988
开心 988
种植 988
凉 987
协会 987
瓦 987
睡觉 987
打破 985
阿 985
亡 984
候选人 984
窗 984
Web 983
贪@@ 983
兴@@ 982
具备 982
冠军 982
期@@ 982
泵 982
饰@@ 982
以至于 981
吸引力 981
援助 981
遭遇 981
一层 980
农村 980
既然 980
蔬菜 980
K@@ 979
医 979
猛@@ 978
疗效 978
缺少 978
么 977
略 977
饮料 977
一头 976
大卫 976
每周 976
电子邮件 976
迎@@ 976
位@@ 975
副@@ 975
形态 975
梯 975
繁荣 975
曲线 974
活力 974
阻碍 974
上涨 973
台湾 973
合并 973
省@@ 973
俗 972
唐@@ 972
朗 972
本地 972
门口 972
停 971
夺@@ 971
搅@@ 971
时光 971
回报 970
指示 970
日期 970
本来 970
民主党 970
这会 970
通信 970
夸@@ 969
注意力 968
浸@@ 968
碳 968
补@@ 968
审查 966
注册 966
闹 966
仅@@ 965
床上 965
携带 965
未能 965
酒吧 963
节点 962
苍@@ 962
缝 961
亲爱 960
实行 960
排放 960
植@@ 960
足球 960
较@@ 960
进来 960
a@@ 959
耶@@ 959
一声 958
中央 958
18@@ 957
硫@@ 957
蒂@@ 957
讲述 957
条款 956
街道 956
互@@ 955
公里 955
勇敢 955
听说 955
头上 955
婚礼 955
密度 955
据说 955
理性 955
脑 955
附@@ 955
干扰 954
得出 954
激情 954
盐@@ 954
眠 954
误@@ 954
进化 954
错@@ 954
径 953
振 953
和谐 952
姆@@ 952
情形 952
收购 952
生气 952
顾@@ 952
总结 951
北 950
同一 950
激励 950
神圣 950
艺 950
之内 949
备 949
成绩 949
啦 948
止@@ 948
变量 947
器@@ 947
劳 946
生意 946
柜 945
议员 945
写作 944
指数 944
料@@ 944
犬 944
缘 944
之上 943
瘤 943
为何 942
烧 942
败 942
恰@@ 941
癌症 941
累 941
自行车 941
个人@@ 940
冻 940
白宫 940
进去 940
卫星 939
将要 939
极其 939
极端 939
隙 939
动机 938
探 938
湾 938
激素 938
支出 937
蜂 937
黄金 937
两次 936
日益 936
照顾 936
乘@@ 935
室@@ 935
一间 934
缩 934
部件 934
保险 933
只不过 933
埋@@ 933
多次 933
首席 933
并未 932
邦 932
首都 932
它会 931
90 930
现金 930
助@@ 929
响应 929
弥@@ 929
扔 929
滋@@ 929
似 928
公 928
太阳@@ 928
种族 928
莎@@ 928
葡萄酒 928
蛋白质 928
共和党 927
温和 927
稳定性 927
青少年 927
麦 927
功能 926
加速 926
巧克力 926
巴西 926
戏 926
能否 926
透明 926
占@@ 925
夫妇 925
恋 925
真理 925
经济学家 925
诚实 925
大楼 924
古 923
咖啡@@ 923
特色 923
伙伴 922
发动机 922
岸 922
棕@@ 922
被迫 922
铺 922
互相 920
总理 920
玛 920
羽@@ 920
al@@ 919
亲 919
变形 919
售@@ 919
壮 919
式@@ 919
撒 919
研究者 919
酱 919
抓@@ 918
冠@@ 917
用品 917
肯 917
茎 917
出色 916
泥 916
呀 915
太空 915
护理 915
面积 915
齐@@ 915
偶尔 914
喊 914
尽量 914
敲@@ 914
狱 914
锻炼 914
制造商 913
性格 913
种类 913
第二@@ 913
致命 913
魔 913
发育 912
失 912
安静 912
莎 912
隆@@ 912
一阵 911
代替 911
倾@@ 911
宣称 911
推荐 911
磨 911
16 910
天使 910
岩@@ 910
沮丧 910
浪漫 910
俩 909
冠 909
常规 909
氧 909
烤@@ 909
监狱 909
究竟 909
删除 908
夜晚 908
天堂 908
抢@@ 908
约束 908
影响力 907
擦@@ 907
玉米 907
目前为止 907
巴黎 906
忍@@ 906
渐渐 906
琳 906
看作 906
课@@ 906
骗@@ 906
其次 905
胜 905
资格 905
哥@@ 904
授权 904
不满 903
汤 903
瓶@@ 903
至今 903
录@@ 902
谢谢 902
唇 901
始@@ 901
炎@@ 901
斗@@ 900
配合 900
供应商 899
布朗 899
幻想 899
构造 899
穴 899
黑人 899
三年 898
促使 898
婆 898
忍受 898
架@@ 898
工作@@ 897
缺@@ 897
袭 897
超级 897
队伍 897
19@@ 896
崩溃 896
铁路 896
与此同时 895
两人 895
传感器 895
净 895
放置 895
降 895
共享 894
古代 894
呼吁 894
圆形 894
柄 894
焦@@ 894
与其 893
塑@@ 893
带到 893
延长 893
议会 892
键@@ 891
北部 890
用作 890
第二个 890
优点 889
成果 889
整天 889
有力 889
移 889
鸟@@ 889
上去 888
控件 888
拿出 887
付 886
摩 886
教徒 886
替代 885
燃@@ 885
速@@ 885
企图 884
座@@ 884
悄@@ 884
负担 884
公寓 883
吹 883
圣 883
层次 883
干预 883
杀死 883
钟@@ 883
加以 882
立场 882
井@@ 881
易于 880
滚 880
爬@@ 880
舒@@ 880
单元 879
推进 879
王子 879
缝@@ 879
重视 879
一台 878
克服 878
厌@@ 878
赋予 878
丢@@ 877
保障 877
嗯 877
奥 877
尚 877
交谈 876
刷 876
化合物 876
哪个 876
地下 876
愿望 876
扩张 876
橡@@ 876
答 876
难道 876
O@@ 875
决策 875
历史@@ 875
插入 875
融@@ 875
传输 874
窗口 874
股市 874
脱离 874
融合 874
认可 874
锋 874
剑 873
原料 873
啤酒 873
市场@@ 873
户@@ 873
穆斯林 873
险 873
80 872
协助 872
望@@ 872
浅 872
跟@@ 872
s@@ 871
场所 871
排除 871
组成部分 871
锅 871
阀 871
世界@@ 870
仿真 870
参考 870
君@@ 870
效 870
祂 870
站@@ 870
缓解 870
进口 870
邪恶 870
伴随 869
户 869
鹿 869
品种 868
国外 868
奥运会 868
序 868
森@@ 868
勤@@ 867
够 867
双手 866
地图 866
忽略 866
湿 866
继@@ 866
众 865
化学@@ 865
商人 865
垂@@ 865
太多 865
控制@@ 865
清理 865
第三 865
衰退 865
Q@@ 864
帽 864
平等 864
执@@ 864
接口 864
基督教 863
大众 863
妇@@ 863
收 863
狼 863
引入 862
盯 862
破产 862
迫使 862
内在 861
冬天 861
坚定 861
归 861
有机 861
统计 861
缓@@ 861
顾问 861
寻常 860
护 860
描@@ 860
经典 860
奔@@ 859
必然 859
日常 859
有没有 859
混凝土 859
雌@@ 859
颗 859
善@@ 858
延@@ 858
产量 857
关节 857
同步 857
汤姆 857
符号 857
肢 857
不起 856
齿 856
乔治 855
房地产 855
消耗 855
不论 854
动脉 854
单词 854
向前 854
忘@@ 854
所示 854
振动 854
术@@ 854
术语 854
译@@ 854
14 853
搞@@ 853
痕 853
熔@@ 852
爆@@ 852
舰 852
设计师 852
采购 852
2008 851
人工 851
勒@@ 851
屋@@ 851
摆 851
咨询 850
桌子 850
人才 849
智 849
活跃 849
良@@ 849
13 848
以往 848
光线 848
待@@ 848
放到 848
桌 848
氧化@@ 848
膏 848
忽视 847
灵活 847
相机 847
透过 847
部署 847
才@@ 846
持有 846
清除 846
工程师 845
从前 844
千 844
捷 844
游泳 844
远远 844
手里 843
灰色 843
牙齿 843
由此 843
食用 843
原子 842
奶 842
练 842
固 841
接收 841
缸 841
聚 841
谈@@ 841
阶级 841
频 841
世界各地 840
墨西哥 840
合法 839
封 839
展现 839
铺@@ 839
际 839
鼻子 839
人民币 838
什么样 838
倦 838
广场 838
敌 838
毕业 838
纱 838
邻居 838
一个月 837
信贷 837
大声 837
无限 837
碗 837
出发 836
营销 836
钉 836
颗粒 836
洛 835
界面 835
获 835
主体 834
体育@@ 834
基本上 834
差不多 834
忽@@ 834
画面 834
职 834
质疑 834
钢 834
偷 833
斯特@@ 833
模块 833
砂@@ 833
县 832
宁 832
就算 832
抬@@ 832
改造 832
疑@@ 832
脉@@ 832
名为 831
布莱@@ 831
海军 831
演出 831
瓣 831
舒服 831
逆@@ 831
哭@@ 830
留 830
真相 830
蓝 830
乘客 829
便宜 829
农场 829
利比亚 829
单一 829
欲望 829
舍 829
X 828
扫@@ 828
表情 828
铜@@ 828
主意 827
已有 827
师@@ 827
监督 827
跌@@ 827
加州 826
纹@@ 826
颈@@ 826
E 825
以此 825
启@@ 825
棒@@ 825
热量 825
孤独 824
送给 824
处在 823
庞大 823
匠 822
工作人员 822
拜@@ 822
攻@@ 822
社交 822
精 822
绕@@ 822
衫 822
话@@ 822
陆@@ 822
零 822
察@@ 821
恐怖 821
慢@@ 821
监测 821
目光 821
禁 821
童@@ 821
耳朵 821
股东 821
可行 820
听见 820
欺骗 820
催@@ 819
礼貌 819
弃 818
路线 818
味@@ 817
江 817
生态 817
风暴 817
U@@ 816
拆@@ 816
操@@ 816
分裂 815
网络@@ 815
回归 814
弹性 814
丹 813
升级 813
译 813
谴责 813
银 813
音乐@@ 813
型@@ 812
气氛 812
浓度 812
肾@@ 812
裁@@ 812
说服 812
铜 812
婚 811
幸@@ 811
椅子 811
滩 811
询问 811
季 810
故@@ 810
昂贵 810
积 810
愈@@ 809
欲@@ 809
氏 809
瞬间 809
诉讼 809
距 809
靠@@ 809
小小的 808
提示 808
波动 808
牺牲 808
玉@@ 808
补偿 808
骑 808
k@@ 807
季节 807
悲伤 807
G 806
免@@ 806
折 806
玻璃@@ 806
纪念 806
聚会 806
街@@ 806
伴侣 805
大幅 805
审判 805
浮 805
讽刺 805
金融@@ 805
一大@@ 804
六 804
匆@@ 804
卑@@ 804
危害 804
发光 804
好好 804
帽子 804
暴露 804
润 804
短暂 804
舞台 804
娱乐 803
扫描 803
肯@@ 803
体育 802
按钮 802
矿 802
祈祷 802
耐心 802
虎 802
amp 801
个体 801
安全@@ 801
害 801
施工 801
泪@@ 801
约会 801
找出 800
旁@@ 800
树木 800
熊@@ 800
谦@@ 800
一杯 799
怀 799
歌曲 799
粒子 799
一刻 798
甚@@ 798
看出 798
经济@@ 798
绝望 798
认@@ 798
贫困 798
驾驶 798
困扰 797
恋@@ 797
焦虑 797
装备 797
不住 796
主张 796
延伸 796
懒@@ 796
衡量 796
各自 795
屋顶 795
所知 795
政权 795
文件@@ 795
没什么 795
认知 795
两者 794
公正 794
怎么样 794
议 794
跟着 794
路径 794
违反 794
乡@@ 793
发行 793
忌 793
挑@@ 793
春 793
是@@ 793
种@@ 793
菌@@ 793
村@@ 792
谈到 792
退出 792
搞 791
殿 791
碰@@ 791
偶@@ 790
数值 790
更是 790
狗@@ 790
余 789
测 789
阿尔@@ 789
19 788
不敢 788
举办 788
体制 788
再也 788
场合 788
家具 788
活性 788
莉@@ 788
诸@@ 788
陶@@ 788
驾@@ 787
免疫 786
坐下 786
气候变化 786
笼@@ 786
起到 786
遵守 786
500 785
凡@@ 785
在内 785
地带 785
构@@ 785
行政 785
2010 784
d@@ 784
便是 784
氧@@ 784
试着 784
墙上 783
市@@ 783
暖@@ 783
检@@ 783
葡萄@@ 783
锁@@ 783
鼠@@ 783
70 782
今后 782
均匀 782
墨 782
恐@@ 782
支持者 782
玩家 782
罐 782
腾 782
转化 782
退休 782
200 781
体重 781
告知 781
扬@@ 781
推广 781
朗@@ 781
档 781
主动 780
产物 780
珠@@ 780
祭@@ 780
边界 780
阵 780
很小 779
耗@@ 779
室内 778
气味 778
浴 778
脆弱 778
密码 777
这张 777
题 777
先进 776
创 776
宪法 776
引擎 776
拔 776
掌 776
汤@@ 776
海滩 776
迟@@ 776
重要性 776
沙漠 775
补 775
青年 775
义务 774
付@@ 774
储存 774
公路 774
即可 774
塑 774
急 774
播@@ 774
模仿 774
受害者 773
导弹 773
怒@@ 773
拉斯 773
校 773
贫穷 773
具@@ 772
卫@@ 772
擦 772
每当 772
深度 772
狂 772
育 772
膝@@ 772
从不 771
向上 771
常用 771
现状 771
立法 771
蜡@@ 771
批@@ 770
牧@@ 770
精力 770
个性 769
南方 769
应力 769
海外 769
瑟 769
离子 769
笨@@ 769
苏格兰 769
遗传 769
将军 768
开支 768
弯曲 768
念@@ 768
近年来 767
吐@@ 766
奏 766
怀孕 766
负@@ 766
O 765
器官 765
罐@@ 765
贫@@ 765
辩论 765
任意 764
劲 764
同性恋 764
就业 764
开车 764
把@@ 764
责@@ 764
默 764
N 763
临 763
回去 763
涂 763
舱 763
原本 762
熟 762
绿 762
缺点 762
诗人 762
) 761
21 761
汇@@ 761
茨 761
阳 761
明年 760
激光 760
芬@@ 760
鹰 760
吃饭 759
定期 759
撕@@ 759
芽 759
t 758
伪@@ 758
劳动 758
恶化 758
村 758
设立 758
骂 758
大气 757
确@@ 757
税收 757
美联储 757
肚@@ 757
鹅 757
微生物 756
编码 756
重量 756
丧失 755
移植 755
裸@@ 755
谢@@ 755
妈 754
字符 754
环保 754
推 753
百 753
肌 753
肿 753
叹 752
各地 752
提议 752
分为 751
同情 751
层面 751
春天 751
最小 751
示例 751
签署 751
永恒 750
清洗 750
窝 750
险@@ 750
颤@@ 750
咬 749
扣 749
服务@@ 749
水中 749
用途 749
织 749
镜@@ 749
高效 749
信念 748
改 748
杂 748
激发 748
炸弹 748
电路 748
吃惊 747
害@@ 747
弗 747
抹 747
牢@@ 747
通用 747
下跌 746
哪@@ 746
央行 746
析 746
港 746
铸@@ 746
两位 745
仙@@ 745
建筑@@ 745
抓 745
效@@ 745
爱尔兰 745
社会主义 745
莓 745
醉 745
初步 744
区@@ 744
徒@@ 744
毁 744
海水 744
电流 744
裙 744
医@@ 743
激动 743
轻易 743
17 742
一处 742
中国@@ 742
唯@@ 742
墓 742
斑 742
旨在 742
窗户 742
阶 742
下载 741
召@@ 741
唤 741
称之为 741
苏联 741
设定 741
遗憾 741
圈@@ 740
家长 740
深处 740
纵@@ 740
躁 740
乐队 739
回收 739
土耳其 739
安慰 739
汽@@ 739
顺利 739
分析师 738
管理@@ 738
英国人 738
逝 738
( 737
一度 737
勇@@ 737
坑 737
尔斯 737
尼斯 737
感激 737
棉@@ 737
酷 737
24 736
扇 736
灭@@ 736
翅@@ 736
图书馆 735
有利于 735
欧元 735
级别 735
旅@@ 734
一类 733
却@@ 733
死去 733
焦点 733
瑟@@ 733
粒@@ 733
荷兰 733
镜头 733
书籍 732
嘉@@ 732
大胆 732
建筑物 732
疗法 732
这名 732
迷人 732
a 731
决@@ 731
名单 731
块@@ 731
字母 731
安全性 731
程序@@ 731
派@@ 730
羞@@ 730
脖@@ 730
不变 729
乘 729
传说 729
发现自己 729
签名 729
参观 728
富 728
注入 728
辅助 728
阐述 728
凉@@ 727
制备 727
寒@@ 727
拔@@ 727
私 727
遥远 727
一人 726
放入 726
词汇 726
从中 725
寒冷 725
注射 725
生产@@ 725
准 724
宠物 724
总会 724
某人 724
河流 724
丛 723
坛 723
朱@@ 723
疏@@ 723
稍@@ 723
节奏 723
进攻 723
― 722
外观 722
巢 722
治理 722
致力于 722
低于 721
加热 721
控@@ 721
握@@ 721
搬@@ 721
自杀 721
集合 721
DNA 720
少量 720
码@@ 720
该国 720
冒 719
局部 719
明智 719
保罗 718
孙@@ 718
淋@@ 718
玫瑰 718
腐败 718
隆 718
患@@ 717
掌@@ 717
不如 716
之所以 716
占据 716
图案 716
形势 716
褐@@ 716
购物 716
乡 715
名叫 715
杯@@ 715
沃尔@@ 715
麻 715
仁@@ 714
反射 714
哥 714
挺 714
昨天 714
有利 714
现代化 714
视图 714
一所 713
压缩 713
垂直 713
头部 713
寂@@ 713
提前 713
F 712
加快 712
后者 712
政治家 712
曾@@ 712
极为 712
柱@@ 712
欧元区 712
火山 712
诚 712
这方面 712
抖 711
水面 711
敢 710
节日 710
鸡蛋 710
另一方面 709
并不@@ 709
想想 709
有害 709
畅@@ 709
眼前 709
竟然 709
营养@@ 709
许@@ 709
部长 709
为主 708
惠@@ 708
祝福 708
最低 707
紧急 707
至关重要 707
一大 706
炉@@ 706
争 705
治@@ 705
犹太人 705
秋@@ 705
财@@ 705
内存 704
夏季 704
征@@ 704
新兴 704
枯@@ 704
主管 703
乐趣 703
免疫@@ 703
减 703
单击 703
坝 703
将@@ 703
嵌@@ 703
棵 703
玛丽 703
现代@@ 703
站点 703
R 702
一幅 702
之类 702
乡村 702
交给 702
几分钟 702
氧化 702
涌@@ 702
深深 702
腰 702
航空 702
鬼@@ 702
前提 701
好象 701
弯@@ 701
穷@@ 701
运动@@ 701
酪 701
陷 701
强迫 700
猜@@ 700
讨@@ 700
诞 700
院@@ 700
奢@@ 699
旅馆 699
案例 699
轴@@ 699
鞋@@ 699
骄傲 699
典@@ 698
沿 698
租@@ 698
诱惑 698
遇 698
商业@@ 697
测试@@ 697
织@@ 697
著@@ 697
裤@@ 697
交易@@ 696
数目 696
株 696
超出 696
几周 695
历@@ 695
录 695
微软 695
股@@ 695
部落 695
餐馆 695
2009 694
政@@ 694
早已 694
汇率 694
火星 694
东部 693
五年 693
复合 693
桃 693
编写 693
伏@@ 692
刘@@ 692
折磨 692
严肃 691
势力 691
吓@@ 691
氨@@ 691
海上 691
争取 690
大学生 690
扫 690
源于 690
继承 690
哀@@ 689
梁 689
绝 689
网页 689
航 689
莱 689
言论 689
这点 689
鉴于 689
傻@@ 688
割@@ 688
尔顿 688
扭@@ 688
秀 688
臭@@ 688
范@@ 688
阻 688
顿@@ 688
做成 687
尝 687
庄@@ 687
急性 687
技@@ 687
支 687
桃@@ 687
而来 687
脂@@ 687
因子 686
奇迹 686
币 686
签@@ 686
肤 686
迈@@ 686
惨@@ 685
故意 685
本周 685
浦 685
第三@@ 685
有益 684
汗 684
潜力 684
狂热 684
高尔@@ 684
吐 683
星球 683
有权 683
荣 683
赖@@ 683
高于 683
国际@@ 682
罕见 682
许可 682
十 681
合金 681
娃 681
宝石 681
晨 681
栖@@ 681
独自 681
粮食 681
反而 680
威 680
实体 680
日志 680
杰克@@ 680
球迷 680
病例 680
筋 680
销售@@ 680
原谅 679
发性 679
口袋 679
寻@@ 679
差别 679
幽默 679
较为 679
过分 679
远程 679
集成 679
势@@ 678
学科 678
谷@@ 678
卡车 677
大海 677
碎@@ 677
赤@@ 677
闷 677
马克 677
含义 676
困惑 676
尊敬 676
慢性 676
煤 676
一眼 675
去世 675
布鲁@@ 675
扩散 675
监控 675
蔽 674
贝 674
财务 674
金融危机 674
顺 674
鸣 674
冷却 673
堪@@ 673
意志 673
拳@@ 673
无需 673
之地 672
分解 672
洲 672
烦@@ 672
经济学 672
证书 672
圣诞节 671
万美元 670
区分 670
唤@@ 670
懂得 670
整理 670
水分 670
沟 670
精度 670
订@@ 670
跨 670
道歉 670
几十年 669
扑@@ 669
标题 669
瑞 669
艺@@ 669
为止 668
吓 668
摧毁 668
桩 668
武装 668
甜 668
穷人 668
虚 668
衬@@ 668
队员 668
弯 667
很长 667
样品 667
滴@@ 667
瑞士 667
说出 667
辞 667
随机 667
保守 666
兔@@ 666
入侵 666
喉@@ 666
手臂 666
等到 666
终止 666
营@@ 666
蛋糕 666
融资 666
道理 666
难题 666
揭示 665
晚餐 665
办 664
增大 664
尴尬 664
池@@ 664
友谊 663
径@@ 663
无可@@ 663
称作 663
随意 663
家中 662
尊@@ 662
性别 662
腺@@ 662
芬 662
两天 661
冲动 661
逼@@ 661
都@@ 661
项@@ 661
髓 661
优先 660
富裕 660
染 660
氢@@ 660
渗@@ 660
犯@@ 660
遵循 660
不见 659
售 659
寻 659
寿命 659
火焰 659
规@@ 659
近期 659
宿@@ 658
流量 658
电压 658
的@@ 658
看待 658
碰到 658
伴 657
佳 657
全身 657
凸@@ 657
峡@@ 657
年前 657
恐怕 657
突破 657
竞@@ 657
雇员 657
鲍@@ 657
代谢 656
伴@@ 656
先前 656
凶@@ 656
畏 656
竞争对手 656
载@@ 656
选手 656
郎 656
顺序 656
伍@@ 655
分开 655
反复 655
团@@ 655
尽管如此 655
挂@@ 655
不像 654
公主 654
欣@@ 654
漏@@ 654
碎片 654
胃 654
胎 654
闭 654
大门 653
姿@@ 653
戈@@ 653
洪水 653
电力 653
硅@@ 653
简化 653
萝@@ 653
行走 653
s 652
剪 652
史蒂@@ 652
宏@@ 652
局面 652
拿到 652
查 652
点儿 652
狼@@ 652
猪@@ 652
丛@@ 651
冥@@ 651
南非 651
无数 651
此事 651
版@@ 651
狭窄 651
轰@@ 651
图形 650
智能 650
轨 650
克里@@ 649
哲@@ 649
而成 649
全新 648
厌恶 648
发起 648
实力 648
慈@@ 648
泰国 648
确信 648
等级 648
职责 648
阴影 648
一艘 647
上方 647
储@@ 647
患有 647
收缩 647
球场 647
葬 647
语法 647
诸如 647
例外 646
兆 646
妇 646
幻 646
弱@@ 646
损坏 646
旅程 646
柏@@ 646
绒 646
赶 646
er 645
仪器 645
分散 645
千年 645
强制 645
形容 645
点击 645
侵犯 644
冬@@ 644
参与者 644
字符串 644
开关 644
投 644
炮 644
烦 644
磷@@ 644
霜 644
妆@@ 643
摄影@@ 643
椒 643
欢乐 643
系@@ 643
胺 643
走过 643
迈克尔 643
共 642
惑 642
演奏 642
穿越 642
脑袋 642
膨胀 642
赤字 642
跃 642
之际 641
借 641
嘲笑 641
敢@@ 641
整 641
早就 641
高速 641
不出 640
宝宝 640
忠诚 640
设想 640
对付 639
序列 639
披@@ 639
糖尿病 639
英寸 639
董事会 639
V 638
汽车@@ 638
骗 638
分泌 637
力学 637
无关 637
正好 637
眼镜 637
自我@@ 637
频繁 637
三角@@ 636
不利 636
拖 636
显 636
欺@@ 636
远处 636
华尔街 635
卡扎菲 635
沿@@ 635
瘦@@ 635
稳@@ 635
逐步 635
上来 634
依旧 634
刮@@ 634
削弱 634
句@@ 634
只好 634
州@@ 634
征 634
收获 634
昆虫 634
酒精 634
宾 633
漫长 633
登记 633
大多 632
威廉 632
庆@@ 632
沉重 632
泳@@ 632
严厉 631
傲@@ 631
外交 631
意图 631
猫@@ 631
生日 631
纯粹 631
防 631
令@@ 630
何时 630
助 630
外表 630
慕 630
斥 630
爽 630
瘾 630
眉@@ 630
这句 630
基本@@ 629
热爱 629
疗 629
英 629
订单 629
颇@@ 629
高速公路 629
2007 628
不可避免 628
五个 628
亿@@ 628
伞 628
同一个 628
奥斯@@ 628
总体 628
意愿 628
正当 628
烦恼 628
电影@@ 628
篮@@ 628
初 627
十字@@ 627
坦 627
必需 627
架构 627
此前 627
永久 627
狮子 627
纯 627
菜单 627
震惊 627
专注 626
奋@@ 626
平面 626
恰当 626
挖@@ 626
普通@@ 626
每日 626
渣 626
盆 626
种种 626
舌@@ 626
二十@@ 625
坞 625
处理@@ 625
廊 625
描绘 625
政客 625
证@@ 625
及@@ 624
吉 624
救援 624
泉 624
紧缩 624
芒 624
蛋@@ 624
贵族 624
今晚 623
疼 623
船只 623
赢 623
住@@ 622
困 622
惊奇 622
活着 622
清醒 622
溜@@ 622
英国@@ 622
郡 622
倾斜 621
吸烟 621
沉默 621
稍 621
管理员 621
草地 621
丑@@ 620
住宅 620
整合 620
此刻 620
生物学 620
绑@@ 620
卜 619
示 619
袋@@ 619
跨@@ 619
反馈 618
埃 618
短期 618
舰@@ 618
艺术@@ 618
阔 618
一股 617
作物 617
免 617
当代 617
战士 617
司法 616
大会 616
扎 616
样本 616
毁灭 616
辣@@ 616
预言 616
叠 615
善良 615
摔@@ 615
炼@@ 615
药品 615
菲 615
辨@@ 615
I@@ 614
一副 614
太阳能 614
女王 614
抛弃 614
持久 614
挡@@ 614
操纵 614
散步 614
服用 614
耻 614
几次 613
渗透 613
虾 613
资本主义 613
之处 612
方程 612
来临 612
润@@ 612
热带 612
虚拟 612
刚才 611
尽力 611
悲剧 611
神话 611
胳@@ 611
诗歌 611
魔法 611
不良 610
休 610
友@@ 610
拥抱 610
现实@@ 610
盲@@ 610
纽约@@ 610
隔离 610
新加坡 609
作战 608
充足 608
帮@@ 608
注定 608
痴@@ 608
矩 608
稍微 608
系数 608
踢 608
首相 608
上市 607
停留 607
午餐 607
奏@@ 607
巡@@ 607
左 607
心脏病 607
拌 607
权威 607
猩@@ 607
纪录 607
衬衫 607
附加 607
举动 606
孟@@ 606
砖 606
绳 606
维生素 606
诞生 606
丘@@ 605
官@@ 605
教训 605
氮 605
火箭 605
金属@@ 605
er@@ 604
o 604
一款 604
冻@@ 604
四周 604
妹妹 604
时机 604
猜测 604
硬件 604
糊@@ 604
芳@@ 604
亿 603
各种各样 603
忠@@ 603
树林 603
树脂 603
相当于 603
这片 603
饭@@ 603
一架 602
人心 602
俗@@ 602
国家@@ 602
密封 602
总部 602
掉@@ 602
早餐 602
荣誉 602
鞋子 602
喊@@ 601
嫉@@ 601
带给 601
弥补 601
成人 601
歇@@ 601
氏@@ 601
皱@@ 601
幕@@ 600
杨@@ 600
柯@@ 600
灯光 600
织物 600
运营 600
中国政府 599
促 599
舞蹈 599
获@@ 599
保守@@ 598
候 598
创意 598
口气 598
抵达 598
梯@@ 598
正面 598
软件@@ 598
轻微 598
迭@@ 598
通讯 598
丢 597
今日 597
兽@@ 597
学术 597
旗@@ 597
膜@@ 597
街上 597
遭 597
集体 597
驶@@ 597
人家 596
兵@@ 596
埋 596
机械@@ 596
表格 596
一遍 595
再生 595
模板 595
潮湿 595
艘 595
赫 595
错过 595
/ 594
一同 594
初期 594
模 594
浏览 594
黏@@ 594
伸出 593
呆@@ 593
天赋 593
月球 593
泣 593
生活@@ 593
累@@ 593
谎 593
不让 592
堵@@ 592
枝@@ 592
辑 592
过滤 592
陪 592
对应 591
崇拜 591
打印 591
持@@ 591
有限公司 591
破裂 591
福音 591
高中 591
今@@ 590
出席 590
包裹 590
垃圾@@ 590
季@@ 590
税@@ 590
认证 590
一笔 589
佳@@ 589
屏@@ 589
捉@@ 589
极度 589
生理 589
几 588
挖掘 588
据@@ 588
牌@@ 588
秩序 588
偶 587
偶然 587
天才 587
帐户 586
座位 586
强化 586
手工 586
斯顿 586
木材 586
海盗 586
番@@ 586
离婚 586
酯 586
会计 585
信用 585
僵@@ 585
剂量 585
奖励 585
杰 585
繁殖 585
肥胖 585
加剧 584
卵 584
历 584
召开 584
抵抗 584
无情 584
育@@ 584
俯@@ 583
值@@ 583
印刷 583
天然气 583
寒 583
杖 583
维修 583
考验 583
资助 583
运转 583
分歧 582
希 582
抵押 582
琴@@ 582
男 582
观测 582
逐 582
钙 582
举措 581
外界 581
微小 581
最早 581
款@@ 581
沼@@ 581
祖先 581
肿@@ 581
财 581
~ 580
丙@@ 580
享有 580
扔@@ 580
扭曲 580
扮 580
自主 580
不清 579
依赖于 579
子里 579
指向 579
摄影 579
无力 579
漏 579
电视@@ 579
纽@@ 579
链@@ 579
顽@@ 579
乐意 578
劝@@ 578
失业 578
考察 578
吵@@ 577
百万 577
碱 577
缠@@ 577
脾气 577
铝@@ 577
阿拉伯 577
亨利 576
分析@@ 576
参议员 576
弟@@ 576
映射 576
毫不@@ 576
洒 576
翼@@ 576
可靠性 575
圣诞@@ 575
当年 575
晕 575
泡@@ 575
烈@@ 575
盒子 575
祷@@ 575
o@@ 574
不上 574
专利 574
城镇 574
奈@@ 574
小麦 574
摸@@ 574
操 574
残酷 574
述 574
逮捕 574
顾 574
右 573
太平洋 573
导航 573
无论如何 573
皇家 573
贝尔 573
起诉 573
雇主 573
兴 572
单个 572
抱@@ 572
苹果@@ 572
詹姆斯 572
三种 571
习@@ 571
剖@@ 571
绘画 571
回顾 570
密切 570
工艺@@ 570
态@@ 570
敬 570
消化 570
绵@@ 570
肩 570
自豪 570
话语 570
不知@@ 569
几种 569
凹@@ 569
小男孩 569
掩@@ 569
程@@ 569
童 569
胰@@ 569
船舶 569
诚@@ 569
越南 569
哪怕 568
糟 568
翻 568
这条 568
里斯 568
an@@ 567
下次 567
变革 567
对策 567
愚@@ 567
放大 567
港口 567
上班 566
东方 566
升高 566
戏剧 566
点燃 566
码头 566
_ 565
i 565
从来不 565
坎@@ 565
填充 565
尽快 565
无聊 565
疲劳 565
积累 565
访 565
迁移 565
K 564
仪@@ 564
全球化 564
冰箱 564
刷@@ 564
得知 564
攀@@ 564
流感 564
肝@@ 564
通胀 564
关键@@ 563
判决 563
匹 563
月亮 563
栓 563
毒品 563
追踪 563
饥饿 563
2000 562
叶片 562
志@@ 562
探测 562
船上 562
账户 562
饱@@ 562
下滑 561
中断 561
借口 561
停下来 561
单纯 561
哈利 561
广告@@ 561
椭@@ 561
紧密 561
默认 561
仔@@ 560
史密斯 560
喧@@ 560
帮忙 560
渡@@ 560
猩 560
美国政府 560
辆 560
坠@@ 559
奋 559
奴隶 559
年度 559
扑 559
监@@ 559
角落 559
重组 559
不时 558
仍@@ 558
凭 558
利物@@ 558
海底 558
炮@@ 558
遗传@@ 558
闹@@ 558
一方 557
仑 557
壶 557
景象 557
橄榄@@ 557
赔偿 557
上下 556
人权 556
挡 556
洛杉矶 556
碰撞 556
论述 556
辉 556
缀 555
高温 555
亲密 554
仁 554
仰@@ 554
去除 554
搬 554
跳舞 554
镜子 554
主流 553
交往 553
列出 553
困@@ 553
大厅 553
拥@@ 553
播放 553
消防@@ 553
确切 553
缘@@ 553
面试 553
频@@ 553
予以 552
在家 552
履行 552
挣扎 552
政党 552
稻@@ 552
修正 551
基因@@ 551
婪 551
导演 551
庆 551
搭配 551
盈利 551
竞争力 551
里克 551
发动 550
屑 550
葡萄 550
递@@ 550
钠 550
围 549
大地 549
护士 549
捉 549
脉 549
腐蚀 549
蔓延 549
设计@@ 549
2@@ 548
子女 548
排列 548
格兰@@ 548
白天 548
笔记@@ 548
赚 548
洪@@ 547
淹@@ 547
钢琴 547
两名 546
仔 546
伟 546
延迟 546
法规 546
溢@@ 546
监视 546
翁 546
认同 546
趣 546
一番 545
冷静 545
咬@@ 545
播 545
未经 545
浑@@ 545
精彩 545
索引 545
置信 545
肺 545
英文 545
迫@@ 545
不定 544
侵@@ 544
战场 544
激活 544
煮 544
臭 544
迄今为止 544
迎接 544
东京 543
剑@@ 543
否定 543
城堡 543
奉@@ 543
宴 543
差距 543
故 543
泄漏 543
焊接 543
终 543
阶层 543
齿@@ 543
乎@@ 542
四年 542
回复 542
技 542
提名 542
街头 542
计算机@@ 542
郁@@ 542
采 542
北方 541
卸@@ 541
大大 541
帕 541
抵@@ 541
眼泪 541
答应 541
航空公司 541
蒸汽 541
伊斯兰 540
债 540
名词 540
大自然 540
尺 540
编程 540
荧@@ 540
购 540
仆人 539
克林顿 539
律@@ 539
有机@@ 539
磅 539
草原 539
谋 539
赐@@ 539
霉@@ 539
变更 538
大国 538
对称 538
弦 538
彼得 538
扶@@ 538
抚@@ 538
狄@@ 538
窃@@ 538
论坛 538
钓@@ 538
铃@@ 538
卡尔 537
哥哥 537
善 537
噢 537
巫@@ 537
席@@ 537
拐@@ 537
漠 537
见面 537
过渡 537
银行家 537
光明 536
冬季 536
动力学 536
国民 536
影像 536
映@@ 536
止 536
眼中 536
经济体 536
雾@@ 536
志 535
抽象 535
无法@@ 535
精英 535
舍@@ 535
虎@@ 535
铝 535
韧@@ 535
发酵 534
听众 534
囊@@ 534
姐姐 534
广 534
廉价 534
消灭 534
稿 534
罗伯特 534
劳动力 533
多样性 533
应付 533
损 533
生涯 533
评 533
雀 533
飞行员 533
22 532
300 532
付款 532
吸 532
白人 532
黎@@ 532
价值观 531
挑选 531
推翻 531
正义 531
爷 531
置于 531
自从 531
铅@@ 531
雷达 531
on 530
一百@@ 530
凌@@ 530
句子 530
家乡 530
度假 530
强有力 530
抱歉 530
担保 530
揭@@ 530
教学@@ 530
票@@ 530
误解 530
过后 530
情愿 529
操作系统 529
汗@@ 529
竟 529
罢@@ 529
蚁 529
逃避 529
需@@ 529
颜@@ 529
动荡 528
地毯 528
工程@@ 528
泄 528
烈 528
矮@@ 528
责 528
走上 528
不去 527
不可思@@ 527
判@@ 527
更换 527
氛围 527
猴@@ 527
看似 527
翔 527
言语 527
辞@@ 527
钥匙 527
交通@@ 526
似@@ 526
信用卡 526
大鼠 526
天生 526
已知 526
广阔 526
术后 526
村庄 526
烛 526
风景 526
二氧化碳 525
卫生@@ 525
握 525
柠@@ 525
研制 525
膊 525
连接@@ 525
通用@@ 525
不太 524
坚强 524
恐慌 524
斯坦 524
橡胶 524
洋 524
车站 524
遍 524
亲自 523
划分 523
勾@@ 523
印度@@ 523
厨@@ 523
周一 523
摩擦 523
暖 523
梳@@ 523
群众 523
肖@@ 523
航行 523
节省 523
乔 522
宝贵 522
强劲 522
无所@@ 522
毕竟 522
毫无@@ 522
猜 522
福利 522
胎儿 522
评@@ 522
贾@@ 522
这笔 522
飞船 522
乘坐 521
当今 521
当成 521
成千上万 521
提及 521
课题 521
防御 521
不堪 520
交叉 520
任命 520
匹@@ 520
战胜 520
推迟 520
鸟类 520
做些 519
帝@@ 519
承 519
指望 519
条约 519
用以 519
腔@@ 519
落后 519
这使 519
部@@ 519
鉴定 519
2005 518
传达 518
桥@@ 518
烘@@ 518
疑 518
真诚 518
稳 518
竹@@ 518
虫@@ 518
辈 518
噪音 517
定制 517
山脉 517
技术@@ 517
撞@@ 517
溶液 517
紧紧 517
茄 517
邻@@ 517
变为 516
小女孩 516
悠@@ 516
来讲 516
盗@@ 516
绑 516
下文 515
丘 515
仿@@ 515
基础设施 515
夜间 515
少年 515
序@@ 515
拥挤 515
档案 515
气管 515
着手 515
自动化 515
资 515
陌生人 515
中部 514
外国人 514
大西洋 514
虔@@ 514
解除 514
谱@@ 514
不动 513
供给 513
假期 513
加利福@@ 513
地下@@ 513
大厦 513
带领 513
引 513
汽油 513
燕@@ 513
败@@ 513
赏 513
醉@@ 513
间接 513
有效性 512
等于 512
缺 512
职@@ 512
起初 512
一看 511
保 511
储备 511
帐@@ 511
怨@@ 511
控制器 511
新娘 511
杆菌 511
波兰 511
解决问题 511
克莱@@ 510
净@@ 510
厘米 510
大选 510
姐妹 510
旅 510
纠@@ 510
编 510
萧条 510
览 510
0 509
IT 509
其余 509
吨 509
意味 509
证券 509
U 508
一体 508
厂@@ 508
叛@@ 508
家庭@@ 508
岛屿 508
无人 508
歌手 508
秒@@ 508
聊天 508
视角 508
计算@@ 508
+ 507
向下 507
姿态 507
市民 507
慈善 507
腐 507
一方面 506
优质 506
击败 506
包围 506
号@@ 506
天文@@ 506
尚@@ 506
敞@@ 506
旋 506
时报 506
景观 506
笑话 506
这类 506
回事 505
延续 505
猛 505
藉 505
龟 505
2006 504
倍@@ 504
放下 504
百姓 504
经济衰退 504
豹 504
辉煌 504
过多 504
马车 504
一代 503
丢失 503
减小 503
嚼 503
招聘 503
涡@@ 503
炸@@ 503
王国 503
群岛 503
避开 503
世界杯 502
主权 502
人性 502
川 502
筛选 502
负载 502
伤口 501
射线 501
布拉@@ 501
感动 501
成年 501
换句话说 501
接到 501
某种程度 501
标识 501
沃 501
瑞典 501
用户@@ 501
跟随 501
不但 500
容忍 500
暂停 500
有意 500
检 500
水泥 500
潮@@ 500
穷 500
第二次 500
纤维@@ 500
缩短 500
解放 500
走廊 500
逃离 500
35 499
上个月 499
传送 499
宇航@@ 499
手上 499
灭绝 499
联赛 499
荡@@ 499
高潮 499
人为 498
偏见 498
叙利亚 498
征服 498
治愈 498
法国@@ 498
溃@@ 498
竖@@ 498
评论@@ 498
转动 498
辞职 498
边境 498
SO@@ 497
保险@@ 497
剥@@ 497
十二@@ 497
发达 497
叹@@ 497
愤@@ 497
慷慨 497
插 497
政治@@ 497
渠道 497
秘@@ 497
芭@@ 497
诊 497
名义 496
泛@@ 496
终结 496
融入 496
陆地 496
齿轮 496
不在@@ 495
处理器 495
居然 495
康复 495
心理学 495
挺@@ 495
推测 495
果实 495
毫不 495
社@@ 495
艾滋病 495
陋 495
伙@@ 494
缅甸 494
芝加哥 494
in@@ 493
岸@@ 493
挤 493
栏@@ 493
虽 493
避@@ 493
上次 492
企业家 492
团结 492
对不起 492
德尔 492
拨@@ 492
指令 492
父@@ 492
研发 492
类别 492
系统@@ 492
脆 492
薪 492
辣 492
陆 492
题@@ 492
坚决 491
夏 491
奔 491
实质 491
庄 491
烟草 491
痕迹 491
相处 491
纷@@ 491
蝶 491
诸多 491
ava 490
丸 490
乏@@ 490
兼@@ 490
出血 490
夷 490
实用 490
属@@ 490
心态 490
志愿者 490
情节 490
时常 490
晃 490
有毒 490
物理@@ 490
率@@ 490
电器 490
缩小 490
谋杀 490
长期以来 490
骨折 490
会谈 489
准则 489
前后 489
化石 489
席 489
把握 489
淋 489
篮 489
维尔 489
英语@@ 489
补贴 489
误差 489
鲜 489
ID 488
两周 488
住房 488
威尔 488
孩@@ 488
拜 488
桌@@ 488
船长 488
学到 487
府 487
忧虑 487
怜@@ 487
犹豫 487
理学 487
管理者 487
一时 486
两国 486
企@@ 486
干旱 486
政 486
枕@@ 486
爵士 486
畸@@ 486
疹 486
秘 486
至于 486
芯片 486
荷 486
辛 486
隧道 486
颊 486
也就是说 485
恶劣 485
摄像@@ 485
肮@@ 485
见证 485
决赛 484
噪声 484
妒 484
当天 484
摘@@ 484
教室 484
文献 484
椎@@ 484
氢 484
演示 484
碌 484
耍 484
塑料@@ 483
广播 483
换成 483
排名 483
段时间 483
牛肉 483
知名 483
绝大多数 483
阿拉@@ 483
鸦 483
不然 482
产品@@ 482
体积 482
参议院 482
坟@@ 482
塌 482
岁月 482
沥@@ 482
火灾 482
绝不 482
速率 482
领先 482
什@@ 481
党派 481
存款 481
柜@@ 481
梅 481
流动性 481
猎 481
附件 481
﹐ 481
主任 480
仍旧 480
多余 480
州长 480
毒性 480
环节 480
疯 480
肝 480
肤@@ 480
谢 480
限@@ 480
颈 480
以免 479
切尔@@ 479
大街 479
年级 479
底下 479
感知 479
报复 479
指南 479
注视 479
胸 479
葱 479
负责人 479
过时 479
高校 479
伪 478
依 478
善于 478
喇@@ 478
妨碍 478
工会 478
弟弟 478
抵制 478
数百@@ 478
望远镜 478
电源 478
空调 478
航班 478
H 477
入口 477
发作 477
图表 477
壳@@ 477
天性 477
帆@@ 477
废 477
总裁 477
扩@@ 477
收费 477
校园 477
校长 477
爱好 477
皇 477
跌 477
那边 477
削 476
我方 476
燃 476
羞 476
西斯 476
这样@@ 476
伸 475
动物园 475
基督徒 475
堂@@ 475
年纪 475
提起 475
权限 475
笼 475
结局 475
裂缝 475
遍@@ 475
兹@@ 474
多久 474
摩托车 474
无知 474
替换 474
汉语 474
炼 474
蛙 474
蝴@@ 474
超声 474
躲@@ 474
通往 474
驻 474
麻醉 474
不足以 473
介质 473
加密 473
咐 473
泪 473
秋天 473
童年 473
签 473
要素 473
规 473
逆 473
防治 473
静脉 473
不行 472
互动 472
倾听 472
公式 472
垂 472
塘 472
无效 472
皇帝 472
祸 472
共和@@ 471
剩余 471
厚度 471
后代 471
夫妻 471
支配 471
滨 471
澡 471
畅 471
螺旋 471
障 471
饭店 471
丑 470
娅 470
彩色 470
或者说 470
拉里 470
掩盖 470
教导 470
斜 470
早些时候 470
在我@@ 469
宗 469
峰会 469
开来 469
施 469
淋巴@@ 469
老虎 469
莫斯科 469
饼@@ 469
不该 468
司@@ 468
展览 468
开玩笑 468
机理 468
糙 468
艳 468
茅@@ 468
虑 468
覆@@ 468
语音 468
马丁 468
反抗 467
心理@@ 467
杰出 467
此后 467
注@@ 467
看不到 467
篇文章 467
米兰 467
绞@@ 467
裔 467
酸盐 467
马克@@ 467
仓库 466
咒 466
姓名 466
安娜 466
年底 466
彻@@ 466
混合物 466
电话@@ 466
行驶 466
豚 466
锯@@ 466
三分之一 465
不及 465
事先 465
创造性 465
平民 465
成员国 465
救助 465
有过 465
本国 465
细胞@@ 465
衷 465
采集 465
不必要 464
合作伙伴 464
塑造 464
对面 464
封闭 464
带上 464
戈 464
橙@@ 464
法则 464
消极 464
灿@@ 464
从此 463
反应堆 463
喘 463
娃@@ 463
屏 463
悟 463
杀害 463
目的地 463
硝@@ 463
腾@@ 463
贼 463
全都 462
期限 462
沟@@ 462
漫 462
生命@@ 462
绒@@ 462
鸣@@ 462
鼓 462
叙述 461
垫@@ 461
谋@@ 461
遥@@ 461
采取行动 461
佛罗里@@ 460
克尔 460
列车 460
周二 460
宁愿 460
尸 460
战术 460
电视台 460
锥@@ 460
预示 460
体会 459
勤 459
占领 459
尼亚州 459
屁@@ 459
涨 459
爱好@@ 459
直至 459
线路 459
脉冲 459
行李 459
谓 459
串@@ 458
习 458
勃 458
嘛 458
尿 458
烁 458
男女 458
疯@@ 458
瘦 458
级@@ 458
罗斯 458
视野 458
让@@ 458
轿车 458
辈@@ 458
业绩 457
丝毫 457
接种 457
极了 457
步伐 457
焊@@ 457
砂 457
缠 457
隔 457
地铁 456
好事 456
小鼠 456
成年人 456
指挥 456
桌上 456
电机 456
耐 456
--@@ 455
厄@@ 455
另一@@ 455
墓@@ 455
庙 455
情景 455
憎@@ 455
授予 455
控制系统 455
浸 455
面上 455
德国@@ 454
所用 454
束缚 454
查找 454
污 454
瓷@@ 454
表达式 454
超市 454
地理 453
异性 453
纷纷 453
苗 453
菲律宾 453
进而 453
那条 453
释@@ 453
串 452
客观 452
栽@@ 452
箭 452
轮胎 452
霸@@ 452
* 451
使命 451
假定 451
最多 451
材@@ 451
游行 451
烹饪 451
线性 451
肆@@ 451
葬@@ 451
麦克@@ 451
侵蚀 450
兄 450
执 450
残忍 450
毒素 450
荒谬 450
著作 450
虐待 450
on@@ 449
厕所 449
干涉 449
平常 449
平时 449
开启 449
搭 449
新闻@@ 449
柏林 449
狐@@ 449
甚 449
股份 449
莫 449
跃@@ 449
野生 449
23 448
人能 448
使人 448
协作 448
扣@@ 448
晒@@ 448
渔@@ 448
狸 448
破碎 448
胖@@ 448
钩 448
鲸 448
挖 447
涌 447
理智 447
素质 447
人人 446
复兴 446
成像 446
智力 446
津 446
零件 446
鼻 446
伊丽莎@@ 445
剥夺 445
堡@@ 445
增 445
委托 445
思想@@ 445
新生 445
显而易见 445
氯@@ 445
瀑@@ 445
网格 445
舟 445
融 445
通货膨胀 445
金额 445
一门 444
信徒 444
夏威@@ 444
教皇 444
未知 444
畏@@ 444
相关性 444
线索 444
赏@@ 444
轮廓 444
酷@@ 444
锐 444
饮 444
一枚 443
丑闻 443
伤心 443
军方 443
又@@ 443
工业@@ 443
报表 443
画家 443
登上 443
职业生涯 443
触 443
设有 443
遗产 443
锋@@ 443
中文 442
凭@@ 442
曝@@ 442
电极 442
脏@@ 442
读书 442
这块 442
钻石 442
随之 442
初始 441
审计 441
帐 441
捕获 441
有名 441
温室 441
耀@@ 441
购物@@ 441
Z@@ 440
临床@@ 440
休闲 440
克萨@@ 440
变换 440
唐 440
国内外 440
岛@@ 440
欠 440
珍贵 440
看过 440
碰 440
祖国 440
蜘@@ 440
谎言 440
元件 439
叠@@ 439
同伴 439
塔利班 439
它@@ 439
并发症 439
悔@@ 439
漆@@ 439
眼光 439
研究所 439
纠正 439
维斯 439
苏 439
账 439
─ 438
分支 438
变异 438
库存 438
每月 438
流体 438
渐@@ 438
琼斯 438
袍 438
银行业 438
鱼类 438
鸭@@ 438
麦克 438
一批 437
主教 437
光学 437
培 437
布局 437
干细胞 437
棚 437
留给 437
盆@@ 437
空白 437
贷 437
一切@@ 436
使用者 436
兔 436
年来 436
批评@@ 436
泼 436
盖茨 436
考 436
躲 436
面向 436
备份 435
头痛 435
妥协 435
屋子 435
惊 435
愈 435
愧 435
栋 435
欢 435
火山@@ 435
登录 435
绘制 435
罪恶 435
配件 435
附 435
雨水 435
北美 434
占有 434
图书 434
慈 434
散发 434
此举 434
津@@ 434
碱@@ 434
野蛮 434
佩 433
净化 433
千万 433
怎么办 433
摊@@ 433
朴@@ 433
机遇 433
涨@@ 433
潘@@ 433
粪@@ 433
认定 433
都市 433
三次 432
些@@ 432
交互 432
凭借 432
十分@@ 432
吴@@ 432
场地 432
就让 432
局@@ 432
恶意 432
抑 432
直径 432
福特 432
算是 432
跨越 432
辩护 432
代表团 431
大大@@ 431
容量 431
帐篷 431
恭@@ 431
搜寻 431
显示@@ 431
炭 431
理论@@ 431
粗 431
负荷 431
钥 431
锐@@ 431
合格 430
基金会 430
把手 430
胖 430
虚假 430
观察@@ 430
越过 430
难过 430
颠@@ 430
鲨鱼 430
储蓄 429
国主义 429
影子 429
痒 429
诡@@ 429
赎@@ 429
阴谋 429
高达 429
CD 428
三天 428
庭@@ 428
斯科@@ 428
最有 428
服从 428
沉积 428
滥用 428
耶路撒冷 428
撞击 427
旅行@@ 427
旗 427
爵@@ 427
答@@ 427
绳子 427
苔@@ 427
身为 427
镶@@ 427
丹麦 426
内涵 426
双重 426
宣@@ 426
布置 426
报价 426
汀 426
照明 426
生于 426
生动 426
誓@@ 426
辨 426
一下@@ 425
中是 425
创造力 425
女孩子 425
安置 425
寓@@ 425
平原 425
拜访 425
特有 425
硅 425
祭 425
胀 425
藻 425
识@@ 425
问道 425
隐私 425
高压 425
中期 424
光谱 424
反弹 424
哪儿 424
复杂性 424
拱@@ 424
新西兰 424
最具 424
朝着 424
继 424
绵 424
耸@@ 424
解雇 424
评级 424
郊区 424
限 424
马拉@@ 424
骼 424
高层 424
专用 423
发誓 423
子弹 423
模具 423
欧 423
的是 423
职员 423
蚂@@ 423
随便 423
仇 422
决议 422
反对派 422
外出 422
奥运 422
洁@@ 422
狡@@ 422
要说 422
赞同 422
预定 422
ic@@ 421
一员 421
书面 421
冬 421
刹@@ 421
直升机 421
耦合 421
赢@@ 421
违约 421
一顿 420
各类 420
宽松 420
捕 420
毫米 420
赚钱 420
上网 419
乞@@ 419
半岛 419
垒 419
数年 419
日常生活 419
村民 419
究 419
等候 419
箱子 419
良 419
裁决 419
赖 419
锡@@ 419
镀@@ 419
闲 419
28 418
件事 418
便于 418
前来 418
办@@ 418
变暖 418
实时 418
少女 418
并用 418
挪威 418
断裂 418
无意 418
李 418
棍 418
轴承 418
铃 418
额@@ 418
一行 417
书写 417
几何 417
分区 417
副本 417
四处 417
备@@ 417
宽容 417
恳@@ 417
拉克 417
更具 417
步行 417
漆 417
珀 417
袖@@ 417
西藏 417
赞成 417
运气 417
酿@@ 417
el@@ 416
p@@ 416
介入 416
切除 416
创伤 416
厉害 416
古巴 416
唱歌 416
妻 416
开采 416
悲 416
执行官 416
桥梁 416
检索 416
看不见 416
订阅 416
不管@@ 415
培@@ 415
涉@@ 415
激进 415
踩 415
雇佣 415
3@@ 414
两倍 414
决 414
如果说 414
孕@@ 414
射击 414
微妙 414
恼 414
晒 414
疑问 414
统 414
饲料 414
x@@ 413
一无@@ 413
任期 413
手册 413
挣@@ 413
极限 413
禽 413
竭 413
老年人 413
节约 413
配方 413
长远 413
间隔 413
陶瓷 413
l 412
丧@@ 412
剧院 412
地质 412
境@@ 412
奶奶 412
委@@ 412
宽度 412
无线 412
显微@@ 412
涩 412
直线 412
第四 412
蓄@@ 412
陌@@ 412
出租车 411
前方 411
后悔 411
夕@@ 411
寞 411
惧@@ 411
炫@@ 411
逃 411
g 410
份额 410
割 410
加大 410
医师 410
存活 410
次数 410
浇@@ 410
相互作用 410
空军 410
续@@ 410
行事 410
孙 409
廉@@ 409
时会 409
暴 409
磷 409
蚊@@ 409
酵@@ 409
静态 409
主导 408
习惯@@ 408
会员 408
偿还 408
六个 408
助理 408
妆 408
山谷 408
爷@@ 408
短缺 408
秋 408
箭@@ 408
解析 408
误导 408
诱导 408
赐 408
划 407
发言 407
受过 407
巴勒斯坦 407
恼@@ 407
拓@@ 407
挨@@ 407
派对 407
潮流 407
益 407
27 406
勃@@ 406
悔 406
扇@@ 406
执政 406
晕@@ 406
晶体 406
查尔斯 406
看成 406
纪念@@ 406
罪行 406
葡萄牙 406
薪水 406
诊@@ 406
适宜 406
配偶 406
酮 406
限度 406
45 405
保护@@ 405
况 405
嘲@@ 405
均衡 405
坚信 405
妮@@ 405
愉@@ 405
擅长 405
公共@@ 404
周三 404
崇@@ 404
忠实 404
戒 404
捷@@ 404
柳@@ 404
电梯 404
矮 404
蒙古 404
蟹 404
中学 403
争吵 403
减弱 403
声波 403
手法 403
收回 403
电缆 403
盆地 403
矩阵 403
非凡 403
鹅@@ 403
何种 402
借助 402
各位 402
名声 402
喂 402
定量 402
开头 402
效力 402
栅@@ 402
泄@@ 402
煎@@ 402
硬币 402
那次 402
伽 401
发达国家 401
固体 401
处境 401
将近 401
晓@@ 401
洁净 401
牢 401
特权 401
简洁 401
装有 401
辩@@ 401
e 400
介@@ 400
侦@@ 400
卓越 400
后期 400
吩@@ 400
引人注目 400
数十@@ 400
演变 400
生病 400
疗@@ 400
英镑 400
不当 399
不确定性 399
优良 399
可行性 399
奖金 399
水下 399
结果显示 399
贬值 399
配备 399
上午 398
上学 398
不同于 398
分数 398
当初 398
狭@@ 398
玉 398
秀@@ 398
各项 397
富人 397
帘 397
忆@@ 397
植物@@ 397
流入 397
绅@@ 397
钾 397
领导者 397
伯格 396
匙 396
变动 396
悯 396
踢@@ 396
返@@ 396
鸭 396
以为@@ 395
俄国 395
军官 395
前任 395
宜@@ 395
帅 395
我家 395
热烈 395
瑜@@ 395
箱@@ 395
腿@@ 395
起源 395
途中 395
非线性 395
军人 394
当事人 394
得多 394
抚 394
生育 394
胞@@ 394
董事 394
霉 394
制裁 393
厢 393
咱们 393
歧视 393
管制 393
纱@@ 393
维多@@ 393
k 392
一分钟 392
准@@ 392
分割 392
切割 392
副作用 392
地形 392
学位 392
所能 392
星期五 392
灵活性 392
爆 392
盗 392
购@@ 392
间谍 392
400 391
不适 391
劣 391
垄断 391
失业率 391
妄@@ 391
宴会 391
机关 391
源自 391
皱 391
磁 391
科学@@ 391
统@@ 391
罪犯 391
课堂 391
陈述 391
1000 390
不太可能 390
举止 390
争夺 390
凯恩 390
原油 390
所得 390
旅客 390
晃@@ 390
语言@@ 390
负面 390
运送 390
近来 390
遗忘 390
驱动@@ 390
x 389
买家 389
创业 389
动摇 389
废除 389
裙子 389
道德@@ 389
不易 388
享@@ 388
升值 388
咽 388
察 388
尔德 388
嵌 388
己 388
市中心 388
房价 388
教育@@ 388
根源 388
溪 388
真空 388
碟 388
磨损 388
虚拟@@ 388
触发 388
轨迹 388
闪 388
队长 388
凤@@ 387
弧@@ 387
批判 387
报酬 387
招 387
民间 387
溪@@ 387
精心 387
纳税人 387
词语 387
震 387
仓 386
佛教 386
制造业 386
咒@@ 386
尊严 386
排序 386
泰勒 386
电脑@@ 386
苏丹 386
躯@@ 386
颇 386
Facebook 385
g@@ 385
回避 385
地向 385
大批 385
完全@@ 385
水域 385
没能 385
简 385
蚀 385
资@@ 385
锁定 385
防护 385
天线 384
家园 384
尔特 384
恐 384
朴 384
海湾 384
激起 384
独裁@@ 384
磁场 384
纳米 384
统治者 384
世人 383
助手 383
崖 383
收藏 383
相连 383
苦难 383
袜@@ 383
闷@@ 383
修建 382
分化 382
号码 382
在一起 382
安德@@ 382
小心@@ 382
尺度 382
惧 382
愿@@ 382
扯 382
港@@ 382
相对@@ 382
瞧 382
硫 382
签证 382
飓风 382
三维 381
局势 381
屋里 381
工作者 381
旅游@@ 381
病变 381
禁令 381
约翰逊 381
绸 381
芦@@ 381
过量 381
中东 380
中说 380
农 380
压迫 380
受益 380
大于 380
收取 380
文学@@ 380
昏 380
本土 380
汇 380
称赞 380
结构@@ 380
股价 380
获胜 380
这本 380
金融市场 380
充当 379
奉献 379
市长 379
棘手 379
演说 379
腻 379
芯 379
赞扬 379
26 378
主持 378
乳 378
低估 378
大使 378
放缓 378
比尔 378
污水 378
竞赛 378
薄膜 378
赌 378
迫 378
一致性 377
予 377
人类@@ 377
伦理 377
吸入 377
喝酒 377
建模 377
抗生素 377
皮革 377
记载 377
事项 376
仇恨 376
剧烈 376
办公@@ 376
地表 376
杏@@ 376
盎@@ 376
腹 376
调试 376
集会 376
饿 376
c@@ 375
不得@@ 375
今年@@ 375
信息@@ 375
修理 375
利斯 375
协商 375
哀 375
女生 375
广大 375
樱@@ 375
相结合 375
胎@@ 375
胚胎 375
闯@@ 375
AP@@ 374
以致 374
例@@ 374
侣 374
催化剂 374
冰川 374
办理 374
多大 374
大道 374
季度 374
审美 374
披露 374
拇@@ 374
有意思 374
涡 374
狠 374
续 374
芳 374
虽@@ 374
鸽@@ 374
不止 373
典礼 373
制约 373
名人 373
嗓@@ 373
奈 373
庸@@ 373
晴@@ 373
毁@@ 373
红外 373
美洲 373
裁判 373
长久 373
魂 373
各方 372
堕@@ 372
奋斗 372
废弃 372
扭转 372
撤销 372
沾@@ 372
浆@@ 372
范 372
释 372
零售 372
零售商 372
领土 372
中毒 371
为例 371
主机 371
均@@ 371
奥尔@@ 371
希腊@@ 371
惟一 371
惯@@ 371
抗体 371
服务员 371
柴 371
椰@@ 371
海啸 371
罕 371
车子 371
降落 371
复 370
外线 370
宠@@ 370
惹@@ 370
抗议者 370
淀粉 370
皆 370
罚款 370
股权 370
自愿 370
逸 370
p 369
上诉 369
亚马@@ 369
交付 369
全体 369
同行 369
商务 369
大豆 369
岛上 369
得不到 369
报导 369
拒 369
拙 369
斯蒂@@ 369
油价 369
腕 369
17@@ 368
一向 368
一月 368
两家 368
内战 368
合约 368
寿@@ 368
操作@@ 368
旺@@ 368
最快 368
比亚 368
涂料 368
珍惜 368
简短 368
肉体 368
草坪 368
2003 367
2004 367
堵 367
士学位 367
应有 367
族@@ 367
替@@ 367
朽 367
来源于 367
毕业生 367
稽 367
策划 367
老年 367
舌 367
豪 367
部份 367
韩 367
上周@@ 366
册 366
刊 366
叉 366
棉花 366
祈@@ 366
籍 366
蛛 366
钻 366
锌 366
首要 366
150 365
W 365
m@@ 365
【 365
】 365
上空 365
伊斯兰教 365
受损 365
强硬 365
文化@@ 365
柴@@ 365
熟练 365
砍@@ 365
绳@@ 365
髦 365
匆 364
化学物质 364
媒介 364
崛起 364
捐赠 364
排斥 364
效益 364
核武器 364
艰苦 364
2011 363
Lin@@ 363
th@@ 363
不同@@ 363
人格 363
发病 363
吉姆 363
哺乳动物 363
堤 363
大臣 363
宙@@ 363
广泛应用 363
抹@@ 363
生态系统 363
癌@@ 363
盟友 363
艰@@ 363
花钱 363
验 363
z@@ 362
坡@@ 362
城里 362
希尔 362
廷 362
引进 362
日报 362
界@@ 362
覆 362
视力 362
警 362
都是 362
重新@@ 362
雀@@ 362
鼓舞 362
GDP 361
人工@@ 361
击中 361
声誉 361
扰@@ 361
沸@@ 361
注释 361
混 361
约定 361
观者 361
述@@ 361
陷阱 361
驱逐 361
高原 361
乏 360
提案 360
格拉@@ 360
珠宝 360
误 360
违背 360
途@@ 360
一日 359
北约 359
奉 359
恐怖主义 359
悬挂 359
托马斯 359
棉 359
民族@@ 359
申@@ 359
病理 359
竞争@@ 359
罢工 359
航空@@ 359
茫 359
詹@@ 359
迈克 359
克隆 358
几百@@ 358
北极 358
巴拉克 358
没错 358
注重 358
羡@@ 358
聚合物 358
es@@ 357
中介 357
再度 357
好消息 357
斯坦@@ 357
砖@@ 357
膝 357
议题 357
除此之外 357
韦 357
预先 357
交际 356
压制 356
坦克 356
巩固 356
想象@@ 356
渴 356
灾@@ 356
炸 356
艺术品 356
萌@@ 356
鞭@@ 356
制服 355
勉强 355
发放 355
可惜 355
启发 355
咳@@ 355
增多 355
宽恕 355
忠 355
拍卖 355
放射性 355
显现 355
益@@ 355
蕾@@ 355
h@@ 354
买卖 354
价格@@ 354
侍@@ 354
增添 354
天主教 354
妹 354
存放 354
峰@@ 354
推理 354
摇 354
整整 354
生态@@ 354
百分之@@ 354
虹 354
亲戚 353
劝 353
发展中国家 353
吉尔 353
四分之一 353
底层 353
弱点 353
抢 353
欺诈 353
皂 353
纤@@ 353
聊 353
行程 353
b@@ 352
人造 352
卡罗@@ 352
原型 352
反驳 352
启示 352
气温 352
求解 352
马来西亚 352
Y@@ 351
做过 351
兴起 351
券 351
叙@@ 351
同志 351
哨 351
当选 351
支票 351
斯托@@ 351
普京 351
桨 351
法令 351
经纪人 351
肯尼亚 351
与否 350
原子@@ 350
宿舍 350
工具@@ 350
应用@@ 350
昆@@ 350
水管 350
消毒 350
生产商 350
研@@ 350
簧 350
发电 349
培育 349
学习@@ 349
山区 349
崩@@ 349
殖民地 349
海域 349
滚动 349
犬@@ 349
簿 349
纸张 349
蕴@@ 349
让步 349
路面 349
钢铁 349
it@@ 348
偏离 348
共和国 348
探测器 348
衍@@ 348
钉@@ 348
鲸@@ 348
停滞 347
如下 347
子宫 347
宗@@ 347
审核 347
挫折 347
挽@@ 347
摘要 347
液压 347
胆 347
蝇 347
证人 347
选用 347
霍 347
六个月 346
威尔士 346
审视 346
布什总统 346
得分 346
情报 346
映 346
智能@@ 346
枚 346
焦 346
电力@@ 346
笛 346
自行 346
营地 346
薪酬 346
诉 346
高科技 346
亚历山大 345
伯特 345
依照 345
定向 345
寡@@ 345
打造 345
抬头 345
目睹 345
睁@@ 345
秘书 345
精神病 345
躲避 345
郁症 345
锦@@ 345
29 344
协定 344
呈现出 344
录像 344
思路 344
性行为 344
窒@@ 344
第一步 344
银行@@ 344
难度 344
伟@@ 343
办公 343
唇@@ 343
幅度 343
敲 343
氮@@ 343
臀@@ 343
谈谈 343
量化 343
阀门 343
龄 343
16@@ 342
75 342
An@@ 342
一轮 342
不良@@ 342
二战 342
借贷 342
共产党 342
好几个 342
愁 342
感冒 342
扁@@ 342
疫 342
页@@ 342
切断 341
创始人 341
印尼 341
国债 341
孤立 341
意识形态 341
日本@@ 341
星期六 341
模拟@@ 341
淘@@ 341
溯@@ 341
热点 341
瓜@@ 341
篮球 341
色情 341
韩@@ 341
高血压 341
制剂 340
悲惨 340
横向 340
流失 340
礼拜 340
纳德 340
缺失 340
范畴 340
蝙@@ 340
西亚 340
邻国 340
马克思@@ 340
不肯 339
二次 339
呵@@ 339
嫁给 339
小学 339
平稳 339
意料 339
扰 339
条例 339
比率 339
浏览@@ 339
浩@@ 339
滞 339
烂@@ 339
狠@@ 339
祥 339
通风 339
逛 339
集中@@ 339
驾驶@@ 339
4@@ 338
信件 338
半个 338
娶 338
寂 338
对冲 338
对外 338
庭 338
珊 338
研究生 338
绣 338
财政部 338
馆@@ 338
32 337
光纤 337
地步 337
处罚 337
嫩 337
对话@@ 337
很强 337
执行@@ 337
捧 337
若干 337
贩 337
: 336
两条 336
也@@ 336
共识 336
凑 336
国务院 336
尼古@@ 336
恢复@@ 336
所有权 336
抽 336
敦促 336
棍@@ 336
溶剂 336
矩@@ 336
赠@@ 336
1@@ 335
仲裁 335
保持@@ 335
商标 335
失误 335
岭 335
悉@@ 335
掏@@ 335
新年 335
星期一 335
涅@@ 335
管理人员 335
职务 335
论点 335
谷物 335
务 334
多元化 334
失效 334
尖锐 334
彼@@ 334
污染物 334
索马里 334
菲尔德 334
蓬@@ 334
论证 334
诅@@ 334
选票 334
鲜明 334
u@@ 333
三十@@ 333
不应 333
不锈钢 333
从那@@ 333
兄弟@@ 333
再见 333
勇 333
巨额 333
揭露 333
收拾 333
是否是 333
横 333
正直 333
离去 333
策 333
绘@@ 333
编辑@@ 333
萎缩 333
货币政策 333
重力 333
难民 333
av@@ 332
w@@ 332
剃@@ 332
原先 332
哥伦比亚 332
嬉@@ 332
带走 332
所致 332
油田 332
爵 332
物流 332
趣@@ 332
野生动物 332
锅@@ 332
鳄@@ 332
鹿@@ 332
CT 331
Y 331
ad 331
不曾 331
中产阶级 331
佐@@ 331
囚犯 331
烫 331
照射 331
环境@@ 331
益处 331
相互@@ 331
砸 331
第三个 331
粘 331
繁忙 331
纠纷 331
聆听 331
严峻 330
劫@@ 330
卑 330
婆@@ 330
指导@@ 330
掌控 330
掩饰 330
毕@@ 330
耶 330
逼 330
Q 329
中午 329
侈 329
便利 329
俱@@ 329
共产主义 329
发展@@ 329
周边 329
境内 329
大学@@ 329
我来 329
溢 329
猛烈 329
现出 329
理查德 329
管理层 329
置疑 329
赎 329
逃跑 329
递 329
重申 329
预见 329
馨 329
一小部分 328
乐于 328
分成 328
吸附 328
宜 328
平行 328
慰 328
盼 328
篇@@ 328
苗@@ 328
赞赏 328
逃脱 328
00 327
一来 327
交易所 327
低温 327
保密 327
偏 327
大致 327
年初 327
杰夫 327
灾害 327
牠 327
物理学 327
生效 327
聊@@ 327
钝 327
阻挡 327
阿根廷 327
UR@@ 326
出台 326
叛 326
君 326
启用 326
唾@@ 326
孕 326
心理学家 326
榜 326
残留 326
花园@@ 326
茂@@ 326
蕾 326
警惕 326
香烟 326
J 325
世俗 325
友善 325
大火 325
尸@@ 325
康 325
施加 325
树立 325
炒@@ 325
疟疾 325
积分 325
订 325
记忆@@ 325
为期 324
乃@@ 324
关税 324
叔叔 324
大片 324
梁@@ 324
死者 324
段@@ 324
毫@@ 324
爪 324
经受 324
经济危机 324
辊 324
雷斯 324
预报 324
七 323
兼 323
墟 323
夸大 323
宇@@ 323
就此 323
幸存者 323
当地人 323
录音 323
急剧 323
抛 323
指引 323
掠@@ 323
葛@@ 323
贸易@@ 323
阻力 323
骸 323
出版@@ 322
动性 322
年间 322
幸 322
废水 322
打败 322
接待 322
杆@@ 322
海里 322
船员 322
薯 322
誉 322
诵 322
谜 322
财政@@ 322
逢 322
邦@@ 322
陪伴 322
傻 321
克鲁@@ 321
冻结 321
力度 321
加重 321
多样化 321
定价 321
实习 321
泊 321
眠@@ 321
衔 321
通向 321
须@@ 321
y 320
个别 320
书店 320
做事 320
减缓 320
前途 320
咙 320
学期 320
尼日利亚 320
建成 320
必定 320
惠 320
惰 320
打印机 320
拟 320
死刑 320
生产力 320
界限 320
矿石 320
科医生 320
茫@@ 320
要点 320
该项 320
趋@@ 320
趾 320
身心 320
享用 319
会面 319
后续 319
掀@@ 319
海面 319
解读 319
锚@@ 319
集群 319
预备 319
2012 318
分发 318
地中海 318
梵@@ 318
此项 318
虐 318
被告 318
设@@ 318
谐@@ 318
高地 318
b 317
亏 317
人口@@ 317
仇@@ 317
哮@@ 317
外来 317
开设 317
掺@@ 317
煮@@ 317
舞会 317
被动 317
鳞@@ 317
代人 316
剧性 316
原有 316
天体 316
抢劫 316
拉德 316
数月 316
棺@@ 316
流行@@ 316
署 316
蒜 316
装修 316
优于 315
侮辱 315
公认 315
成型 315
战役 315
挽救 315
捆@@ 315
斯州 315
普及 315
检查@@ 315
涂层 315
淇@@ 315
知情 315
祖 315
联邦政府 315
衷@@ 315
载体 315
邓@@ 315
验@@ 315
2001 314
临近 314
乙烯 314
僵局 314
厂商 314
大城市 314
姆斯 314
对照 314
挫@@ 314
暴风雨 314
有望 314
民主党@@ 314
浓缩 314
深远 314
琐@@ 314
疾@@ 314
趟 314
驻@@ 314
一封 313
娘 313
手枪 313
搜索引擎 313
撰写 313
无人@@ 313
栅 313
泰 313
烛@@ 313
烹@@ 313
瞬@@ 313
确立 313
缓和 313
艾伦 313
访@@ 313
选择性 313
伺@@ 312
嘿 312
外科 312
奎@@ 312
弓 312
征收 312
方向@@ 312
星期天 312
核电站 312
毁坏 312
窥@@ 312
竭力 312
绪 312
股票@@ 312
被捕 312
规格 312
韧 312
侠 311
偏差 311
契约 311
帆 311
庸 311
推断 311
推行 311
杀人 311
番 311
疚 311
讽 311
输 311
达尔@@ 311
遣 311
长达 311
香蕉 311
不远 310
公司@@ 310
可不是 310
地被 310
填写 310
填补 310
宇 310
岗位 310
待遇 310
抵消 310
死亡率 310
热带@@ 310
犹太 310
累积 310
肝脏 310
肴 310
胡 310
议@@ 310
还原 310
逗@@ 310
雅典 310
利息 309
呕@@ 309
嗅@@ 309
悦@@ 309
时说 309
桂@@ 309
概括 309
艳@@ 309
艾 309
车队 309
醋 309
600 308
一小@@ 308
下雨 308
人际@@ 308
住所 308
实用@@ 308
必将 308
折扣 308
文中 308
济@@ 308
渗透@@ 308
现今 308
遏制 308
革命@@ 308
保险公司 307
停车场 307
切尔 307
在外 307
椎 307
泌@@ 307
百万@@ 307
眼下 307
矿物 307
踪@@ 307
隐 307
Web@@ 306
二者 306
人来 306
传染病 306
内阁 306
创立 306
宝贝 306
川@@ 306
打扰 306
攻 306
无辜 306
特里 306
签订 306
简历 306
脊 306
芬兰 306
菇 306
足球@@ 306
鉴别 306
陪审团 306
不受 305
不断@@ 305
乃是 305
保健 305
嗜@@ 305
寺@@ 305
更高 305
桑 305
梗@@ 305
沿海 305
海岸@@ 305
爪@@ 305
猴 305
绑架 305
网球 305
钦@@ 305
音乐会 305
争端 304
倘若 304
冈 304
存储@@ 304
放心 304
数字@@ 304
晚饭 304
束@@ 304
法语 304
经销商 304
航天@@ 304
茄@@ 304
血压 304
谣@@ 304
赴 304
退化 304
青春期 304
上课 303
不能@@ 303
伙 303
发电机 303
在场 303
巷 303
幢 303
推移 303
无线电 303
沐@@ 303
澳洲 303
碧@@ 303
科尔 303
蠢@@ 303
讯 303
诈 303
赶上 303
迄今 303
锈 303
CA@@ 302
中等 302
勺 302
匿名 302
帝 302
惜 302
慰@@ 302
撤离 302
棱@@ 302
漏洞 302
演化 302
节能 302
路易斯 302
逐@@ 302
驰 302
骚乱 302
in 301
– 301
上校 301
务@@ 301
妙@@ 301
崭@@ 301
怀着 301
怯 301
时间表 301
测验 301
狮 301
罚 301
行使 301
讯息 301
一词 300
击者 300
到期 300
前所未有 300
嗡@@ 300
恤 300
惫 300
星期二 300
检察官 300
秃@@ 300
竟@@ 300
般@@ 300
誉@@ 300
过剩 300
题目 300
Google 299
不妨 299
为人@@ 299
凄@@ 299
宣言 299
慌@@ 299
更长 299
泉@@ 299
泳 299
海地 299
留下来 299
瘫痪 299
糊 299
纳入 299
缩减 299
肪@@ 299
致使 299
荣幸 299
蠕@@ 299
输送 299
n@@ 298
一贯 298
不用说 298
不算 298
会为 298
体外 298
公爵 298
关系@@ 298
准确性 298
剩 298
占用 298
卡特 298
容纳 298
屠杀 298
打断 298
日前 298
最少 298
清洁@@ 298
篷 298
解决办法 298
铅 298
阶@@ 298
九 297
侵入 297
克里斯 297
冰岛 297
屠@@ 297
广州 297
所作 297
期刊 297
概率 297
病情 297
资讯 297
不太@@ 296
中心@@ 296
威士@@ 296
微型 296
恐怖分子 296
捐@@ 296
比如说 296
监禁 296
老化 296
菠@@ 296
营造 296
血清 296
诱 296
金山 296
一连串 295
决定性 295
卷入 295
威尔@@ 295
密集 295
开端 295
弗兰克 295
昧 295
激 295
牲畜 295
种群 295
陨@@ 295
ation@@ 294
业主 294
再说 294
剔 294
加斯 294
呼吸@@ 294
嚣 294
推销 294
蚀@@ 294
袖 294
说服力 294
诺贝尔@@ 294
违@@ 294
适度 294
锡 294
St@@ 293
一流 293
仓@@ 293
会见 293
何 293
公斤 293
半球 293
即时 293
孵@@ 293
拌@@ 293
星期三 293
氧化物 293
溺@@ 293
碑 293
裸 293
降解 293
不顾 292
嗽 292
废物 292
弓@@ 292
微不足道 292
栈 292
派遣 292
猾 292
玩笑 292
答复 292
简便 292
纳粹 292
认出 292
诊所 292
起点 292
雕 292
一侧 291
下列 291
会员@@ 291
估算 291
伽@@ 291
半导体 291
卸 291
口号 291
姚@@ 291
愤 291
极具 291
目击者 291
离子@@ 291
莲@@ 291
诈@@ 291
还给 291
钳 291
陡@@ 291
一年@@ 290
世卫 290
叉@@ 290
喘@@ 290
奴 290
徘@@ 290
撑@@ 290
既有 290
昭@@ 290
模糊@@ 290
渍 290
眉 290
筋@@ 290
词典 290
调控 290
转让 290
迦@@ 290
逊@@ 290
中将 289
共有 289
关怀 289
十年代 289
嘱 289
墅 289
太大 289
尼克 289
措 289
断言 289
旺 289
栗 289
楚 289
流出 289
用水 289
裹 289
貌@@ 289
违法 289
事后 288
亭 288
仆 288
伍 288
单身 288
备受 288
巢@@ 288
所有者 288
泄露 288
相比之下 288
窄 288
虹@@ 288
许可证 288
赞助 288
d 287
is@@ 287
ow@@ 287
剖 287
可信 287
妖@@ 287
宋@@ 287
宏观 287
总经理 287
扳@@ 287
拳 287
程式 287
组装 287
缘故 287
肯尼迪 287
酱@@ 287
鞘 287
饱和 287
黛@@ 287
龄@@ 287
31 286
加深 286
寿 286
徊 286
数百万 286
示威者 286
简要 286
聚合 286
自动@@ 286
衬 286
近似 286
陷@@ 286
Ch@@ 285
一次性 285
优惠 285
克制 285
叮@@ 285
哇 285
境地 285
昂@@ 285
棋@@ 285
注射@@ 285
湖泊 285
疮 285
盔 285
祸@@ 285
第一位 285
藤 285
蜗@@ 285
议案 285
辽@@ 285
主观 284
亏损 284
农田 284
刑 284
北京@@ 284
怨 284
担@@ 284
摘 284
斧@@ 284
最高法院 284
桌面 284
熏@@ 284
爱德华 284
瑰@@ 284
章@@ 284
筑 284
蓄 284
贬@@ 284
递给 284
醋@@ 284
产出 283
亨@@ 283
八 283
出自 283
媚 283
扫描@@ 283
晚会 283
潜艇 283
疡 283
短语 283
第五 283
见解 283
运河 283
随即 283
f@@ 282
n 282
严 282
京 282
修订 282
健 282
克拉@@ 282
匈牙利 282
口头 282
应急 282
庞@@ 282
成形 282
杨 282
流域 282
申请人 282
疏 282
疵 282
筹@@ 282
细致 282
阔@@ 282
as@@ 281
勒斯 281
大麻 281
惯例 281
搏 281
数额 281
更糟 281
梭 281
橱@@ 281
油漆 281
混淆 281
资深 281
SOA 280
实验@@ 280
导向 280
弦@@ 280
旦 280
暂@@ 280
每种 280
气象@@ 280
甲状@@ 280
破坏性 280
耕地 280
聚焦 280
贯穿 280
颂 280
预订 280
l@@ 279
of@@ 279
下游 279
反思 279
域@@ 279
失踪 279
好转 279
尼亚@@ 279
市区 279
概述 279
海军@@ 279
深受 279
激光@@ 279
煤炭 279
祥@@ 279
纪 279
编制 279
自治 279
us@@ 278
付费 278
决不 278
尊 278
广播公司 278
标准化 278
橘@@ 278
橱 278
欧洲人 278
洒@@ 278
灾难性 278
牧场 278
现任 278
罗斯@@ 278
翅 278
芒@@ 278
莲 278
邻近 278
钞@@ 278
顺便 278
频道 278
驼 278
下一代 277
促成 277
俭 277
儒@@ 277
充满@@ 277
养殖 277
劲@@ 277
十个 277
咆@@ 277
哈马斯 277
封锁 277
拓 277
拖延 277
无视 277
既@@ 277
未曾 277
棵@@ 277
橇 277
残疾 277
海峡 277
犀@@ 277
证券@@ 277
谨 277
迁 277
非正式 277
骆@@ 277
高尚 277
高质量 277
Al@@ 276
ing@@ 276
j@@ 276
加沙 276
危及 276
变化@@ 276
可用性 276
学费 276
寄 276
对立 276
小于 276
战后 276
抵御 276
拟@@ 276
条目 276
歇 276
湿地 276
演讲@@ 276
琳@@ 276
盟 276
秘鲁 276
筒@@ 276
纵 276
肉类 276
肢体 276
获利 276
身处 276
阁@@ 276
re@@ 275
二十世纪 275
京@@ 275
伪造 275
债权人 275
免受 275
冶@@ 275
刮 275
变迁 275
同胞 275
固有 275
拘@@ 275
敌@@ 275
柬埔寨 275
欠@@ 275
海关 275
涵盖 275
管理局 275
藉@@ 275
起飞 275
过高 275
追 275
IS@@ 274
Windows 274
劳动@@ 274
墓地 274
披 274
晓 274
有序 274
添@@ 274
电报 274
警报 274
重返 274
雇用 274
韵@@ 274
高峰 274
不明 273
众所周知 273
信赖 273
娱乐@@ 273
微波 273
扮@@ 273
抨@@ 273
散布 273
数十年 273
更能 273
独一无二 273
研究员 273
竹 273
纪@@ 273
聪@@ 273
装配 273
选定 273
传染 272
凳 272
劳工 272
本次 272
而后 272
运输@@ 272
食品@@ 272
勿 271
吕@@ 271
处置 271
娜@@ 271
就是说 271
投票@@ 271
护照 271
昨晚 271
朦@@ 271
流通 271
肾 271
身份@@ 271
转而 271
镇压 271
颠覆 271
七年 270
三角 270
乃至 270
习俗 270
亥@@ 270
你好 270
器件 270
崇高 270
延 270
投诉 270
撼 270
敌意 270
突 270
酗酒 270
镁 270
鸥 270
中央@@ 269
俊 269
假日 269
六月 269
兼容 269
卧 269
宣告 269
格外 269
炭@@ 269
物料 269
稣@@ 269
第四@@ 269
缕 269
豫@@ 269
PC 268
不佳 268
凝 268
医疗@@ 268
周年 268
善意 268
喋@@ 268
基准 268
感谢@@ 268
拓展 268
掘@@ 268
斯加 268
新生儿 268
法兰@@ 268
深层 268
溅 268
用处 268
盈 268
芝@@ 268
负债 268
2002 267
en@@ 267
七个 267
二十年 267
大使馆 267
旷@@ 267
混合@@ 267
电台 267
矢@@ 267
能源@@ 267
警官 267
饲养 267
个性化 266
事宜 266
低下 266
兜@@ 266
多元 266
席位 266
救济 266
是非 266
此处 266
水稻 266
澄清 266
耗 266
膀@@ 266
茨@@ 266
谜@@ 266
Mar@@ 265
其后 265
和平@@ 265
强力 265
搏@@ 265
植被 265
毯 265
涤@@ 265
睐 265
索赔 265
西北 265
西方@@ 265
说是 265
转型 265
辛格 265
过早 265
争辩 264
傍@@ 264
压器 264
周期性 264
备用 264
奴@@ 264
妓女 264
改良 264
檬@@ 264
源代码 264
爸 264
特尔 264
电信 264
痹 264
盼@@ 264
秽 264
肛@@ 264
记录@@ 264
询 264
责任感 264
路口 264
阅 264
阐明 264
36 263
一般来说 263
两大 263
传统@@ 263
公共汽车 263
兰德 263
同类 263
屈 263
徽@@ 263
抽烟 263
最长 263
某一 263
此基础 263
海报 263
淀 263
烯@@ 263
界定 263
研讨会 263
综合征 263
锻@@ 263
同等 262
喂@@ 262
墨西哥@@ 262
大宗 262
姑@@ 262
忌@@ 262
恩斯 262
惹 262
拆除 262
数千@@ 262
极好 262
残 262
毫无意义 262
淡水 262
知识产权 262
研究@@ 262
硕@@ 262
维亚 262
ter 261
一级 261
不准 261
介意 261
估 261
信誉 261
医药 261
发布会 261
喉 261
国旗 261
岗@@ 261
敞 261
氟@@ 261
沛 261
消费@@ 261
煤矿 261
电视机 261
肋@@ 261
陷入@@ 261
驴 261
骚扰 261
8@@ 260
仗 260
代理人 260
写入 260
原材料 260
发给 260
可疑 260
大战 260
姿 260
战斗机 260
投机 260
昂 260
暑@@ 260
歧@@ 260
熄@@ 260
石油@@ 260
翰 260
聋 260
菊@@ 260
设在 260
超级@@ 260
野心 260
下周 259
亦@@ 259
会上 259
借鉴 259
具体@@ 259
努@@ 259
各样 259
哈里 259
夺 259
寸 259
寺 259
成效 259
捣@@ 259
撇@@ 259
支柱 259
杠杆 259
极力 259
毅@@ 259
濒@@ 259
租 259
练@@ 259
买方 258
体面 258
健全 258
储 258
卖方 258
发生变化 258
噬 258
大气层 258
德拉 258
总量 258
慕@@ 258
比利时 258
狮@@ 258
第一天 258
紊@@ 258
终端 258
羞辱 258
苯@@ 258
锤 258
主持人 257
亡@@ 257
仔细@@ 257
位移 257
军事@@ 257
地球@@ 257
垢 257
委内瑞拉 257
武力 257
漠@@ 257
灌溉 257
牡@@ 257
诚信 257
贾 257
这套 257
酚 257
静止 257
靴 257
人选 256
全球性 256
冷战 256
吊 256
地质@@ 256
多达 256
妥 256
孕妇 256
定性 256
屉 256
平均@@ 256
摆在 256
有罪 256
民族主义 256
法定 256
渺@@ 256
电气 256
裁 256
鄙 256
雷曼 256
革@@ 256
马尔@@ 256
驯@@ 256
不容@@ 255
专业@@ 255
乌克兰 255
五月 255
人力 255
今 255
凑@@ 255
地下水 255
娇@@ 255
崇 255
抖@@ 255
改革@@ 255
昔@@ 255
海平面 255
稍后 255
第三方 255
蝠 255
袜 255
触及 255
遍布 255
重叠 255
难得 255
驼@@ 255
7@@ 254
东北部 254
以防 254
分娩 254
卓@@ 254
反应@@ 254
市场经济 254
弃@@ 254
强奸 254
探究 254
最高@@ 254
檬 254
欧洲央行 254
绪@@ 254
联邦@@ 254
肘 254
路易@@ 254
配有 254
飞往 254
八个 253
发明@@ 253
和解 253
噩@@ 253
奥地利 253
弟 253
彬@@ 253
懒 253
接管 253
旱@@ 253
标志@@ 253
汉堡 253
流产 253
经由 253
视作 253
跑道 253
陈 253
0.@@ 252
6@@ 252
SA@@ 252
不论是 252
亲人 252
优先@@ 252
勋@@ 252
华尔@@ 252
南极 252
填 252
庄严 252
开枪 252
总能 252
悲痛 252
据称 252
格尔 252
激进@@ 252
灼@@ 252
电视节目 252
瞄准 252
肤色 252
肥料 252
行者 252
表达@@ 252
颤 252
亩 251
剂@@ 251
宿 251
小岛 251
工业化 251
庞 251
指挥官 251
提问 251
淘汰 251
温度@@ 251
灾 251
男生 251
纺@@ 251
纺织 251
蜡 251
表中 251
进度 251
阴 251
陵 251
非常高兴 251
首领 251
黯@@ 251
争执 250
全局 250
小行星 250
尔森 250
巴士 250
归咎于 250
所处 250
抄@@ 250
挑衅 250
搁置 250
本月 250
演习 250
电站 250
盾 250
这起 250
迟到 250
CP@@ 249
m 249
man 249
上限 249
何处 249
候@@ 249
停车 249
兄@@ 249
充分利用 249
公告 249
凋@@ 249
启 249
哮 249
城市@@ 249
壤 249
忍 249
搜@@ 249
权益 249
毯@@ 249
犯下 249
砍 249
纽约市 249
肽 249
胧 249
腱 249
错误@@ 249
锤@@ 249
顽固 249
饵 249
驾驶员 249
TP 248
ch@@ 248
or@@ 248
五十@@ 248
动物@@ 248
吻合 248
国有 248
址 248
多于 248
审@@ 248
拾@@ 248
普森 248
格斯 248
格林 248
武 248
示威 248
秦@@ 248
芽@@ 248
苛@@ 248
踪 248
这段 248
逆转 248
阀@@ 248
BC 247
侵略 247
僧@@ 247
再也@@ 247
分布@@ 247
可观 247
基础@@ 247
始于 247
委员 247
宣扬 247
家务 247
小册子 247
已久 247
巴尔@@ 247
徐@@ 247
收益率 247
有史以来 247
特勒 247
监管@@ 247
藤@@ 247
蛇@@ 247
褪@@ 247
贯@@ 247
选择@@ 247
透明度 247
DVD 246
不及@@ 246
分辨率 246
刑事 246
咪 246
国防部 246
姐 246
幼 246
性化 246
提倡 246
时间@@ 246
构件 246
某种@@ 246
活性@@ 246
消 246
犹太@@ 246
相似@@ 246
诉@@ 246
辩 246
限定 246
列为 245
叨 245
同位素 245
呼叫 245
咽@@ 245
学员 245
完整性 245
弊 245
捐款 245
无形 245
明显@@ 245
棋 245
添加@@ 245
炒 245
烫@@ 245
现存 245
精密 245
董事长 245
议程 245
说来 245
贺@@ 245
髓@@ 245
高昂 245
丰 244
之道 244
内外 244
固定@@ 244
够@@ 244
婴@@ 244
孢@@ 244
宗旨 244
恰恰 244
房产 244
打交道 244
格鲁吉亚 244
棚@@ 244
每位 244
滥@@ 244
版权 244
生殖 244
空气@@ 244
职能 244
跪 244
95 243
IMF 243
IP 243
干什么 243
推导 243
有限元 243
杉 243
比较@@ 243
流血 243
渊 243
焊 243
燃油 243
社会学 243
糟@@ 243
自尊 243
舱@@ 243
表述 243
讯@@ 243
转基因 243
迈 243
RA@@ 242
ar@@ 242
不通 242
历程 242
咀@@ 242
堪 242
寡妇 242
懦@@ 242
拘留 242
拦@@ 242
挠 242
数千 242
晚些时候 242
有待 242
殖@@ 242
漩@@ 242
狱@@ 242
珊瑚 242
甲烷 242
联合@@ 242
转变成 242
适应性 242
遗弃 242
郊@@ 242
陆军 242
c 241
一新 241
住宿 241
几位 241
加固 241
喷 241
坠 241
垮 241
并发 241
必不可少 241
攻击@@ 241
朵@@ 241
纪律 241
组建 241
这部分 241
迫切 241
IBM 240
ux 240
不合理 240
东北 240
中间@@ 240
六年 240
农作物 240
分隔 240
制止 240
原体 240
反过来 240
四十@@ 240
坊 240
多人 240
慈善@@ 240
手提@@ 240
挑 240
放射@@ 240
昨日 240
格局 240
滨@@ 240
瘟@@ 240
组织者 240
迁@@ 240
运营商 240
迪克 240
闸 240
CEO 239
傲 239
削@@ 239
勘探 239
危@@ 239
变性 239
奠定 239
挪@@ 239
极少 239
此种 239
淤@@ 239
物件 239
盛行 239
章节 239
约瑟夫 239
西南 239
贿赂 239
轧@@ 239
郑@@ 239
配套 239
铀 239
魁@@ 239
48 238
65 238
AP 238
ED 238
不便 238
传真 238
偏好 238
勃勃 238
募@@ 238
右翼 238
呵 238
审理 238
尤 238
尤为 238
总数 238
扼@@ 238
接纳 238
春季 238
智利 238
格里@@ 238
清真寺 238
狩猎 238
节制 238
选出 238
靴@@ 238
鹦@@ 238
代理@@ 237
凡是 237
创造@@ 237
前者 237
势头 237
叭 237
坐标 237
外围 237
多样 237
官僚 237
怎 237
悠久 237
款人 237
现行 237
秋季 237
种植@@ 237
纬@@ 237
薇 237
螂 237
踝 237
蹄 237
里程碑 237
防范 237
韵 237
飞行器 237
馅@@ 237
v@@ 236
保护区 236
充实 236
列入 236
吟 236
尼尔 236
押@@ 236
析@@ 236
楚@@ 236
概 236
涌入 236
淫@@ 236
终身 236
落入 236
郊 236
son 235
乾@@ 235
低成本 235
公开@@ 235
包装@@ 235
医学@@ 235
印第安@@ 235
听力 235
型号 235
彭@@ 235
惟@@ 235
根深蒂固 235
植 235
滔@@ 235
犯人 235
珀@@ 235
着陆 235
简称 235
粮 235
绩效 235
缅@@ 235
蛛@@ 235
解答 235
起步 235
饥荒 235
鹰@@ 235
上将 234
佑 234
充满活力 234
公约 234
大屠杀 234
婉 234
己@@ 234
斯基 234
柿 234
沿岸 234
深圳 234
蘑@@ 234
黎巴嫩 234
42 233
Re@@ 233
中药 233
优 233
冈@@ 233
出身 233
处方 233
宅 233
定居 233
必要性 233
承包商 233
接收@@ 233
改性 233
敏感性 233
未必 233
每隔 233
水道 233
沈@@ 233
照料 233
相邻 233
责任@@ 233
踏 233
转化@@ 233
辆车 233
饿@@ 233
9@@ 232
Phone 232
上游 232
仙 232
休息@@ 232
促销 232
判定 232
劫 232
印刷@@ 232
可不 232
嘶@@ 232
嚷 232
囱 232
地为 232
安宁 232
届 232
并购 232
应变 232
成品 232
托管 232
抚养 232
敛 232
无线@@ 232
柴油 232
校正 232
渡 232
灌 232
百分@@ 232
血统 232
辅@@ 232
迁徙 232
CN@@ 231
SS 231
ac@@ 231
下令 231
主人@@ 231
克拉 231
刃 231
复合材料 231
姜@@ 231
幼儿园 231
微观 231
扰乱 231
挑战性 231
款项 231
渴@@ 231
电厂 231
睾@@ 231
粥 231
草案 231
誓 231
预料 231
AS@@ 230
IP@@ 230
不好@@ 230
之路 230
事务所 230
列举 230
反击 230
国会议员 230
月底 230
气象 230
水准 230
涉 230
痉@@ 230
臂@@ 230
迅@@ 230
酿 230
限于 230
饱受 230
首选 230
魂@@ 230
不合@@ 229
两国@@ 229
企业@@ 229
内陆 229
出价 229
印第安人 229
外交政策 229
多重 229
妊娠 229
尼泊尔 229
心血管 229
拽 229
燥 229
理事会 229
腺癌 229
住院 228
使用@@ 228
农药 228
刊登 228
呼吸道 228
年里 228
弛 228
批 228
榜样 228
涤 228
熬 228
纵向 228
腥 228
莽 228
街区 228
轰炸 228
载荷 228
邮票 228
醛 228
am@@ 227
乳腺癌 227
令人满意 227
协同 227
发掘 227
哥本哈根 227
坚实 227
外交官 227
尝@@ 227
数字化 227
施行 227
晨@@ 227
最优 227
浓 227
玫@@ 227
瓶颈 227
疑虑 227
症@@ 227
祝 227
缺席 227
罩@@ 227
角度看 227
训@@ 227
蹦@@ 227
锯 227
雄 227
颅@@ 227
飙升 227
鳍 227
ge@@ 226
下属 226
不如@@ 226
中止 226
信号@@ 226
兑 226
地产 226
夸 226
开放@@ 226
忏@@ 226
数以@@ 226
日渐 226
案子 226
溶 226
炬 226
炽@@ 226
真实性 226
薯@@ 226
贮@@ 226
锅炉 226
颁布 226
不可或缺 225
东南部 225
二是 225
亵渎 225
停顿 225
内地 225
发票 225
地域 225
增长率 225
少数民族 225
巡逻 225
水量 225
筑@@ 225
耕@@ 225
诠释 225
800 224
丹尼尔 224
俄 224
前沿 224
厉@@ 224
反对@@ 224
哑 224
商务@@ 224
土壤@@ 224
悉 224
新建 224
时起 224
机组 224
氯 224
癫@@ 224
联络 224
聘@@ 224
获得@@ 224
行进 224
财务@@ 224
赤道 224
近代 224
这支 224
高涨 224
5@@ 223
两岸 223
人均 223
可可 223
否决 223
商学院 223
失衡 223
弗雷@@ 223
彗@@ 223
机票 223
殖民 223
测量@@ 223
离散 223
筝 223
自由主义 223
营养不良 223
越来越@@ 223
迪拜 223
不开 222
东南亚 222
丧生 222
僻 222
决策者 222
出路 222
分离@@ 222
化学品 222
原告 222
建设性 222
悄 222
机密 222
机能 222
查理 222
浪费@@ 222
澈 222
知晓 222
统计学 222
绷@@ 222
罗马@@ 222
罪名 222
解放@@ 222
麻疹 222
ad@@ 221
一体化 221
一再 221
众议院 221
姓 221
局限 221
履@@ 221
攀升 221
琐 221
研究成果 221
租赁 221
缓冲 221
蚕@@ 221
训练@@ 221
说明@@ 221
身体@@ 221
阿姆@@ 221
一节 220
传染性 220
名誉 220
哼 220
坑@@ 220
奖项 220
星期四 220
显出 220
正规 220
水库 220
独裁 220
疲软 220
盏 220
评判 220
请问 220
送往 220
邪@@ 220
饶@@ 220
37 219
an 219
apo@@ 219
com 219
事实证明 219
会计@@ 219
兼职 219
反对党 219
器具 219
天气@@ 219
奢侈@@ 219
巴格达 219
幸福@@ 219
执法 219
捡@@ 219
支援 219
永久性 219
流向 219
淫 219
溜 219
生产总值 219
稳固 219
肃@@ 219
肆 219
谬@@ 219
账单 219
$ 218
Twitter 218
世界银行 218
侵害 218
发生@@ 218
哈佛@@ 218
大力 218
弗朗@@ 218
怎@@ 218
成因 218
挛 218
残余 218
水源 218
玄@@ 218
环境保护 218
生化 218
疱@@ 218
看守 218
突尼斯 218
经费 218
综合症 218
翠@@ 218
职业@@ 218
膛 218
蔑 218
鄙@@ 218
锥 218
10@@ 217
ro@@ 217
中立 217
休假 217
分裂@@ 217
加拉 217
复合@@ 217
失调 217
役 217
执照 217
民意@@ 217
没收 217
生存@@ 217
皂@@ 217
窝@@ 217
被判 217
诽谤 217
蹒@@ 217
蹲 217
较强 217
这事 217
迟 217
重重 217
颗@@ 217
MS 216
上层 216
业务@@ 216
人文 216
仿 216
伯爵 216
冕 216
哨@@ 216
嘘 216
坚称 216
委 216
安全感 216
新疆 216
牢固 216
签字 216
绊@@ 216
茜 216
行列 216
订购 216
进口@@ 216
采取措施 216
重要@@ 216
饱 216
Serv@@ 215
不多 215
人道主义 215
克莱 215
参见 215
呼声 215
咸@@ 215
复制@@ 215
宏 215
帽@@ 215
异议 215
授@@ 215
敷@@ 215
构想 215
济 215
浪潮 215
潘 215
物资 215
疏散 215
短时间 215
简易 215
舵 215
茸 215
衍生 215
负面影响 215
逾@@ 215
馏 215
1999 214
ti@@ 214
中性 214
件@@ 214
会儿 214
堤@@ 214
实用性 214
开辟 214
往来 214
患病 214
拥 214
挫 214
改为 214
格林@@ 214
浊 214
澳门 214
牧 214
畜@@ 214
痴 214
礁 214
祝贺 214
自发 214
获益 214
蝎@@ 214
这辆 214
问及 214
el 213
et@@ 213
不高 213
中方 213
亲属 213
侄@@ 213
冗@@ 213
几十@@ 213
发挥作用 213
同盟 213
国防 213
外语 213
引人@@ 213
强烈@@ 213
拢 213
捍卫 213
渔船 213
潜能 213
爸@@ 213
皆@@ 213
相等 213
米尔 213
籽 213
绚@@ 213
贞@@ 213
金融机构 213
38 212
85 212
en 212
从未@@ 212
供应链 212
信托 212
健康状况 212
劣@@ 212
完毕 212
快捷 212
捆 212
摔 212
旗帜 212
格雷@@ 212
电磁 212
耗费 212
耻辱 212
自称 212
良心 212
闸@@ 212
鹉 212
以求 211
共同@@ 211
召集 211
因特网 211
大米 211
妳 211
届时 211
巫 211
帖 211
开会 211
戈尔 211
押 211
数个 211
新颖 211
杭@@ 211
珍 211
瓦解 211
禁用 211
税率 211
窘@@ 211
纺 211
胜任 211
舆论 211
葵 211
馀 211
个月 210
总额 210
教养 210
数次 210
文件系统 210
盾@@ 210
真实@@ 210
矫@@ 210
礼品 210
离职 210
能为 210
苯 210
谐 210
资产@@ 210
钩@@ 210
防卫 210
隐瞒 210
CO@@ 209
代表性 209
低廉 209
倡导 209
儿童@@ 209
凶手 209
励@@ 209
印度尼西亚 209
器械 209
在世界上 209
封信 209
抬 209
暇 209
最大化 209
有所@@ 209
服役 209
根本@@ 209
步枪 209
毋@@ 209
游说 209
瑕@@ 209
稠@@ 209
笋 209
组织@@ 209
维奇 209
装载 209
解散 209
计量 209
过失 209
逝@@ 209
遗址 209
铬 209
驯鹿 209
麻醉@@ 209
交织 208
凌 208
前线 208
吞 208
大不@@ 208
奖学金 208
委会 208
广义 208
恶性@@ 208
暮@@ 208
林地 208
此人 208
浙@@ 208
游击@@ 208
灶 208
碗@@ 208
积极@@ 208
稚 208
羚@@ 208
翠 208
蒙古@@ 208
走私 208
魄 208
55 207
AT@@ 207
体系@@ 207
依法 207
俘@@ 207
原文 207
咕@@ 207
喂养 207
孤儿 207
意大利@@ 207
招募 207
捡 207
数码 207
斥@@ 207
时才 207
普林@@ 207
根除 207
理所当然 207
笨 207
调解 207
门户 207
700 206
BBC 206
id 206
人有 206
华盛顿@@ 206
参 206
各州 206
后裔 206
唠@@ 206
啥 206
塞尔 206
备忘录 206
大程度 206
嫁@@ 206
宰@@ 206
年期 206
成份 206
抒@@ 206
时代@@ 206
沌 206
渔业 206
瞎@@ 206
稀少 206
衰 206
袭@@ 206
规避 206
鉴@@ 206
99 205
ed@@ 205
三倍 205
估@@ 205
参考@@ 205
发行@@ 205
叛乱 205
另有 205
咯@@ 205
器材 205
学术界 205
延误 205
扣除 205
投资@@ 205
控制权 205
无条件 205
日历 205
日程 205
生命周期 205
电话号码 205
盈@@ 205
眨@@ 205
着重 205
瞰 205
种族主义 205
窃 205
粪 205
紧要 205
躯 205
连同 205
高速@@ 205
1990 204
Bar@@ 204
de@@ 204
产业@@ 204
亨 204
全力 204
分析方法 204
医疗保险 204
家用 204
尼奥 204
带动 204
截至 204
断定 204
框@@ 204
沾 204
润滑油 204
焕@@ 204
盘旋 204
眩@@ 204
篱@@ 204
绎 204
腋@@ 204
艰巨 204
褶@@ 204
讳 204
评定 204
贫民窟 204
辱@@ 204
附属 204
39 203
CD@@ 203
不久前 203
不切实际 203
事态 203
人民@@ 203
初级 203
卜@@ 203
士气 203
孝@@ 203
展望 203
帧 203
干部 203
弧 203
投降 203
拨 203
有所不同 203
枫@@ 203
栓@@ 203
满足@@ 203
电网 203
科研 203
纪念碑 203
荆@@ 203
萨拉 203
讨 203
资源@@ 203
赋@@ 203
重复@@ 203
金斯 203
零售@@ 203
饥@@ 203
人力资源 202
优越 202
其间 202
出版社 202
吉普@@ 202
嗨 202
回合 202
大事 202
实践@@ 202
怎么@@ 202
按时 202
综述 202
缺口 202
莱特 202
跚 202
躁@@ 202
轨@@ 202
驴@@ 202
SD@@ 201
一千@@ 201
保卫 201
准确@@ 201
制造@@ 201
发电@@ 201
大众@@ 201
安定 201
德斯 201
手续 201
投标 201
控告 201
掷 201
摊 201
榜@@ 201
烃 201
疫情 201
私有 201
腹泻 201
蜥@@ 201
行政@@ 201
裁定 201
谈及 201
谓@@ 201
迫害 201
金融体系 201
隔绝 201
120 200
NA 200
The@@ 200
ap@@ 200
举例@@ 200
养老金 200
卡拉 200
咯 200
在此之前 200
妈@@ 200
急需 200
恍@@ 200
悼@@ 200
所在地 200
敌对 200
焚烧 200
特拉@@ 200
现已 200
理工@@ 200
神经网络 200
继承人 200
菊 200
萃@@ 200
让人 200
调度 200
贝尔@@ 200
遭@@ 200
革新 200
％ 200
万人 199
乖@@ 199
五十 199
保养 199
农产品 199
出租 199
务必 199
发生率 199
呃 199
告诫 199
夺取 199
姨@@ 199
孽 199
实质性 199
峭 199
惑@@ 199
报警 199
日后 199
月初 199
棘 199
毁灭性 199
每人 199
瓦斯 199
米亚 199
美国国会 199
职工 199
落实 199
适应@@ 199
选取 199
骇@@ 199
高等教育 199
US@@ 198
三名 198
创办 198
前期 198
加尔@@ 198
妻@@ 198
存有 198
征税 198
投资人 198
标准@@ 198
槟 198
波器 198
渣@@ 198
皮特 198
研究院 198
穗 198
纪录@@ 198
膏@@ 198
臣 198
补助 198
跨国 198
通讯@@ 198
骄@@ 198
33 197
上海@@ 197
下调 197
坦率 197
奸@@ 197
布兰@@ 197
扭 197
拒@@ 197
支持@@ 197
瞧@@ 197
祝@@ 197
符合@@ 197
考虑@@ 197
钙@@ 197
雏@@ 197
43 196
一是 196
三人 196
不起@@ 196
主宰 196
二氧化@@ 196
减速 196
合理性 196
吝@@ 196
商品@@ 196
四种 196
培养@@ 196
娘@@ 196
学术@@ 196
恐吓 196
扁 196
正确性 196
殷@@ 196
汹@@ 196
消防 196
烬 196
甩@@ 196
皿 196
相关联 196
认真@@ 196
评审 196
详尽 196
赦免 196
趋于 196
阁下 196
al 195
r 195
the@@ 195
传媒 195
大幅度 195
排放量 195
旅游业 195
无害 195
时所 195
果断 195
氓 195
深海 195
潭 195
缺损 195
认 195
辉@@ 195
辱 195
递交 195
阅@@ 195
陈旧 195
颂@@ 195
首位 195
r@@ 194
三分之二 194
付给 194
制订 194
力图 194
协@@ 194
厌 194
始 194
布尔 194
开罗 194
引爆 194
惯 194
截然不同 194
挣 194
日元 194
更进一步 194
有效率 194
沙特阿拉伯 194
生态环境 194
相符 194
睑 194
禅@@ 194
纳米@@ 194
能为@@ 194
萤@@ 194
行径 194
讲座 194
起码 194
逗 194
ha@@ 193
人中 193
写信 193
分子@@ 193
功@@ 193
卢 193
发病率 193
喀@@ 193
囤@@ 193
崎@@ 193
总监 193
慌 193
掠夺 193
援@@ 193
撤@@ 193
斯科 193
杜 193
杠 193
泛滥 193
源泉 193
疏忽 193
营业@@ 193
警察局 193
迈出 193
饮用水 193
一事 192
产品质量 192
人文@@ 192
传给 192
化工 192
合物 192
吸烟@@ 192
国务卿 192
家庭成员 192
朋@@ 192
本地@@ 192
水资源 192
洲@@ 192
涉嫌 192
煽动 192
电子商务 192
睫@@ 192
荫 192
资本@@ 192
边际 192
适于 192
铰@@ 192
阿里 192
随之@@ 192
三位 191
两组 191
使用寿命 191
愁@@ 191
殖 191
洪 191
涛 191
盒@@ 191
矫正 191
等同于 191
而易@@ 191
董 191
葱@@ 191
蝶@@ 191
行动@@ 191
解体 191
34 190
= 190
at@@ 190
ol@@ 190
一分 190
一带 190
免于 190
创业@@ 190
判 190
匀 190
合伙人 190
学业 190
徵 190
数学@@ 190
步兵 190
民主@@ 190
煎 190
英国政府 190
调和 190
镀 190
陵@@ 190
预 190
骤@@ 190
HIV 189
一个多 189
不大 189
令人震惊 189
位数 189
信息技术 189
充分@@ 189
冗长 189
准时 189
出版物 189
化物 189
吸取 189
基层 189
塌@@ 189
学说 189
就职 189
局限性 189
巷@@ 189
成本@@ 189
摩洛哥 189
文本@@ 189
更强 189
疤 189
省份 189
纳税 189
胱 189
舔 189
航线 189
蔑视 189
访问@@ 189
谚@@ 189
飘 189
... 188
De@@ 188
余地 188
修正案 188
典范 188
刑@@ 188
匀@@ 188
哑@@ 188
坯 188
天主@@ 188
州市 188
录像@@ 188
措辞 188
梨 188
概@@ 188
特工 188
献 188
盗窃 188
稠 188
结核病 188
编号 188
缴纳 188
萎 188
衍 188
谨@@ 188
郭@@ 188
酰@@ 188
铸 188
高水平 188
ES@@ 187
st@@ 187
不相@@ 187
九个 187
保安 187
偏远 187
免税 187
兑现 187
半年 187
容性 187
帖@@ 187
效用 187
斯塔@@ 187
段落 187
水质 187
沙特 187
点钟 187
络 187
膳食 187
重心 187
霍乱 187
鼓掌 187
PA@@ 186
PH@@ 186
不许 186
五岁 186
从根本上 186
制定者 186
呈@@ 186
大都 186
奴役 186
嫩@@ 186
学历 186
打死 186
扶 186
拍卖@@ 186
持续时间 186
数以千计 186
治疗@@ 186
渲@@ 186
特拉 186
痘 186
稀 186
统计数据 186
罕@@ 186
裕 186
西北部 186
锚 186
镍 186
阳性 186
附带 186
集装箱 186
靶@@ 186
颁@@ 186
领地 186
颌 186
14@@ 185
Sp@@ 185
不带 185
公共卫生 185
堕胎 185
外交@@ 185
契 185
导游 185
局长 185
布鲁塞尔 185
懊@@ 185
捕鱼 185
数学模型 185
文物 185
无须 185
时要 185
栽 185
欧洲@@ 185
残暴 185
汞 185
浦@@ 185
灌输 185
琪 185
租金 185
米歇尔 185
缪@@ 185
翩@@ 185
药性 185
诀 185
蹄@@ 185
身体健康 185
金枪鱼 185
陀@@ 185
47 184
NBA 184
se 184
一倍 184
兆@@ 184
口服 184
喔 184
回国 184
地理@@ 184
姨 184
屡@@ 184
得出结论 184
损@@ 184
枪支 184
柑@@ 184
梭@@ 184
油气 184
派出 184
流浪 184
浮动 184
淌 184
深化 184
燥@@ 184
特许 184
病毒@@ 184
盔@@ 184
知识分子 184
简介 184
绸@@ 184
蓝图 184
诺言 184
贝克 184
躺@@ 184
过期 184
里奥 184
钳@@ 184
降到 184
陪@@ 184
饮食@@ 184
鲑@@ 184
世界卫生组织 183
乃 183
公然 183
参照 183
增进 183
岂 183
布里@@ 183
并不一定 183
庇护 183
开拓 183
弊@@ 183
戳 183
教派 183
枕 183
枚@@ 183
查阅 183
泼@@ 183
津巴布韦 183
穆罕默德 183
筛@@ 183
简单@@ 183
美联@@ 183
茂 183
营业 183
薄弱 183
起义 183
车间 183
逗留 183
邮政 183
重新启动 183
钛 183
院长 183
骚@@ 183
主导地位 182
先驱 182
全职 182
劫持 182
北欧 182
叛军 182
坚持@@ 182
基亚 182
大为 182
妃 182
姜 182
容许 182
密切相关 182
掠 182
晋@@ 182
暴风@@ 182
梢 182
歪@@ 182
沉积物 182
绽@@ 182
补救 182
远远@@ 182
院校 182
41 181
by 181
ip@@ 181
住处 181
倚@@ 181
催化 181
号召 181
戴维 181
放射 181
无家可归 181
椒@@ 181
欣 181
氰@@ 181
私下 181
秆 181
空袭 181
窖 181
纺织品 181
终生 181
统计@@ 181
胁迫 181
蒲@@ 181
装甲 181
赵@@ 181
跋@@ 181
零部件 181
15@@ 180
In@@ 180
` 180
f 180
不合 180
丐 180
业界 180
倾 180
光盘 180
到位 180
剔@@ 180
双向 180
吼 180
国民@@ 180
坦诚 180
壮大 180
平衡@@ 180
幼儿 180
截止 180
择 180
搜集 180
教科书 180
无关@@ 180
杀虫剂 180
深感 180
爱国@@ 180
甩 180
科技@@ 180
税务 180
笔者 180
笛@@ 180
筷@@ 180
系列@@ 180
罗马尼亚 180
耕 180
肝炎 180
蕊 180
蜷@@ 180
西班牙语 180
足轻重 180
配额 180
里昂 180
际@@ 180
除外 180
鼎@@ 180
中央银行 179
出口@@ 179
分组 179
啮@@ 179
墩 179
审慎 179
少于 179
所为 179
所得税 179
拉丁@@ 179
换取 179
敬意 179
斯塔 179
暗杀 179
渠 179
熏 179
理会 179
百分比 179
科学研究 179
经验丰富 179
胚@@ 179
膨@@ 179
菲利普 179
蜴 179
豌@@ 179
避孕 179
铭 179
驳 179
John@@ 178
le@@ 178
为时@@ 178
二世 178
产能 178
函 178
刑法 178
吵 178
复杂@@ 178
多地 178
多媒体 178
宣誓 178
彰@@ 178
彻 178
意志@@ 178
投掷 178
拭 178
援 178
新一轮 178
柏 178
毕业@@ 178
注册@@ 178
瞪 178
紫 178
美好@@ 178
萨尔 178
诚然 178
追溯 178
铲@@ 178
颜 178
250 177
il@@ 177
or 177
ve@@ 177
交通工具 177
估值 177
侏@@ 177
克利 177
出口商 177
听证会 177
呻@@ 177
商业银行 177
尉 177
归纳 177
慨 177
拉美 177
收音机 177
最低@@ 177
有幸 177
游戏@@ 177
炸药 177
瞪@@ 177
稿@@ 177
纶 177
绝大部分 177
荷兰@@ 177
辰 177
附上 177
陪同 177
高频 177
Qu@@ 176
pt 176
三大 176
严密 176
作证 176
八年 176
凯 176
凰 176
匪 176
十二 176
召 176
团伙 176
婚姻@@ 176
布雷 176
弹药 176
拦截 176
指明 176
教材 176
末尾 176
渗 176
畜 176
督@@ 176
瞥 176
禽流感 176
稳定@@ 176
萎@@ 176
览@@ 176
详 176
调动 176
贯 176
跨国公司 176
辨认 176
达到@@ 176
颁发 176
1997 175
佛罗@@ 175
借款 175
公务员 175
分类@@ 175
切实 175
圣地亚哥 175
工作岗位 175
括号 175
揉 175
提供者 175
枢@@ 175
欣慰 175
歉@@ 175
爱国 175
班级 175
痫 175
空间站 175
篡@@ 175
细分 175
趁@@ 175
难者 175
预防措施 175
Ac@@ 174
不负责任 174
体育运动 174
关键因素 174
反叛 174
岳@@ 174
弗里@@ 174
新一代 174
桂 174
母语 174
玷@@ 174
琼 174
磋商 174
约翰@@ 174
缓冲区 174
请参阅 174
账@@ 174
赞助@@ 174
这么@@ 174
邻 174
颖@@ 174
高中@@ 174
cri@@ 173
ke@@ 173
伐 173
优惠@@ 173
会计师 173
侯@@ 173
免除 173
动乱 173
历史性 173
境况 173
她@@ 173
家属 173
投机@@ 173
投资银行 173
旳 173
更快 173
汇报 173
睁 173
禽@@ 173
篝@@ 173
趴@@ 173
选区 173
遵从 173
醚 173
锦标@@ 173
DA@@ 172
PS 172
人以 172
侵权 172
克里 172
关键问题 172
半数 172
危险性 172
可卡因 172
否 172
听取 172
垮@@ 172
基督@@ 172
大面积 172
宗教信仰 172
性病 172
担当 172
拉丁美洲 172
拷贝 172
放慢 172
晤@@ 172
渔民 172
琥@@ 172
男子@@ 172
联合会 172
评分 172
专 171
专利@@ 171
丰富@@ 171
农民@@ 171
升温 171
吸收@@ 171
哀悼 171
始终@@ 171
宣传@@ 171
尔多 171
岁@@ 171
拆 171
拉姆 171
掌管 171
撑 171
播出 171
改动 171
斐@@ 171
界线 171
管理系统 171
综合性 171
老年@@ 171
行长 171
避难所 171
颌@@ 171
IN@@ 170
Wind@@ 170
es 170
一步@@ 170
专业人士 170
个世纪 170
中以 170
乒@@ 170
任何@@ 170
任职 170
伐@@ 170
先后 170
年内 170
悠 170
搁@@ 170
救护车 170
替代品 170
核能 170
添 170
物质@@ 170
牺牲@@ 170
考核 170
航天 170
茸@@ 170
重型 170
and@@ 169
『 169
』 169
不利于 169
业务流程 169
也门 169
信奉 169
出卖 169
医疗保健 169
合作@@ 169
呜@@ 169
和谐@@ 169
哄 169
契@@ 169
宛@@ 169
局限于 169
岗 169
工作量 169
慈善机构 169
掩 169
斩@@ 169
氯化@@ 169
消息@@ 169
烧毁 169
独立@@ 169
票据 169
粗暴 169
糙@@ 169
经理@@ 169
维也纳 169
美洲@@ 169
表现@@ 169
谢谢@@ 169
起始 169
逛@@ 169
饲@@ 169
3D 168
三十 168
仰 168
前夕 168
同性 168
国际货币基金组织 168
圣地 168
开创 168
恕 168
拐 168
旨@@ 168
栩@@ 168
梗 168
河谷 168
澳@@ 168
爽@@ 168
玛丽亚 168
砍伐 168
确 168
稼 168
窄@@ 168
蒙特@@ 168
辑@@ 168
遗体 168
骚 168
bu@@ 167
let 167
上市公司 167
侦察 167
债@@ 167
共存 167
别处 167
制药 167
卉 167
国际化 167
并行 167
恒 167
无罪 167
独 167
瞩目 167
紧迫 167
肋 167
致死 167
莱斯 167
葫@@ 167
蔗@@ 167
蜒 167
蜿@@ 167
调查结果 167
赞 167
赶走 167
跤 167
达成协议 167
ot@@ 166
三十年 166
不大可能 166
之手 166
凭证 166
前一天 166
办事处 166
动用 166
匮乏 166
卡斯 166
妄 166
妒@@ 166
官僚@@ 166
巨大@@ 166
帅@@ 166
归于 166
悖@@ 166
操作性 166
收养 166
敦 166
曳 166
朝向 166
杀人@@ 166
次要 166
润滑@@ 166
缺乏@@ 166
罹@@ 166
自由化 166
衡 166
贞 166
踩@@ 166
蹈@@ 166
邮寄 166
46 165
一届 165
一章 165
上任 165
与其@@ 165
严格@@ 165
会议室 165
出国 165
副产品 165
努力@@ 165
吼@@ 165
嫌疑人 165
栗@@ 165
生殖器 165
病学 165
盟国 165
竿 165
表决 165
试验@@ 165
进出 165
远见 165
锈@@ 165
驰@@ 165
man@@ 164
z 164
会晤 164
信用证 164
兑换 164
冉@@ 164
刚刚@@ 164
动员 164
卒 164
县@@ 164
各大 164
吟@@ 164
员@@ 164
季节性 164
宏观经济 164
强制性 164
悴 164
惰@@ 164
期货 164
格拉 164
梨@@ 164
清晰@@ 164
烯 164
珊瑚礁 164
破坏@@ 164
私有化 164
筹集 164
荫@@ 164
被忽视 164
西班牙@@ 164
邀 164
醇@@ 164
饶 164
1998 163
IPO 163
Le@@ 163
中华@@ 163
出差 163
哈利@@ 163
嘉 163
媒体报道 163
忧 163
性关系 163
残疾人 163
照看 163
甸 163
碟@@ 163
祝愿 163
股本 163
腮@@ 163
藻@@ 163
蛋白@@ 163
详细信息 163
铭@@ 163
门槛 163
MBA 162
两者之间 162
之多 162
交换@@ 162
价格上涨 162
公会 162
其为 162
减税 162
函@@ 162
初次 162
包容 162
嗅 162
国籍 162
太高 162
子公司 162
平方@@ 162
总共 162
憔@@ 162
揭 162
星期日 162
有何 162
痰 162
砾 162
穴@@ 162
经营@@ 162
统一@@ 162
蟑@@ 162
计算方法 162
许多@@ 162
轮流 162
SP 161
h 161
不成 161
伤亡 161
偿 161
全国性 161
刑罚 161
囚禁 161
奴隶制 161
孜@@ 161
所作@@ 161
暴乱 161
曼谷 161
格雷 161
氟 161
玛丽@@ 161
生计 161
盲人 161
矿业 161
竞选@@ 161
第一批 161
绰@@ 161
缴@@ 161
联接 161
螺 161
许诺 161
返 161
项目@@ 161
首尔 161
髋@@ 161
高出 161
鸿@@ 161
AD@@ 160
MI@@ 160
为数@@ 160
侯 160
儒 160
关爱 160
团聚 160
城市化 160
女士@@ 160
宽带 160
屁 160
并非如此 160
得起 160
接触@@ 160
政体 160
方针 160
枢 160
民间@@ 160
法治 160
穆 160
空缺 160
经营者 160
结算 160
罢 160
耕作 160
腓@@ 160
自然资源 160
规范@@ 160
霞 160
MA@@ 159
世纪@@ 159
之初 159
人称 159
以内 159
以期 159
企 159
偏向 159
克兰 159
印机 159
参考资料 159
吸毒 159
嘈@@ 159
宠 159
对准 159
强加 159
彼得@@ 159
得益于 159
拮@@ 159
捏@@ 159
捞 159
携手 159
涵@@ 159
湛 159
物价 159
第三次 159
经纪 159
缭@@ 159
致敬 159
警卫 159
贿 159
长官 159
马拉 159
ill@@ 158
临界 158
交货 158
傅 158
关押 158
刚果 158
哄@@ 158
嘟@@ 158
城区 158
奄@@ 158
悚@@ 158
撤退 158
晋升 158
普遍认为 158
暑 158
特征@@ 158
硼@@ 158
糕@@ 158
紧急情况 158
翘@@ 158
苜@@ 158
萝 158
蝗@@ 158
裂变 158
迈进 158
逻@@ 158
郎@@ 158
音机 158
马德里 158
魏@@ 158
Con@@ 157
Davi@@ 157
不言@@ 157
为生 157
二十 157
互相@@ 157
供电 157
公顷 157
历来 157
发射@@ 157
固然 157
必然@@ 157
恳 157
拼 157
殴打 157
用具 157
盟军 157
经济效益 157
继续下去 157
芝 157
赚取 157
铲 157
镖 157
20@@ 156
AN@@ 156
Rob@@ 156
ag@@ 156
cl@@ 156
东南 156
共同努力 156
军事行动 156
办事 156
勘@@ 156
反恐 156
口径 156
商界 156
外汇 156
审讯 156
废弃物 156
德里 156
怎样@@ 156
效仿 156
教区 156
新闻报道 156
杀戮 156
狙@@ 156
社团 156
聘请 156
肖 156
芥@@ 156
范例 156
象征性 156
财政部长 156
起草 156
阐释 156
Sh@@ 155
u 155
不懈 155
乔治@@ 155
借用 155
凶 155
加班 155
匪@@ 155
危 155
嚏 155
工作效率 155
已婚 155
恐怖@@ 155
损耗 155
政变 155
敌军 155
极高 155
求助 155
甘 155
稽@@ 155
窟 155
符@@ 155
第二次世界大战 155
遗留 155
邪 155
． 155
13@@ 154
Ad@@ 154
PA 154
不宜 154
伙计 154
养育 154
加勒比海 154
受访者 154
哥伦比亚@@ 154
婴 154
宵@@ 154
延期 154
技术人员 154
撤出 154
普遍存在 154
服装@@ 154
机动 154
檐 154
每天@@ 154
滞后 154
犯罪@@ 154
用语 154
缆@@ 154
脆@@ 154
脓@@ 154
自卫 154
衷心 154
证词 154
赠 154
辩解 154
铁路@@ 154
阅读@@ 154
陀 154
ri@@ 153
况@@ 153
咖@@ 153
多项 153
实地 153
工人@@ 153
已故 153
惨 153
整体@@ 153
日内瓦 153
活动@@ 153
清算 153
烁@@ 153
癖 153
私人@@ 153
立方@@ 153
绘 153
羽 153
艾滋病毒 153
覆盖@@ 153
谎@@ 153
跪@@ 153
转到 153
避孕套 153
重大@@ 153
阈值 153
霸 153
领取 153
1.5 152
1995 152
LO@@ 152
一一 152
不符 152
两项 152
中为 152
倾倒 152
创新@@ 152
四大 152
应得 152
搜查 152
暴行 152
极端主义 152
栖 152
满意度 152
环保@@ 152
移交 152
管辖 152
裙@@ 152
趾@@ 152
跟上 152
迹@@ 152
重新考虑 152
雇 152
1980 151
PO@@ 151
Per@@ 151
TA@@ 151
Z 151
人质 151
保护主义 151
储藏 151
卫队 151
吾@@ 151
国有@@ 151
地处 151
大意 151
悍 151
愧@@ 151
扯@@ 151
海港 151
激增 151
理应 151
瘠 151
研 151
碾@@ 151
示范 151
簇 151
结构性 151
谁@@ 151
贤@@ 151
货运 151
辙 151
近几年 151
霜@@ 151
预警 151
颓@@ 151
1996 150
产科 150
倒退 150
务实 150
取得@@ 150
受人 150
土著 150
归还 150
恨@@ 150
感染@@ 150
拱 150
新政府 150
津贴 150
瓷 150
芯@@ 150
蛎 150
谋求 150
较长 150
储量 149
动植物 149
化解 149
可取 149
喃@@ 149
围栏 149
坚持不懈 149
基石 149
复原 149
尽早 149
市政 149
庙@@ 149
开幕式 149
张贴 149
归因于 149
指挥@@ 149
换言之 149
效能 149
枪击 149
楔@@ 149
汪@@ 149
汽 149
没事 149
砰 149
笆 149
纾 149
被控 149
5000 148
WTO 148
ob@@ 148
ra@@ 148
不足@@ 148
令人不安 148
凿@@ 148
厨 148
在政治上 148
在此期间 148
多方面 148
多边 148
嫁 148
宰 148
巴斯 148
并不认为 148
德语 148
拖欠 148
案@@ 148
比重 148
淀@@ 148
渐进 148
熬@@ 148
狭隘 148
的黎波里 148
立大学 148
第六 148
芦 148
萦@@ 148
蓿 148
釉@@ 148
龟@@ 148
51 147
NASA 147
us 147
一条@@ 147
乌 147
乓@@ 147
伙伴关系 147
偿@@ 147
冯@@ 147
工作日 147
布里 147
抉@@ 147
政府部门 147
海洛因 147
深信 147
烷 147
甸@@ 147
盈余 147
砌@@ 147
砷 147
秉@@ 147
簧@@ 147
绘图 147
而定 147
芜 147
访谈 147
调查局 147
躬 147
采纳 147
高额 147
ST@@ 146
as 146
ing 146
佬 146
促@@ 146
减排 146
别无选择 146
发展趋势 146
合法性 146
吉尔@@ 146
喙 146
实证 146
就业机会 146
年份 146
废料 146
开火 146
强行 146
怕@@ 146
朱 146
核实 146
榴弹 146
毙 146
泊@@ 146
熟练@@ 146
率领 146
自给自足 146
蛮@@ 146
辐射@@ 146
铆@@ 146
颅 146
44 145
GPS 145
RE@@ 145
ton 145
一如 145
交叉@@ 145
什叶派 145
传播@@ 145
佩克 145
十五 145
受到@@ 145
吱@@ 145
奥林匹克 145
姑 145
宗教@@ 145
定位@@ 145
寨 145
导体 145
巅@@ 145
徵@@ 145
惶@@ 145
所罗@@ 145
拉尔 145
挂钩 145
捏 145
朝鲜@@ 145
泛 145
蔓@@ 145
豁免 145
赔@@ 145
连续@@ 145
退役 145
钢铁@@ 145
64 144
NET 144
ev@@ 144
保管 144
厥 144
定罪 144
强国 144
循环@@ 144
急救 144
战时 144
新近 144
极其重要 144
核对 144
畔 144
空前 144
粮@@ 144
絮@@ 144
萨达@@ 144
蓬勃@@ 144
行为@@ 144
讥@@ 144
起着 144
践踏 144
转折点 144
轭 144
连续性 144
镰@@ 144
附加@@ 144
Car@@ 143
N1 143
ate 143
sof@@ 143
东北@@ 143
乖 143
享 143
加纳 143
医治 143
奎 143
奸 143
择@@ 143
挥 143
族人 143
机动@@ 143
校友 143
桔@@ 143
榴 143
特里@@ 143
猿 143
申诉 143
眨 143
纪念日 143
羔 143
自助 143
蒂斯 143
谣 143
逝世 143
酋长 143
采样 143
陷于 143
青年人 143
1.@@ 142
Ex@@ 142
SE@@ 142
ch 142
不容 142
世代 142
利用率 142
南美 142
同居 142
哥伦@@ 142
嘎@@ 142
外资 142
帚 142
建议@@ 142
憎 142
概要 142
橘 142
洽 142
炙@@ 142
百万美元 142
矗@@ 142
矛 142
种族隔离 142
策@@ 142
簇@@ 142
自杀@@ 142
表示@@ 142
较差 142
辅导 142
锦 142
预算@@ 142
鸦片 142
3000 141
der 141
不予 141
东亚 141
两点 141
中旬 141
中起 141
之久 141
二级 141
五分之一 141
件人 141
凸 141
勒索 141
少数@@ 141
巴勒斯坦人 141
帕特@@ 141
徽 141
恐怖袭击 141
手机@@ 141
持续性 141
早先 141
昔 141
档@@ 141
现金@@ 141
疤@@ 141
盲 141
秃 141
稳健 141
而言之 141
脾@@ 141
节省@@ 141
蔚@@ 141
装运 141
贩@@ 141
转为 141
运动会 141
高级官员 141
伊斯 140
僚 140
分散@@ 140
各处 140
大有 140
嫌 140
寥@@ 140
开幕 140
快速增长 140
感到高兴 140
战斗@@ 140
指派 140
推进@@ 140
援引 140
斧 140
曹@@ 140
每一 140
沦为 140
注明 140
滞@@ 140
眷@@ 140
碘 140
缆 140
缴 140
语文 140
边界@@ 140
迫切需要 140
钓 140
陕@@ 140
集中精力 140
鹤 140
Bo@@ 139
ME 139
Ru@@ 139
不复存在 139
乍@@ 139
会长 139
佣金 139
充 139
出示 139
劳动者 139
医学院 139
取样 139
另一方 139
国有企业 139
审 139
往返 139
改正 139
无法控制 139
普尔 139
民兵 139
熙@@ 139
痊@@ 139
研究进展 139
第一种 139
箔 139
羔@@ 139
茧 139
薪资 139
诚挚 139
该市 139
贪污 139
部族 139
防御@@ 139
集体@@ 139
靡 139
1992 138
Py@@ 138
ter@@ 138
农业@@ 138
凸显 138
十五@@ 138
压力@@ 138
失败@@ 138
安大@@ 138
审议 138
尺@@ 138
年轻@@ 138
快点 138
怯@@ 138
您@@ 138
报名 138
无误 138
日趋 138
昌@@ 138
汁@@ 138
炮弹 138
生产率 138
申报 138
绿色@@ 138
自行@@ 138
负债表 138
贮存 138
贸 138
达尔 138
49 137
AR@@ 137
Ro@@ 137
ig@@ 137
om@@ 137
专业化 137
俚@@ 137
值得@@ 137
党员 137
内向 137
凝聚力 137
劈@@ 137
勺@@ 137
化为 137
匿 137
原住民 137
啡 137
图象 137
垒@@ 137
姊@@ 137
孩 137
岖 137
广东@@ 137
开除 137
悟@@ 137
战略@@ 137
振兴 137
斯里兰卡 137
有效@@ 137
本科 137
正确@@ 137
氡 137
焉 137
玻利维亚 137
生产者 137
睹 137
第二种 137
簸 137
聘用 137
萨德 137
蛤@@ 137
议院 137
货币@@ 137
身份证 137
连贯 137
Ap@@ 136
DF 136
ard@@ 136
oo@@ 136
um@@ 136
不下 136
两类 136
亏@@ 136
介 136
余下 136
保加利亚 136
倡议 136
匕@@ 136
卫生保健 136
取向 136
哗@@ 136
大纲 136
屎 136
态势 136
慎@@ 136
承担责任 136
拥有者 136
揉@@ 136
族群 136
林业 136
榈@@ 136
毅 136
沫 136
治安 136
深刻@@ 136
秘书长 136
立法者 136
第十@@ 136
缎@@ 136
职人员 136
虏 136
裹@@ 136
训 136
贱 136
长者 136
阁 136
高等 136
1500 135
180 135
52 135
ator 135
co@@ 135
di@@ 135
ess@@ 135
is 135
it 135
下落 135
严重性 135
俊@@ 135
借此 135
关切 135
同性恋者 135
哼@@ 135
外交部 135
宅@@ 135
安东@@ 135
小规模 135
工地 135
抵押@@ 135
接受@@ 135
故事@@ 135
来访 135
檀@@ 135
汇款 135
汲取 135
泞 135
留住 135
移动电话 135
税款 135
藐视 135
运到 135
运费 135
这为 135
门诊 135
66 134
II 134
RU@@ 134
ib@@ 134
信中 134
债券@@ 134
偷窃 134
全年 134
几点 134
剥削 134
午 134
多长时间 134
就读 134
拉特 134
拨款 134
新德里 134
求职者 134
法律@@ 134
现实意义 134
瞥@@ 134
硒 134
积极性 134
窜 134
缎 134
考古 134
蓬 134
谈判@@ 134
购买@@ 134
距@@ 134
轻型 134
铵 134
高风险 134
72 133
AR 133
Se@@ 133
im@@ 133
东欧 133
了一@@ 133
付诸@@ 133
伊朗@@ 133
伞@@ 133
共同点 133
分析表明 133
博士@@ 133
发电厂 133
同期 133
在短期内 133
多名 133
如此@@ 133
州政府 133
彻底@@ 133
德黑兰 133
拙@@ 133
捐献 133
撤军 133
撤回 133
曙@@ 133
榨@@ 133
橙 133
活动家 133
焙 133
爆炸@@ 133
疾 133
真诚地 133
砌 133
管理工作 133
臣@@ 133
若干@@ 133
蒸 133
趁 133
辐@@ 133
驭 133
鳗@@ 133
1994 132
RS 132
SA 132
te@@ 132
主题@@ 132
令人信服 132
债务人 132
公用 132
内有 132
南美洲 132
即将@@ 132
同一@@ 132
咄@@ 132
哈尔 132
地理位置 132
岂@@ 132
干嘛 132
当日 132
愿景 132
拥护 132
文盲 132
新来 132
晦@@ 132
本应 132
来往 132
歹@@ 132
殿@@ 132
泵@@ 132
流行病学 132
特区 132
纳斯 132
肘@@ 132
芹@@ 132
葛 132
蒙特 132
蟾@@ 132
觅 132
计划@@ 132
象征@@ 132
财物 132
趋向 132
转录 132
错综复杂 132
面对面 132
麋@@ 132
Or@@ 131
上级 131
个案 131
份@@ 131
依赖性 131
值得注意 131
分担 131
则@@ 131
加倍 131
啤@@ 131
啦@@ 131
女性@@ 131
岌@@ 131
库克 131
弗兰@@ 131
惬@@ 131
挨 131
放牧 131
敷 131
有无 131
枢纽 131
次序 131
氨 131
水处理 131
波斯@@ 131
火器 131
燃料@@ 131
独立性 131
盯@@ 131
社会保障 131
种族歧视 131
缔@@ 131
罗姆@@ 131
耸 131
茱@@ 131
资金@@ 131
蹲@@ 131
这一@@ 131
阵地 131
食物@@ 131
马达加斯加 131
驳@@ 131
56 130
Micro@@ 130
NO@@ 130
et 130
一期 130
任一 130
估价 130
例行 130
停滞不前 130
入境 130
兮 130
准许 130
制冷 130
力求 130
劣势 130
危地马拉 130
可信度 130
噜 130
国际贸易 130
地缘 130
坍@@ 130
存档 130
存货 130
实习生 130
寸@@ 130
心理健康 130
战机 130
拉夫 130
摒弃 130
收据 130
旋风 130
无论@@ 130
显著@@ 130
更为重要 130
查明 130
民事 130
污染@@ 130
睿@@ 130
知名度 130
移居 130
突发 130
翻译成 130
耕种 130
萧@@ 130
藓 130
蘸 130
螃@@ 130
解释@@ 130
诚意 130
询@@ 130
非政府 130
领事馆 130
鲨 130
鸽 130
Ar@@ 129
FD@@ 129
op@@ 129
不间断 129
且@@ 129
仅为 129
关键词 129
凹 129
凿 129
区内 129
各级 129
合法化 129
含糊 129
夷@@ 129
实在@@ 129
市政@@ 129
广播@@ 129
归类 129
性别歧视 129
捕捞 129
敦@@ 129
暴力事件 129
桅@@ 129
殖民@@ 129
汐 129
渐 129
湍@@ 129
留出 129
眩 129
硕士 129
第三章 129
系统性 129
编排 129
羟@@ 129
肚 129
赫尔@@ 129
起因 129
适 129
阻挠 129
障@@ 129
非暴力 129
领事 129
鸿沟 129
2.5 128
AL@@ 128
Bu@@ 128
IC@@ 128
at 128
ern@@ 128
一九@@ 128
万亿美元 128
不列颠 128
乌干达 128
以南 128
保持沉默 128
南北 128
双语 128
另一名 128
多边@@ 128
夫斯基 128
奥林匹@@ 128
妖 128
寝@@ 128
少数几个 128
幅@@ 128
忿@@ 128
所指 128
拂@@ 128
拾 128
柯 128
正视 128
法学 128
灸 128
矛@@ 128
竭尽全力 128
绣@@ 128
罚@@ 128
蚓 128
蜍 128
表现形式 128
附有 128
ment@@ 127
to@@ 127
仲@@ 127
克罗@@ 127
吗@@ 127
咧@@ 127
圣保罗 127
小学生 127
总统@@ 127
惚 127
感到@@ 127
感觉@@ 127
截 127
护送 127
担 127
敏感@@ 127
本合同 127
杉@@ 127
波罗的海 127
海洋生物 127
烙@@ 127
瓦尔 127
磺 127
科威特 127
科目 127
综合@@ 127
苔 127
蔼 127
谋杀@@ 127
较少 127
遐@@ 127
铭记 127
陛下 127
驱 127
高度@@ 127
AM@@ 126
BP 126
EC@@ 126
here@@ 126
ie 126
不尽@@ 126
住宅@@ 126
减去 126
分之一 126
分段 126
利用@@ 126
剽@@ 126
助长 126
司令 126
哩 126
四次 126
塞尔维亚 126
市政府 126
总和 126
擅@@ 126
新增 126
未婚 126
泻 126
牙科 126
琢@@ 126
百分点 126
知识@@ 126
砸@@ 126
纷 126
苷 126
补给 126
调研 126
通行 126
铐 126
长期@@ 126
革 126
驾 126
05 125
CR@@ 125
Har@@ 125
IS 125
MI 125
介于 125
令人担忧 125
以供 125
信息化 125
先例 125
关键技术 125
厘@@ 125
受众 125
受害人 125
埃尔 125
学生@@ 125
完工 125
就绪 125
崩 125
当地政府 125
必需品 125
抵 125
昼@@ 125
榄 125
深切 125
现成 125
眶 125
经验@@ 125
腕@@ 125
舵@@ 125
苏里@@ 125
蓄意 125
试图@@ 125
里约热内卢 125
雨量 125
风险@@ 125
鼹@@ 125
Mon@@ 124
Un@@ 124
id@@ 124
ul@@ 124
三条 124
入学 124
内部@@ 124
再生能源 124
判处 124
化肥 124
十二个 124
受益人 124
国土 124
坚定不移 124
屑@@ 124
应是 124
御@@ 124
接入 124
搁 124
更多地 124
柳 124
椅@@ 124
深入研究 124
猖獗 124
男女@@ 124
瘫 124
瞌@@ 124
礼堂 124
空中@@ 124
脾 124
蔽@@ 124
裳 124
规程 124
谅解 124
退回 124
遥感 124
里兰@@ 124
针对性 124
问卷 124
CR 123
EM 123
UN@@ 123
dro@@ 123
ta@@ 123
不成@@ 123
与会者 123
五天 123
今天下午 123
例证 123
供水 123
兴建 123
区域性 123
卖淫 123
圣母 123
增值 123
崽 123
录取 123
忱 123
意在 123
招标 123
据此 123
放映 123
文凭 123
棘@@ 123
次级 123
歪 123
水电 123
涵 123
爱尔@@ 123
皮埃尔 123
监 123
第二章 123
约旦 123
纲 123
缤@@ 123
西欧 123
诞@@ 123
里亚 123
霓@@ 123
面向@@ 123
额度 123
马尼拉 123
鸵@@ 123
麝@@ 123
CB@@ 122
CS@@ 122
SS@@ 122
一职 122
人事 122
人格@@ 122
共产@@ 122
卤@@ 122
啬 122
境外 122
大力@@ 122
大笔 122
彷@@ 122
搬迁 122
携 122
旷 122
档案@@ 122
殉@@ 122
濒危 122
穗@@ 122
能以 122
腌@@ 122
苇 122
蚤 122
调查@@ 122
质量@@ 122
限额 122
首要@@ 122
香港@@ 122
DO@@ 121
MP 121
ack@@ 121
ker 121
ph@@ 121
人才@@ 121
佩林 121
南斯拉夫 121
双边 121
叼 121
外汇储备 121
妓 121
宪 121
巴塞罗那 121
惜@@ 121
扩充 121
捞@@ 121
放宽 121
斯克 121
斯卡 121
沦@@ 121
洛斯 121
特殊@@ 121
獭 121
用地 121
监护 121
约束力 121
绊 121
结核 121
维拉 121
罗伯@@ 121
者@@ 121
莱德 121
表示感谢 121
试用 121
谋生 121
贸@@ 121
金矿 121
钮 121
阿拉伯@@ 121
雇@@ 121
馈 121
魁北@@ 121
53 120
ex@@ 120
不动产 120
丫@@ 120
九年 120
事实@@ 120
亚洲@@ 120
任何一方 120
候选 120
全方位 120
全民 120
加工@@ 120
噪 120
坎 120
夕 120
弱势 120
归属 120
新任 120
无权 120
橄@@ 120
汇集 120
沧@@ 120
第@@ 120
筛 120
董@@ 120
规章 120
贺 120
轧 120
退休金 120
遥 120
避 120
那样@@ 120
钛@@ 120
雹 120
领导层 120
颚 120
飞行@@ 120
1993 119
CM@@ 119
Ste@@ 119
TV 119
he@@ 119
ml 119
sh@@ 119
中央政府 119
主办 119
主办@@ 119
产地 119
佐 119
商品价格 119
回报率 119
妓@@ 119
娴@@ 119
宋 119
志愿 119
恭 119
持久性 119
梅尔 119
犁 119
玲 119
瑕 119
科研@@ 119
紧密@@ 119
胫@@ 119
臭氧 119
芹 119
获准 119
觅@@ 119
跟进 119
退还 119
通货@@ 119
鼬 119
54 118
MD@@ 118
MO@@ 118
ur@@ 118
以使 118
减低 118
初中 118
卡拉@@ 118
卫生部 118
各有 118
哈里@@ 118
啸 118
四分之三 118
国防部长 118
失去@@ 118
实物 118
帷@@ 118
开办 118
开放式 118
怠@@ 118
慎重 118
懂@@ 118
括 118
拴 118
方位 118
有利@@ 118
正常@@ 118
派别 118
疼@@ 118
祢 118
穹@@ 118
筏 118
索取 118
绝对@@ 118
蚯@@ 118
连任 118
酚@@ 118
飞越 118
98 117
li@@ 117
一共 117
上调 117
专员 117
准备@@ 117
单据 117
各个方面 117
合资 117
咸 117
奉行 117
寄宿 117
弗雷 117
很难@@ 117
怜 117
情报局 117
房租 117
托斯 117
抗力 117
捐 117
最佳@@ 117
极端分子 117
检疫 117
概念@@ 117
死因 117
泻@@ 117
流动@@ 117
消耗@@ 117
涸 117
窑 117
第二年 117
第五@@ 117
纽带 117
耽@@ 117
莺 117
菩@@ 117
贩卖 117
资源管理 117
违 117
遗失 117
销毁 117
马来@@ 117
um 116
交通事故 116
传单 116
侦查 116
储蓄@@ 116
入手 116
十六 116
咳 116
增值税 116
多种@@ 116
大体 116
媲@@ 116
宴@@ 116
尽量@@ 116
幔 116
当今世界 116
悬 116
情报@@ 116
挑起 116
捂@@ 116
捷克 116
揽 116
日本政府 116
旬 116
有限@@ 116
权衡 116
殆@@ 116
玻@@ 116
秘密@@ 116
空气污染 116
空运 116
第六@@ 116
筹划 116
络@@ 116
芙@@ 116
营运 116
贤 116
贮 116
适用性 116
避孕药 116
采矿 116
青年@@ 116
Co@@ 115
Paul@@ 115
Th@@ 115
ec@@ 115
le 115
ne@@ 115
ren@@ 115
to 115
一时期 115
乾 115
互补 115
亚美尼亚 115
佼@@ 115
刨@@ 115
含水@@ 115
完备 115
定居点 115
并存 115
开业 115
弈 115
意向 115
拧@@ 115
控诉 115
搐 115
晾@@ 115
来信 115
欢迎@@ 115
死于 115
浇 115
潜 115
电子地图 115
略有 115
秘书处 115
稳步 115
窍 115
竭@@ 115
繁重 115
舅@@ 115
航天局 115
节约@@ 115
蛮 115
酝@@ 115
1991 114
900 114
DC 114
EA 114
GA 114
IC 114
New@@ 114
RC 114
Trans@@ 114
la@@ 114
me 114
一国 114
一如既往 114
丧 114
仅限于 114
作用@@ 114
公投 114
印度洋 114
厄 114
垄@@ 114
处以 114
大大提高 114
市值 114
总督 114
惩罚性 114
挚@@ 114
接替 114
更正 114
未成年人 114
标明 114
洼@@ 114
海事 114
滞留 114
灾区 114
科索沃 114
绩 114
腊@@ 114
茉@@ 114
蔡@@ 114
蝠@@ 114
览会 114
论据 114
该党 114
财政政策 114
验收 114
鳞 114
龈 114
350 113
AB@@ 113
pe@@ 113
万元 113
丈 113
专题 113
便携式 113
写信给 113
决策@@ 113
几名 113
利亚@@ 113
台湾@@ 113
大洋 113
天然@@ 113
审批 113
应为 113
应收 113
持有人 113
挠@@ 113
文书 113
斯洛伐克 113
本法 113
极有 113
欠缺 113
歇尔 113
氦 113
求职 113
波多黎各 113
涅 113
炖@@ 113
生殖@@ 113
相一致 113
筹款 113
羽毛球 113
而上 113
薰@@ 113
贷@@ 113
透明@@ 113
障碍@@ 113
雄心勃勃 113
雨季 113
ER 112
IX 112
Tom@@ 112
一天@@ 112
一般@@ 112
业已 112
产权 112
卢旺达 112
在实践中 112
埃尔@@ 112
廷@@ 112
怠 112
扣押 112
挚 112
搓 112
敌方 112
此案 112
殊@@ 112
母乳喂养 112
热线 112
监察 112
着眼于 112
筛查 112
筹备 112
紧张@@ 112
纺织@@ 112
翡@@ 112
蒋@@ 112
谊@@ 112
达赖@@ 112
酬@@ 112
锂 112
镯 112
鱿@@ 112
58 111
CA 111
MA 111
TC 111
v 111
严重@@ 111
余额 111
僧 111
公共服务 111
兮@@ 111
凳@@ 111
利润@@ 111
单方面 111
叔 111
各界 111
合乎 111
妥善 111
峭@@ 111
循@@ 111
斋@@ 111
斯敦 111
时应 111
枯竭 111
没有@@ 111
深入@@ 111
牧民 111
犯有 111
状态@@ 111
獾 111
电邮 111
舟@@ 111
舷 111
蠢 111
行之有效 111
访者 111
迸@@ 111
邃 111
预付 111
63 110
83 110
IT@@ 110
bean 110
ov@@ 110
专长 110
为首 110
书目 110
事例 110
人力@@ 110
供应@@ 110
保持一致 110
全文 110
公立学校 110
告诉@@ 110
因果 110
地雷 110
大型@@ 110
婉@@ 110
峙 110
建设@@ 110
弹头 110
技术上 110
报销 110
榆@@ 110
民用 110
洼 110
环境污染 110
瓣@@ 110
瘙@@ 110
祛@@ 110
腆 110
航天器 110
苣 110
讽@@ 110
诙@@ 110
进出口 110
邸 110
长短 110
阿拉伯人 110
陶 110
12@@ 109
1989 109
Domin@@ 109
Exc@@ 109
Exchange 109
For@@ 109
Jo@@ 109
LA@@ 109
Lu@@ 109
ver@@ 109
不善 109
体检 109
俏@@ 109
傅@@ 109
减免 109
合理化 109
增长速度 109
姬 109
媒 109
打击@@ 109
拣@@ 109
次世界大战 109
消费品 109
电气@@ 109
秸@@ 109
翔@@ 109
翻新 109
联合国安理会 109
萼 109
西岸 109
贡 109
釉 109
铣@@ 109
防备 109
集结 109
鞠@@ 109
顺利@@ 109
领导@@ 109
风险管理 109
魅@@ 109
0@@ 108
57 108
BA 108
MP@@ 108
My@@ 108
OR@@ 108
RES@@ 108
Sam@@ 108
You@@ 108
os@@ 108
一谈 108
不仅@@ 108
亚人 108
保健@@ 108
倦@@ 108
冤@@ 108
北朝鲜 108
匿@@ 108
卡尔@@ 108
嗒 108
因果关系 108
多巴@@ 108
安理会 108
定为 108
巴拿马 108
府@@ 108
总体@@ 108
惭@@ 108
憩 108
懈@@ 108
执政党 108
搅 108
斯德哥尔摩 108
核查 108
梳 108
瞭@@ 108
突发@@ 108
自然灾害 108
荒 108
西尔 108
赚@@ 108
销商 108
马拉维 108
1979 107
96 107
CL@@ 107
En@@ 107
MS@@ 107
RI 107
SP@@ 107
ax 107
ke 107
ner 107
tion@@ 107
一封信 107
二年 107
伦敦@@ 107
公报 107
关键时刻 107
北美洲 107
参加者 107
国民经济 107
大体上 107
廓 107
开通 107
整顿 107
斤@@ 107
有效途径 107
枯 107
核心@@ 107
水平@@ 107
渊@@ 107
牢房 107
特使 107
特殊性 107
率先 107
稚@@ 107
第七@@ 107
累计 107
自然环境 107
螨 107
迂@@ 107
近几个月 107
送达 107
阿拉伯语 107
AIG 106
IM@@ 106
Mc@@ 106
all@@ 106
der@@ 106
me@@ 106
ok@@ 106
与非 106
专业知识 106
中型 106
互利 106
偎 106
全国@@ 106
出发点 106
勉 106
协 106
南亚 106
各异 106
吨@@ 106
憧@@ 106
抄 106
拷@@ 106
持有者 106
搂 106
攒 106
槟@@ 106
汇总 106
沸 106
流亡 106
煽@@ 106
牢记 106
相当@@ 106
看护 106
祀 106
第一年 106
第一章 106
籽@@ 106
糕 106
纵容 106
聋@@ 106
背离 106
花旗@@ 106
蜕@@ 106
衡@@ 106
规划@@ 106
贯彻 106
路线图 106
迈向 106
附录 106
ar 105
专门@@ 105
住院@@ 105
侵略@@ 105
军用 105
出入 105
删@@ 105
务部 105
十九 105
发生冲突 105
可否 105
各不相同 105
唑 105
商业化 105
啸@@ 105
国产 105
国际原子能机构 105
基线 105
多夫 105
层级 105
慨@@ 105
捐助 105
旅行社 105
服务业 105
永 105
猬 105
用尽 105
私营 105
税务@@ 105
舍尔 105
茵 105
褶 105
讲师 105
蹭 105
锂@@ 105
防护@@ 105
驻扎 105
高效率 105
高等@@ 105
鼓吹 105
00@@ 104
130 104
1970 104
Be@@ 104
CE 104
EM@@ 104
IF@@ 104
Mo@@ 104
Vi@@ 104
ep@@ 104
iz@@ 104
一律 104
中小企业 104
停火 104
公共场所 104
垩 104
多家 104
威慑 104
孟加拉国 104
孢 104
心脏@@ 104
意味@@ 104
拒绝接受 104
揣@@ 104
搬运 104
撤消 104
撮 104
毗邻 104
水产 104
汪 104
派系 104
潇@@ 104
澡@@ 104
犊 104
瘾@@ 104
砾@@ 104
第四章 104
篱 104
结婚@@ 104
菅@@ 104
萃 104
虾@@ 104
见图 104
谍@@ 104
购买力 104
越南@@ 104
邓 104
鞭 104
馈@@ 104
驳斥 104
62 103
CC@@ 103
IB@@ 103
lo@@ 103
ord@@ 103
一般性 103
万个 103
世界性 103
主页 103
传授 103
信任@@ 103
倔@@ 103
健康@@ 103
分配@@ 103
募 103
印制 103
压倒@@ 103
唬 103
嗤@@ 103
四名 103
复印件 103
复杂化 103
委托人 103
字样 103
客观@@ 103
尚无 103
居所 103
峡 103
恢复正常 103
描 103
斯堡 103
早日 103
有害@@ 103
朝鲜半岛 103
榴@@ 103
浣@@ 103
潦@@ 103
炖 103
现阶段 103
租用 103
移动@@ 103
签发 103
粱 103
羹 103
英文@@ 103
莹 103
蔗 103
蕴 103
蛾 103
言论自由 103
诉求 103
豚@@ 103
踝@@ 103
转运 103
逾 103
钾@@ 103
阿斯@@ 103
霾 103
鞍 103
饮水 103
鳄 103
黝@@ 103
81 102
La@@ 102
一次@@ 102
两份 102
中国共产党 102
之以@@ 102
亭@@ 102
会场 102
使馆 102
先决条件 102
军事力量 102
原则上 102
厢@@ 102
发起@@ 102
吻@@ 102
呐@@ 102
品牌@@ 102
哈瓦那 102
哺乳 102
婴幼儿 102
巴西@@ 102
征求 102
憬 102
扶持 102
摩托@@ 102
政府军 102
更有@@ 102
有条@@ 102
正当@@ 102
沿海地区 102
洽@@ 102
焰 102
疫@@ 102
秤 102
篷@@ 102
粤@@ 102
纫 102
肺结核 102
蛹 102
补充@@ 102
袤 102
证件 102
详情 102
迦 102
长老 102
靶 102
︰ 102
ET 101
G20 101
ML@@ 101
cr@@ 101
dle 101
un@@ 101
冕@@ 101
冯 101
出资 101
劾 101
合同@@ 101
囚@@ 101
大气@@ 101
慧 101
技术支持 101
招待会 101
拧 101
推动力 101
数据中心 101
斓 101
旱 101
时有 101
替代@@ 101
有益于 101
核算 101
械 101
概况 101
湮@@ 101
潢 101
熨@@ 101
犯罪行为 101
瑞典@@ 101
登记@@ 101
直升飞机 101
睛 101
矿床 101
究@@ 101
窦 101
竞争性 101
章程 101
缄@@ 101
译文 101
驳回 101
86 100
Col@@ 100
IE 100
Tim@@ 100
ick@@ 100
ir@@ 100
东方@@ 100
事业@@ 100
交出 100
伎@@ 100
刘 100
司法部 100
咕 100
商讨 100
四方 100
坷 100
尼加拉瓜 100
巴萨 100
当务之急 100
怡 100
惮 100
所受 100
扉 100
无限期 100
昌 100
沼 100
淑@@ 100
溴@@ 100
瀚 100
离岸 100
筹 100
纽 100
翱@@ 100
芙 100
蚊 100
课程@@ 100
赦 100
追加 100
逐出 100
67 99
71 99
CH@@ 99
Por@@ 99
am 99
os 99
se@@ 99
专有 99
之用 99
伊尔 99
作好 99
偿付 99
出生@@ 99
圆满 99
处决 99
委任 99
实际@@ 99
客车 99
密性 99
平方米 99
年人 99
拂 99
携带@@ 99
撬@@ 99
新闻媒体 99
施加压力 99
桁@@ 99
槽@@ 99
檐@@ 99
歪曲 99
海洋@@ 99
海运 99
畜牧业 99
窦@@ 99
翘 99
肢@@ 99
萨姆 99
谊 99
赤 99
赴@@ 99
这些@@ 99
酷刑 99
钡 99
钦 99
铂 99
需求量 99
馁 99
马其顿 99
高得 99
AC@@ 98
Man@@ 98
ba 98
si@@ 98
万名 98
产生@@ 98
京都 98
公平@@ 98
关键性 98
决不能 98
出任 98
十四 98
受限制 98
吱 98
啪 98
宵 98
戈尔@@ 98
战线 98
抵触 98
摩根士丹@@ 98
政府@@ 98
文化遗产 98
日益增长 98
本届 98
比赛@@ 98
河畔 98
涛@@ 98
渥太华 98
烷@@ 98
焚@@ 98
狐 98
琼@@ 98
碘@@ 98
绷 98
腼@@ 98
自由贸易 98
苟 98
蒜@@ 98
蚕 98
辗@@ 98
送回 98
避难 98
酯@@ 98
马里@@ 98
﹑ 98
! 97
68 97
Su@@ 97
net 97
交战 97
保护性 97
兜 97
全额 97
发射器 97
哗 97
嘎 97
在经济上 97
地震@@ 97
坪 97
外长 97
大家庭 97
尽全力 97
居住@@ 97
巾@@ 97
年头 97
廉 97
愕 97
损害赔偿 97
昵@@ 97
检查和 97
水土@@ 97
猿@@ 97
璀@@ 97
生育@@ 97
瘤@@ 97
短期内 97
精简 97
纤 97
聘 97
脐 97
蜻@@ 97
趋 97
返还 97
邑 97
钚 97
限制性 97
雌 97
----@@ 96
76 96
BI 96
CP 96
ER@@ 96
Kin@@ 96
RO@@ 96
age@@ 96
ff@@ 96
不能不 96
亚历@@ 96
佣@@ 96
侥@@ 96
侵占 96
保持联系 96
共用 96
出生率 96
助于 96
卒@@ 96
受理 96
哟 96
噪@@ 96
坦桑尼亚 96
巴拉 96
慧@@ 96
抗击 96
检讨 96
法郎 96
涟@@ 96
疆@@ 96
筐 96
茬 96
荔@@ 96
蔻 96
薪@@ 96
蜗 96
譬如 96
讲台 96
贡@@ 96
财力 96
轶@@ 96
迎 96
远景 96
霆 96
01 95
110 95
61 95
Fin@@ 95
ID@@ 95
ST 95
ler 95
不公 95
两性 95
他于 95
债权 95
其余@@ 95
卦 95
可持续性 95
合伙 95
呕 95
和善 95
啼@@ 95
垦 95
增加@@ 95
多种多样 95
巡回 95
工资@@ 95
布什@@ 95
成绩@@ 95
投票权 95
政见 95
方便@@ 95
既定 95
有形 95
架飞机 95
澜 95
窍@@ 95
筹资 95
经济损失 95
继续@@ 95
胀@@ 95
蜓 95
襟 95
规模@@ 95
视频@@ 95
认罪 95
诋毁 95
课本 95
蹂@@ 95
躏 95
通告 95
闩 95
馅 95
馏@@ 95
92 94
97 94
AT 94
CT@@ 94
Ed@@ 94
No@@ 94
ard 94
ou@@ 94
下达 94
与此@@ 94
仆@@ 94
历史上 94
咨询@@ 94
唔 94
姓氏 94
媳@@ 94
宪章 94
尤为重要 94
崔@@ 94
巴林 94
巴赫 94
巴里 94
年末 94
弹道导弹 94
推广@@ 94
施工@@ 94
极为重要 94
枣 94
标示 94
法学院 94
熠@@ 94
疽 94
睬 94
石蜡 94
禅 94
空间@@ 94
立足 94
第四个 94
粮农组织 94
联系人 94
获悉 94
蔬@@ 94
蹑@@ 94
辍学 94
进一步提高 94
违规 94
首脑 94
骰@@ 94
...... 93
59 93
@ 93
El@@ 93
FA@@ 93
ME@@ 93
Mic@@ 93
PV@@ 93
ak 93
em@@ 93
ia 93
po@@ 93
一并 93
不致 93
全人类 93
南极洲 93
发出@@ 93
合资企业 93
喀布尔 93
小企业 93
总的来说 93
挑战@@ 93
枷@@ 93
武器@@ 93
法典 93
流行病 93
涕 93
溯 93
满意@@ 93
爹 93
牵 93
特种 93
礁@@ 93
私营部门 93
竖 93
第八 93
紧急@@ 93
红利 93
结盟 93
耻@@ 93
致意 93
航运 93
褴@@ 93
观察员 93
订立 93
诀@@ 93
调配 93
赋 93
辜@@ 93
迫在眉睫 93
非常感谢 93
骷@@ 93
73 92
DA 92
EA@@ 92
da 92
su@@ 92
作法 92
农业部 92
刃@@ 92
加拿大@@ 92
喱 92
嚎@@ 92
土耳其@@ 92
嫌疑 92
小额 92
引述 92
德里@@ 92
放在@@ 92
放射性物质 92
旨 92
本发明 92
某项 92
柚@@ 92
根本原因 92
槌 92
渊源 92
疹@@ 92
痤@@ 92
瘸@@ 92
眺@@ 92
瞎 92
确定性 92
粮食@@ 92
耽搁 92
脚注 92
舞弊 92
莴@@ 92
萼@@ 92
袱 92
该法 92
诲 92
诺斯@@ 92
转入 92
这批 92
追究 92
里斯本 92
金融服务 92
顺应 92
CS 91
SC 91
ra 91
〉 91
亦可 91
侵略者 91
保有 91
储存@@ 91
取缔 91
坝@@ 91
对性 91
展览会 91
岛国 91
年龄段 91
我愿 91
拘捕 91
拦 91
捐赠@@ 91
摧@@ 91
晰 91
潘基文 91
甲基 91
着力 91
瞳@@ 91
硕 91
禄 91
秤@@ 91
笃 91
紧张局势 91
绯@@ 91
蔓 91
衫@@ 91
观测@@ 91
触犯 91
训练有素 91
详@@ 91
贷款@@ 91
踱@@ 91
遂 91
邮政@@ 91
重振 91
靡@@ 91
面谈 91
食品安全 91
2015 90
CF@@ 90
Di@@ 90
OS@@ 90
Sa@@ 90
Sha@@ 90
for@@ 90
per@@ 90
中东地区 90
为准 90
予@@ 90
互惠 90
产后 90
低收入 90
保险人 90
关注@@ 90
切实可行 90
匍@@ 90
啃 90
喻@@ 90
坚 90
坛@@ 90
姐@@ 90
巴德 90
弱势群体 90
承运人 90
每一项 90
法人 90
焰@@ 90
熵 90
申请者 90
眯@@ 90
系统地 90
结合@@ 90
耿@@ 90
职业道德 90
脐@@ 90
荞@@ 90
诉人 90
身分 90
远距离 90
骇 90
鸦@@ 90
1950 89
1988 89
IM 89
Lot@@ 89
Mil@@ 89
Min@@ 89
NA@@ 89
SL@@ 89
Sch@@ 89
UF@@ 89
ud@@ 89
一般而言 89
下半年 89
不前 89
东盟 89
优先权 89
侍 89
倚 89
兼顾 89
刊@@ 89
刊物 89
功能@@ 89
十三 89
卓 89
印第@@ 89
双性恋 89
发了 89
可为 89
可供 89
吏 89
唧@@ 89
啜@@ 89
嗦 89
四条 89
图书@@ 89
外汇@@ 89
夭@@ 89
奠@@ 89
定型 89
形资产 89
携@@ 89
桦@@ 89
滤 89
漪 89
瑞士@@ 89
甫 89
痕@@ 89
监测@@ 89
相称 89
科学技术 89
立足@@ 89
第一条 89
结成 89
绝不能 89
羚 89
自治@@ 89
菲利@@ 89
虑@@ 89
蟋@@ 89
解决@@ 89
议长 89
诸 89
购置 89
迅 89
近年 89
适时 89
陪审@@ 89
项目管理 89
鳕@@ 89
140 88
160 88
1960 88
77 88
Ab@@ 88
DE@@ 88
Ma@@ 88
Obama 88
Ser@@ 88
Vis@@ 88
ent@@ 88
mm 88
og@@ 88
per 88
set@@ 88
下一@@ 88
不可分割 88
中所 88
临时@@ 88
乙 88
人道 88
份子 88
剥 88
剩@@ 88
发展前景 88
哝 88
嗝 88
外地 88
委派 88
安全部队 88
巴尔 88
形式@@ 88
恶性循环 88
投保 88
拟定 88
捧@@ 88
提要 88
施用 88
查出 88
盹 88
笃@@ 88
第一份 88
美元@@ 88
胱@@ 88
苟@@ 88
荨@@ 88
蟀 88
褛 88
计划生育 88
试点 88
连通 88
递增 88
阑@@ 88
08 87
2.@@ 87
78 87
82 87
Inc 87
To@@ 87
ers 87
ge 87
ry@@ 87
不断扩大 87
专家@@ 87
人民法院 87
俺 87
倡导者 87
傀@@ 87
六十@@ 87
割礼 87
哺乳@@ 87
塔尔 87
布拉 87
平均水平 87
归档 87
慷@@ 87
成见 87
收购@@ 87
机枪 87
榻 87
猕@@ 87
珂 87
瑙@@ 87
疣 87
盟@@ 87
策略@@ 87
统治@@ 87
胀率 87
蔼@@ 87
蜢 87
裁减 87
诅 87
豹@@ 87
通报 87
钞 87
镉 87
集团@@ 87
非洲人 87
非营利 87
预防性 87
鲱@@ 87
124 86
Ben@@ 86
Dat@@ 86
Mac@@ 86
SD 86
mo@@ 86
不懈努力 86
之时 86
交互@@ 86
人事@@ 86
作出反应 86
充分发挥 86
公益 86
六方会谈 86
动产 86
十多年 86
卡塔尔 86
受雇 86
商用 86
嘟 86
国界 86
壁垒 86
年青人 86
引起@@ 86
忆 86
总局 86
恙 86
揍 86
改建 86
无人驾驶 86
更是如此 86
有效期 86
根本性 86
求助于 86
法医 86
渝 86
率高 86
珥 86
璨 86
疡@@ 86
百万计 86
矿产 86
碑@@ 86
磐@@ 86
税收@@ 86
红十字会 86
约旦@@ 86
衔接 86
规章制度 86
谕 86
踵@@ 86
运往 86
逐年 86
酥@@ 86
锶 86
闺@@ 86
防空 86
阿尔及利亚 86
首批 86
鬃@@ 86
88 85
CM 85
Hu@@ 85
do@@ 85
ma@@ 85
od 85
一堂 85
下级 85
事会 85
二十一 85
人身 85
侦测 85
侬 85
公共部门 85
共和 85
养老@@ 85
刨 85
前瞻性 85
叔@@ 85
受害 85
吉布@@ 85
国际性 85
宽泛 85
小型@@ 85
少年@@ 85
居高不下 85
工作组 85
并列 85
德罗 85
总之 85
恬@@ 85
扛@@ 85
扫除 85
昼 85
普遍性 85
暧@@ 85
曰 85
母亲@@ 85
法制 85
煞@@ 85
爆炸性 85
爱德@@ 85
盏@@ 85
磕@@ 85
福祉 85
种族灭绝 85
紧急状态 85
维持@@ 85
缓冲@@ 85
羁 85
航空航天 85
良知 85
蒙受 85
蕨@@ 85
表彰 85
诧@@ 85
诫 85
调查员 85
负有 85
跨文化 85
迟迟 85
通过@@ 85
邂@@ 85
阿拉 85
骡@@ 85
鹫 85
1987 84
CC 84
IR@@ 84
PLC 84
Par@@ 84
Stu@@ 84
est@@ 84
ni@@ 84
一经 84
世贸组织 84
使用权 84
信用@@ 84
停止@@ 84
公共交通 84
兴奋@@ 84
兴奋剂 84
决定@@ 84
利性 84
嘻@@ 84
土地利用 84
外交关系 84
多哈 84
妹@@ 84
婿 84
媒@@ 84
嫌疑犯 84
存入 84
广为 84
归根@@ 84
彭 84
愈来@@ 84
拎 84
拓宽 84
据估计 84
据点 84
普拉@@ 84
服务质量 84
榈 84
浊@@ 84
积极参与 84
简报 84
网址 84
联系@@ 84
蚜@@ 84
蟹@@ 84
警卫队 84
警察@@ 84
谧 84
辟 84
辫@@ 84
逅 84
重新分配 84
锭 84
镶 84
骂@@ 84
Char@@ 83
DI 83
Do@@ 83
ET@@ 83
Tube 83
ay@@ 83
be 83
bl@@ 83
ey 83
中亚 83
代表@@ 83
价值@@ 83
伊斯坦布尔 83
保全 83
分工 83
分派 83
动议 83
北非 83
印度政府 83
友好@@ 83
叽@@ 83
同年 83
吾 83
商谈 83
坯@@ 83
堰 83
姬@@ 83
存量 83
审判@@ 83
巨 83
庇护所 83
惇 83
所获 83
技术性 83
撼@@ 83
文人 83
新闻界 83
昨天@@ 83
条文 83
母乳 83
海员 83
猝@@ 83
现时 83
理查@@ 83
监护人 83
篇幅 83
罂粟 83
苞@@ 83
虐@@ 83
蚱@@ 83
议定书 83
豁@@ 83
貂 83
貂@@ 83
贝利 83
财务状况 83
蹬 83
迥@@ 83
高新@@ 83
鲤@@ 83
1986 82
74 82
Sar@@ 82
hi@@ 82
ts 82
一整套 82
三项 82
伊拉克人 82
共同体 82
出庭 82
哲 82
唉 82
嫌@@ 82
家务@@ 82
左右@@ 82
布雷@@ 82
役@@ 82
很差 82
意外@@ 82
撩@@ 82
新兴@@ 82
新闻记者 82
权威@@ 82
杜绝 82
条件@@ 82
柿@@ 82
沫@@ 82
波恩 82
经常性 82
老挝 82
英联邦 82
茵@@ 82
蚁@@ 82
裨益 82
谛 82
赛人 82
蹦 82
辩称 82
逮@@ 82
领养 82
Aj@@ 81
Inter@@ 81
JA@@ 81
NU@@ 81
OP 81
act 81
ak@@ 81
oc@@ 81
东正教 81
举报 81
互助 81
任何理由 81
克劳 81
分支机构 81
劈 81
受灾 81
同一天 81
在职 81
埃塞俄比亚 81
塞拉利昂 81
外交部长 81
怂@@ 81
恤@@ 81
恿 81
惫@@ 81
措@@ 81
提供商 81
教员 81
散播 81
服刑 81
楂 81
澎@@ 81
眸 81
矿区 81
磅@@ 81
社群 81
科夫 81
科学院 81
缓刑 81
老龄化 81
胞 81
萨利@@ 81
诵@@ 81
诺夫 81
贫 81
跷@@ 81
辅 81
重伤 81
镁@@ 81
难民营 81
领导力 81
髅 81
69 80
94 80
GU@@ 80
Gu@@ 80
Internet 80
Nor@@ 80
OM 80
Pe@@ 80
Str@@ 80
de 80
web 80
中所@@ 80
举例 80
争议@@ 80
人种 80
伶@@ 80
信息系统 80
信服 80
允 80
再次@@ 80
农村@@ 80
厉 80
受到限制 80
嗜 80
城乡 80
增幅 80
妥当 80
媒体@@ 80
就任 80
币@@ 80
平均值 80
必要条件 80
才干 80
拭@@ 80
指导方针 80
方可 80
民粹主义 80
涎@@ 80
淬@@ 80
燕 80
牵涉到 80
犯罪分子 80
环境影响 80
确凿 80
禁运 80
窿 80
第七 80
第二轮 80
箴@@ 80
肃 80
脯 80
警员 80
转发 80
近几年来 80
锹 80
阿里@@ 80
鼾 80
1982 79
1985 79
84 79
87 79
CE@@ 79
Gra@@ 79
LA 79
OK 79
Office 79
PR@@ 79
Ph@@ 79
ROM 79
mail 79
one@@ 79
tr@@ 79
we@@ 79
不遗余力 79
主旨 79
儡 79
几项 79
出具 79
力争 79
加德@@ 79
动向 79
十一 79
危险@@ 79
原子能 79
发表声明 79
吧@@ 79
周期@@ 79
在座 79
安东尼奥 79
定居者 79
客观性 79
小国 79
年限 79
惯常 79
懦 79
扩建 79
申 79
皈@@ 79
盥@@ 79
秦 79
第二条 79
等同 79
管教 79
维修@@ 79
茁@@ 79
荐@@ 79
薛@@ 79
褒@@ 79
速度@@ 79
采取任何 79
锄@@ 79
09 78
AA@@ 78
EN@@ 78
Fi@@ 78
HS 78
Microsoft 78
Mor@@ 78
Ne@@ 78
OS 78
SU@@ 78
ay 78
ine 78
ip 78
ista 78
port@@ 78
一些@@ 78
上以 78
专用@@ 78
中间人 78
之日起 78
亟@@ 78
交流@@ 78
住户 78
侠@@ 78
假释 78
加紧 78
匐 78
厦@@ 78
参阅 78
口头@@ 78
吁 78
周边地区 78
团结起来 78
在校 78
基尔 78
塞浦路斯 78
姗@@ 78
孩子@@ 78
安德烈 78
工商@@ 78
建筑材料 78
战略性 78
所称 78
授课 78
数据处理 78
斐 78
普遍@@ 78
欧盟委员会 78
殡@@ 78
理解@@ 78
琵@@ 78
监督@@ 78
石油价格 78
确保@@ 78
科斯 78
草稿 78
装甲车 78
谅 78
跛@@ 78
跻@@ 78
踌@@ 78
锢 78
锰 78
间断 78
鸠@@ 78
1968 77
1984 77
Bus@@ 77
DS 77
NS 77
Open@@ 77
no@@ 77
一揽子 77
三国 77
个州 77
五名 77
五次 77
产妇 77
人员伤亡 77
免遭 77
其他@@ 77
利益@@ 77
加利@@ 77
吠@@ 77
吴 77
啃@@ 77
啄@@ 77
嘱@@ 77
嚣@@ 77
嚷@@ 77
工具包 77
帘@@ 77
应由 77
怡@@ 77
悬而未决 77
愣 77
扣留 77
抽样 77
攫@@ 77
数据分析 77
日益@@ 77
晖 77
构架 77
榨 77
法定@@ 77
波兰@@ 77
湘@@ 77
滋 77
火箭@@ 77
犁@@ 77
相关者 77
稻 77
窑@@ 77
简明 77
腭 77
舷@@ 77
账款 77
踉@@ 77
酬 77
鞍@@ 77
驻留 77
魁 77
FC 76
Her@@ 76
Me@@ 76
Ric@@ 76
SB@@ 76
ate@@ 76
ery 76
out 76
ric@@ 76
ry 76
tin@@ 76
yn@@ 76
万吨 76
三级 76
上半年 76
世界大战 76
中应 76
书记 76
令人遗憾 76
克什米尔 76
出了@@ 76
发言权 76
叙 76
吮@@ 76
哈萨克斯坦 76
备有 76
媚@@ 76
孟加拉@@ 76
富国 76
对外@@ 76
强奸@@ 76
惋@@ 76
扒 76
擅自 76
攸关 76
新生@@ 76
日常@@ 76
暂时@@ 76
有别于 76
棕 76
法律法规 76
狭 76
申请@@ 76
瞄@@ 76
离任 76
糠 76
署@@ 76
考试@@ 76
臆@@ 76
舒 76
薪金 76
虫害 76
蛙@@ 76
见度 76
视听 76
镊@@ 76
阿尔 76
雁 76
CI 75
ES 75
Jam@@ 75
ale 75
be@@ 75
ber@@ 75
不良影响 75
俑 75
利于 75
刽@@ 75
司令部 75
啶 75
团结一致 75
垩@@ 75
大马士革 75
就会@@ 75
引渡 75
性骚扰 75
所起 75
报刊 75
持续增长 75
撰@@ 75
改组 75
汇聚 75
海牙 75
滩@@ 75
琉@@ 75
疟@@ 75
系统对 75
缀@@ 75
罚金 75
腑 75
茅 75
荐 75
莫斯 75
著作@@ 75
视察 75
解放军 75
诫@@ 75
谤 75
贫民@@ 75
载入 75
过重 75
运载 75
还应 75
逃犯 75
铺平道路 75
闯 75
鹤@@ 75
鹭 75
黛 75
Mu@@ 74
Sk@@ 74
TA 74
VA 74
ab@@ 74
dy 74
end@@ 74
ly 74
亿元 74
传染@@ 74
保护措施 74
偏低 74
兢@@ 74
公共财政 74
军营 74
分部 74
原定 74
受阻 74
周边@@ 74
定于 74
履 74
年鉴 74
广大@@ 74
建国 74
彼此之间 74
很多@@ 74
性恋 74
慵@@ 74
技术员 74
文法 74
方方面面 74
期满 74
楞@@ 74
沉积@@ 74
湃 74
湛@@ 74
瘢@@ 74
第一轮 74
箍 74
综@@ 74
至多 74
芋 74
苛 74
评委 74
诉讼@@ 74
赵 74
通信@@ 74
遢 74
遵行 74
顾及 74
马里 74
高级@@ 74
鹊 74
2020 73
FM@@ 73
Ge@@ 73
IA 73
MT@@ 73
Ver@@ 73
Wh@@ 73
ash 73
ath 73
gle@@ 73
hard@@ 73
q@@ 73
偏远地区 73
僵 73
利益冲突 73
勾 73
哎 73
外流 73
安保 73
密切@@ 73
岔@@ 73
急诊 73
感染者 73
戚@@ 73
房屋@@ 73
投入使用 73
括@@ 73
期内 73
检查站 73
殿下 73
气候@@ 73
牙买加 73
瘪 73
真主党 73
瞅 73
积极主动 73
立法会 73
粥@@ 73
系统化 73
绅 73
绍@@ 73
统计数字 73
胺@@ 73
苍 73
莽@@ 73
薇@@ 73
覆盖率 73
诉诸 73
谭@@ 73
贡献@@ 73
踮@@ 73
轰 73
辅导@@ 73
近海 73
逸@@ 73
酶@@ 73
Goo@@ 72
Mat@@ 72
TD 72
get 72
shell 72
令人鼓舞 72
几内亚 72
努 72
北爱尔兰 72
厩 72
及早 72
受益者 72
哪些@@ 72
嘶 72
国际法 72
地面@@ 72
外籍 72
央@@ 72
寝 72
居住地 72
救济@@ 72
杏 72
樟@@ 72
模式@@ 72
毫无根据 72
漓@@ 72
漾 72
牲@@ 72
珈 72
电信@@ 72
竞标 72
絮 72
绩@@ 72
肇@@ 72
行业@@ 72
装卸 72
识字 72
调查报告 72
贫困地区 72
贸易协定 72
进行谈判 72
迭 72
长期存在 72
隼 72
青春@@ 72
1981 71
2.0 71
3.@@ 71
360 71
450 71
79 71
AA 71
Boo@@ 71
Geor@@ 71
Group 71
and 71
gh@@ 71
od@@ 71
一致同意 71
不足之处 71
世界贸易组织 71
仿效 71
保证金 71
俨@@ 71
僻@@ 71
允@@ 71
公升 71
养护 71
出口国 71
出租@@ 71
匠@@ 71
厮@@ 71
受控 71
国营 71
圳@@ 71
壕 71
姥@@ 71
安全措施 71
宣读 71
密集型 71
寐@@ 71
应聘 71
弗拉@@ 71
弘@@ 71
性侵犯 71
所在@@ 71
拣 71
改变@@ 71
斤 71
晋 71
普查 71
枣@@ 71
毫克 71
渥 71
燔 71
爆炸事件 71
生产能力 71
疆 71
相适应 71
第九 71
筵@@ 71
繁荣@@ 71
经常@@ 71
蔷@@ 71
蝌@@ 71
螳@@ 71
记者@@ 71
路障 71
载有 71
邋@@ 71
铛 71
阿曼 71
1930 70
Ca@@ 70
Group@@ 70
HP 70
Mi@@ 70
Pal@@ 70
SE 70
ah@@ 70
ff 70
ger 70
一致意见 70
丈@@ 70
上帝@@ 70
与会 70
以人为本 70
俄罗斯@@ 70
保人 70
克朗 70
其所 70
分销 70
加权 70
匙@@ 70
升至 70
单边 70
吁@@ 70
各种@@ 70
呜 70
哎@@ 70
喃 70
外部@@ 70
大大减少 70
娇 70
娥 70
安第@@ 70
屹@@ 70
战俘 70
撬 70
最终目标 70
服务提供者 70
未有 70
本着 70
棱 70
注销 70
涎 70
漉 70
牒 70
琪@@ 70
申请表 70
疝 70
第一阶段 70
等国 70
管辖权 70
绢 70
胚 70
臼 70
苷@@ 70
蚪 70
资格@@ 70
过境 70
违法行为 70
选举权 70
逞 70
醛@@ 70
重罪 70
长远@@ 70
饺@@ 70
89 69
Bank@@ 69
Dis@@ 69
TR@@ 69
Ter@@ 69
ach@@ 69
ash@@ 69
berg 69
eg@@ 69
net@@ 69
ore 69
严重破坏 69
丸@@ 69
义务教育 69
保持稳定 69
克里斯蒂@@ 69
剃 69
双边关系 69
受制于 69
古巴@@ 69
司法@@ 69
处分 69
契机 69
女工 69
尚有 69
希德 69
废止 69
庭审 69
建设项目 69
忡 69
忡@@ 69
慎 69
捅 69
捻 69
时限 69
暴力行为 69
最终用户 69
期货@@ 69
机会@@ 69
核准 69
歼@@ 69
水生 69
波利@@ 69
注意@@ 69
澄@@ 69
澳大利亚@@ 69
熔 69
猥@@ 69
生境 69
瘘 69
社会福利 69
穹 69
筹集资金 69
粹@@ 69
纲领 69
联机 69
腌 69
舅 69
菱@@ 69
蝎 69
裁军 69
言之 69
详述 69
谢尔@@ 69
赛尔 69
邀请@@ 69
酋 69
驹 69
高危 69
鳃 69
0.5 68
Bro@@ 68
Bur@@ 68
LE 68
LL 68
PE 68
SAP 68
SM 68
ary@@ 68
ce@@ 68
ple@@ 68
侯赛因 68
公共政策 68
兼并 68
军事基地 68
农户 68
发表@@ 68
呱@@ 68
唧 68
商会 68
嘘@@ 68
地以 68
地方@@ 68
地方性 68
外包 68
宣判 68
将会@@ 68
尽量减少 68
常会 68
广播电台 68
库尔德@@ 68
忽 68
持续@@ 68
授 68
掐@@ 68
推定 68
救灾 68
整套 68
族裔 68
最起码 68
波斯尼亚 68
淮@@ 68
灼 68
瘀 68
积压 68
窥 68
耍@@ 68
联合国@@ 68
聪 68
芸@@ 68
荚 68
蒙特利尔 68
负债@@ 68
费尔南@@ 68
躬@@ 68
违法@@ 68
遣@@ 68
钥@@ 68
钮@@ 68
钴 68
锣@@ 68
阿布@@ 68
驱逐出境 68
麸@@ 68
1972 67
2013 67
911 67
As@@ 67
He@@ 67
Mer@@ 67
RB@@ 67
age 67
ell 67
ew 67
pl@@ 67
ty 67
两国之间 67
个人资料 67
主要@@ 67
交互式 67
人口普查 67
佣 67
关联性 67
匣@@ 67
发现@@ 67
可比 67
呐 67
噬@@ 67
域网 67
奴隶@@ 67
妞 67
守则 67
宣 67
寥 67
对本 67
开发新 67
循 67
所有@@ 67
技术创新 67
攥 67
日程表 67
晴 67
标的 67
森林@@ 67
歉 67
火箭弹 67
灶@@ 67
熙 67
瑞士法郎 67
研讨 67
硼 67
票数 67
突显 67
立法机构 67
股东@@ 67
自主@@ 67
自治区 67
虔 67
虱@@ 67
行动计划 67
谭 67
辟@@ 67
隐私权 67
雅克 67
靓@@ 67
非洲大陆 67
预备@@ 67
题为 67
170 66
AC 66
Cl@@ 66
Michael 66
TS 66
Work@@ 66
ir 66
nor@@ 66
二百@@ 66
佝@@ 66
克罗地亚 66
兴趣@@ 66
具体情况 66
再次发生 66
减半 66
叛乱分子 66
各个领域 66
否决权 66
哈德 66
哒 66
回收@@ 66
坊@@ 66
壶@@ 66
外国@@ 66
天内 66
学年 66
孪@@ 66
安哥拉 66
并于 66
恪守 66
悖 66
战争@@ 66
承受@@ 66
承担@@ 66
招收 66
掘 66
接壤 66
时效 66
有所改善 66
有损 66
构成威胁 66
洪灾 66
溅@@ 66
源码 66
牵涉 66
疙@@ 66
知情@@ 66
碌@@ 66
碧 66
科学界 66
耙 66
苏维埃 66
被盗 66
褥 66
质量标准 66
贱@@ 66
赔 66
逐一 66
遵照 66
酥 66
酮@@ 66
陆上 66
雄心@@ 66
1983 65
5.@@ 65
50@@ 65
Der@@ 65
Gar@@ 65
Gold@@ 65
ISO 65
Mac 65
PI 65
Services 65
ang@@ 65
ic 65
lex 65
ley 65
org 65
res@@ 65
tor 65
不具 65
中美洲 65
书面@@ 65
以北 65
使用率 65
促进作用 65
冀 65
医疗机构 65
十八 65
受审 65
吸引@@ 65
坟 65
大大增加 65
大陆@@ 65
存在@@ 65
实际意义 65
居住区 65
差额 65
强制执行 65
徐 65
执业 65
按计划 65
探访 65
提出@@ 65
施以 65
有赖于 65
服务提供商 65
武断 65
玲@@ 65
珊@@ 65
申明 65
百慕大 65
种族@@ 65
第二阶段 65
纬 65
维和 65
职守 65
育儿 65
脆弱性 65
臃@@ 65
虱 65
西非 65
评述 65
调停 65
贩毒 65
资历 65
赘 65
迴 65
退学 65
适用范围 65
邮 65
钠@@ 65
镑 65
镭 65
需要@@ 65
马尔 65
骋 65
At@@ 64
BO@@ 64
Ber@@ 64
EC 64
Peter@@ 64
Pi@@ 64
SY@@ 64
WS 64
We@@ 64
au@@ 64
aw@@ 64
if@@ 64
ine@@ 64
ta 64
te 64
ton@@ 64
〈 64
为本 64
之以 64
保险费 64
借此机会 64
凛@@ 64
劳力 64
劳务 64
勿@@ 64
厅@@ 64
后勤 64
呢@@ 64
咨询服务 64
哈桑 64
固定资产 64
国家级 64
壑 64
尼日尔 64
平等@@ 64
恐怖组织 64
悸 64
慰问 64
托儿所 64
折衷 64
担负 64
损失@@ 64
提高@@ 64
攘 64
旦@@ 64
最后@@ 64
有所增加 64
机器@@ 64
核试验 64
毡 64
毫 64
民事诉讼 64
沿线 64
消极@@ 64
漉@@ 64
烘 64
然而@@ 64
煌 64
琢 64
用意 64
疮@@ 64
第一季度 64
紧迫@@ 64
请愿 64
走访 64
转达 64
通货膨胀率 64
鄂@@ 64
锌@@ 64
雁@@ 64
霹@@ 64
领空 64
鳟@@ 64
鼎 64
9.@@ 63
Cal@@ 63
JS@@ 63
PM@@ 63
Sal@@ 63
WIPO 63
ish@@ 63
ks 63
re 63
w 63
不人道 63
不均 63
不复@@ 63
不论@@ 63
不详 63
与日俱增 63
佔 63
供参考 63
保持警惕 63
催化@@ 63
先进@@ 63
免费@@ 63
公安@@ 63
关键所在 63
再生@@ 63
准备金 63
前提条件 63
卢比 63
友好关系 63
和睦 63
咪@@ 63
啪@@ 63
土著人 63
在此@@ 63
坤 63
坩@@ 63
塔拉 63
奥运@@ 63
女童 63
崖@@ 63
平方公里 63
序言 63
库尔德 63
归功于 63
性传播 63
愉 63
拘禁 63
指称 63
搪@@ 63
昙@@ 63
樵@@ 63
武装力量 63
永远@@ 63
溴 63
澳 63
热烈欢迎 63
物价@@ 63
瓢@@ 63
痒@@ 63
瞻@@ 63
第二季度 63
管理机构 63
繁 63
网络安全 63
而作 63
腊 63
腥@@ 63
腭@@ 63
营企业 63
蝉 63
装甲@@ 63
讲授 63
诬@@ 63
谢意 63
身心健康 63
过长 63
迫切@@ 63
逐步@@ 63
酵 63
雅加达 63
1200 62
Cam@@ 62
DB 62
DL@@ 62
Gro@@ 62
Net@@ 62
Point 62
San@@ 62
Thom@@ 62
ail@@ 62
our@@ 62
up@@ 62
专项 62
事务@@ 62
亢@@ 62
会员国 62
公用事业 62
军火 62
加以@@ 62
医务@@ 62
厕 62
原件 62
名册 62
后备 62
吸取@@ 62
嘀@@ 62
围困 62
增长@@ 62
实现目标 62
密切合作 62
巍@@ 62
巴拉@@ 62
年会 62
归入 62
德国政府 62
性取向 62
抗辩 62
折旧 62
掳 62
收容所 62
敲定 62
昧@@ 62
最大@@ 62
欧亚 62
正常化 62
毛利人 62
民航 62
法律顾问 62
注目 62
炊@@ 62
焚 62
特别@@ 62
琶 62
砧@@ 62
种姓 62
竿@@ 62
粕 62
缰@@ 62
腻@@ 62
致力 62
该地 62
跨学科 62
蹩@@ 62
选拔 62
遇到困难 62
道义 62
重大意义 62
铲除 62
预制 62
高度重视 62
1945 61
1974 61
1978 61
CO 61
CO2 61
NE@@ 61
Nation@@ 61
TE@@ 61
University 61
lin@@ 61
th 61
下届 61
严重威胁 61
亚太地区 61
亟需 61
仕 61
俘 61
保留@@ 61
全球@@ 61
兵力 61
功 61
协调@@ 61
厄瓜多尔 61
听证 61
哈拉@@ 61
圃 61
土地@@ 61
埚 61
基数 61
外商@@ 61
如能 61
嬗@@ 61
布达佩斯 61
并入 61
庇@@ 61
情势 61
戊@@ 61
拉巴@@ 61
搀@@ 61
文化背景 61
普里 61
核计划 61
桔 61
毂 61
汇编 61
海湾@@ 61
焙@@ 61
目的@@ 61
祟 61
私立学校 61
结构调整 61
艰 61
葵@@ 61
蚌 61
行为准则 61
褥@@ 61
该区 61
辅助@@ 61
酰 61
阵线 61
鹃 61
1975 60
Am@@ 60
Don@@ 60
GIS 60
Wal@@ 60
bo@@ 60
bun@@ 60
ox 60
一家@@ 60
中介@@ 60
书面形式 60
从业@@ 60
保证@@ 60
加拉@@ 60
医务人员 60
千克 60
危急 60
困难@@ 60
国立 60
嫌犯 60
孚 60
峻 60
强加于 60
捐助者 60
攀 60
攒@@ 60
教学大纲 60
易受 60
普选 60
曼德拉 60
未成年 60
权威性 60
核燃料 60
殊 60
民事@@ 60
水井 60
浩 60
滕 60
状况@@ 60
留存 60
瞟 60
禾@@ 60
补救措施 60
译成 60
详细@@ 60
请求@@ 60
负起 60
赡@@ 60
轩@@ 60
透彻 60
通行证 60
部长级 60
霎@@ 60
魇 60
黎 60
龛 60
125 59
Apple 59
Gl@@ 59
HB@@ 59
IR 59
Na@@ 59
OP@@ 59
PAR 59
SM@@ 59
TP@@ 59
UV 59
VC 59
ony@@ 59
不利@@ 59
代表作 59
代表大会 59
伊斯@@ 59
伫@@ 59
侃 59
侧重于 59
保安@@ 59
利尔 59
前所@@ 59
加勒比 59
危害@@ 59
参差不@@ 59
受伤害 59
叭@@ 59
外资@@ 59
多方 59
天数 59
奥马尔 59
姓@@ 59
婊@@ 59
宪@@ 59
就是@@ 59
徜@@ 59
德意志@@ 59
快速@@ 59
惺@@ 59
拉尼 59
控制中心 59
撒哈拉 59
擎@@ 59
於 59
日程@@ 59
服务费 59
期限内 59
格陵兰 59
榛@@ 59
消息来源 59
涯 59
炮击 59
社会活动 59
祷 59
精神病@@ 59
缪 59
羡 59
臭氧层 59
螈 59
裕@@ 59
讨论@@ 59
谢赫 59
践@@ 59
达尔富尔 59
运营@@ 59
逢@@ 59
遵@@ 59
防务 59
非裔 59
100@@ 58
1966 58
3.5 58
GC 58
MC 58
PP@@ 58
RP@@ 58
RT@@ 58
Te@@ 58
ai@@ 58
ati@@ 58
con@@ 58
ten@@ 58
tic@@ 58
一读 58
两起 58
乘数 58
亵 58
企业界 58
偿债 58
全部@@ 58
刑事法庭 58
创新性 58
剩余@@ 58
卡洛斯 58
危机@@ 58
周转 58
哆@@ 58
哺@@ 58
商业活动 58
啾 58
嗡 58
垠 58
塞尔@@ 58
多数@@ 58
妥善@@ 58
媳 58
实务 58
巡逻@@ 58
巩@@ 58
市镇 58
带头 58
廓@@ 58
总署 58
慑 58
懈 58
投标人 58
挪威@@ 58
控制措施 58
攘@@ 58
无偿 58
栈@@ 58
检方 58
法律责任 58
测绘 58
涓@@ 58
湄@@ 58
漓 58
漱@@ 58
特罗 58
瑙 58
瘩 58
癖@@ 58
社会科学 58
致辞 58
苞 58
获知 58
蓉 58
补偿@@ 58
褪 58
讨论会 58
负担得起 58
贫民 58
费尔@@ 58
赘@@ 58
赞比亚 58
赭@@ 58
辩护律师 58
重新安排 58
鉴 58
钝@@ 58
阿巴斯 58
除此@@ 58
隶属 58
马尔代夫 58
鹌@@ 58
默许 58
4.@@ 57
Az@@ 57
Bern@@ 57
DP 57
EP 57
MR 57
PP 57
Sw@@ 57
Ta@@ 57
acle 57
ester 57
fac@@ 57
ith@@ 57
ru@@ 57
serv@@ 57
tel@@ 57
tu@@ 57
vi@@ 57
不要@@ 57
中欧 57
主导@@ 57
优质@@ 57
伯利@@ 57
使该 57
保育 57
信函 57
全体会议 57
凤 57
分摊 57
判刑 57
利昂 57
原状 57
及时@@ 57
哈尔@@ 57
商定 57
城市规划 57
备选 57
外贸 57
小儿麻痹症 57
尼科@@ 57
巴勒@@ 57
平价 57
并非@@ 57
应从 57
建筑业 57
征得 57
成功@@ 57
或非 57
托运人 57
捲 57
捷克@@ 57
撇 57
无理 57
无遗 57
最新@@ 57
有不同 57
枸@@ 57
犹 57
第三条 57
经验教训 57
维护@@ 57
编纂 57
而论 57
联网 57
背道而驰 57
表示同意 57
贪污@@ 57
贫困人口 57
轮换 57
逾期 57
遗骸 57
酐 57
酪@@ 57
非传统 57
韩国@@ 57
顷@@ 57
颖 57
驶 57
鲈@@ 57
龚@@ 57
1971 56
2014 56
AL 56
EL@@ 56
FO@@ 56
FS 56
GE 56
Ger@@ 56
Mot@@ 56
NO 56
RF@@ 56
RT 56
War@@ 56
ham 56
one 56
不力 56
专属 56
主管部门 56
人力资本 56
伐木 56
体罚 56
俐 56
保护环境 56
保释 56
充分考虑 56
南方@@ 56
去年@@ 56
同仁 56
啄 56
喵 56
垛 56
大不列颠 56
太平@@ 56
妊@@ 56
孝 56
当今@@ 56
征用 56
待命 56
恣@@ 56
惩戒 56
感到遗憾 56
戳@@ 56
扛 56
摩纳哥 56
撤 56
更为严重 56
机油 56
枉@@ 56
浓缩铀 56
溃 56
獒 56
瘫@@ 56
确性 56
确有 56
碍 56
碍@@ 56
第八@@ 56
笺 56
缉@@ 56
缔约国 56
而异 56
自主权 56
良好@@ 56
苏尔 56
荟 56
袍@@ 56
赔偿金 56
蹈 56
辫 56
这两项 56
里夫 56
金融公司 56
阿卜杜拉 56
雳 56
鲭 56
03 55
1.2 55
101 55
1900 55
1973 55
28@@ 55
EF@@ 55
HA 55
HC@@ 55
Li@@ 55
SV@@ 55
all 55
book 55
dio 55
ef@@ 55
ity@@ 55
ode 55
q 55
中向 55
从业人员 55
俱 55
偿还@@ 55
兵营 55
初级@@ 55
吠 55
吸毒者 55
咔@@ 55
地区@@ 55
密切关系 55
居民@@ 55
峦 55
峻@@ 55
往年 55
心协力 55
总干事 55
悚 55
扩张@@ 55
拉脱维亚 55
杀伤性 55
楷@@ 55
此一 55
然不同 55
电讯 55
男童 55
痂 55
省长 55
穷国 55
立法机关 55
第四季度 55
统筹 55
群组 55
自立 55
舀 55
茎@@ 55
莫桑比克 55
获释 55
菱 55
萨尔瓦多 55
行政部门 55
褐 55
认识@@ 55
财政状况 55
账目 55
贿@@ 55
跄 55
邱@@ 55
铬@@ 55
陆路 55
颞@@ 55
驱逐@@ 55
鹑 55
麓 55
麸 55
1977 54
Au@@ 54
Er@@ 54
IN 54
Manager 54
OD@@ 54
Offic@@ 54
SAR 54
Word 54
ell@@ 54
land 54
两级 54
任务@@ 54
俏 54
俭@@ 54
六名 54
六种 54
养费 54
军备 54
制图 54
协调一致 54
协调员 54
可信@@ 54
嘻 54
囚 54
夥@@ 54
女人@@ 54
娼@@ 54
审问 54
崽@@ 54
幌@@ 54
应立即 54
扒@@ 54
挟 54
挪用 54
掏 54
掷@@ 54
斋 54
新加坡@@ 54
朔@@ 54
株@@ 54
格鲁@@ 54
榷 54
毕 54
渺 54
潺@@ 54
牟@@ 54
生育率 54
皙 54
石棉 54
矿产资源 54
福利@@ 54
第五章 54
约束@@ 54
蕃@@ 54
袒 54
被告人 54
西比 54
议事@@ 54
议会选举 54
边缘@@ 54
通知书 54
部门@@ 54
酣@@ 54
门户网站 54
非人 54
1967 53
1969 53
1976 53
AD 53
Cro@@ 53
DD@@ 53
Del@@ 53
Fre@@ 53
PL@@ 53
SI 53
Sub@@ 53
US 53
bi@@ 53
cal@@ 53
ci@@ 53
col@@ 53
ean 53
ick 53
ure 53
ve 53
一夫@@ 53
上作 53
不向 53
乌拉圭 53
产假 53
仓储 53
伤残 53
倡@@ 53
出境 53
划定 53
发件人 53
台式 53
合作社 53
囔 53
嫂 53
密切联系 53
小型企业 53
居民区 53
岭@@ 53
悍@@ 53
成套 53
戟 53
所犯 53
扼要 53
承包 53
拉加 53
挟@@ 53
提高效率 53
搓@@ 53
敌视 53
教师@@ 53
无阻 53
服务中心 53
期末 53
朽@@ 53
桩@@ 53
榉 53
槃 53
死亡@@ 53
民事责任 53
湖区 53
溺 53
痢@@ 53
瞒 53
窟@@ 53
第一项 53
第三世界 53
缉 53
者之间 53
膦 53
艘@@ 53
蚤@@ 53
蝾@@ 53
行政长官 53
西亚@@ 53
连贯性 53
银行业务 53
105 52
Andre@@ 52
Brown 52
Cor@@ 52
Corp 52
IA@@ 52
IG@@ 52
IL 52
Lo@@ 52
^ 52
by@@ 52
fi@@ 52
ite 52
ow 52
pu@@ 52
ref@@ 52
rer 52
上升@@ 52
之二 52
事件@@ 52
何塞 52
停车@@ 52
全盘 52
公允 52
公益@@ 52
冤 52
分居 52
功率 52
勉@@ 52
南太平洋 52
团长 52
埃米尔 52
增强@@ 52
备案 52
多少@@ 52
嬷 52
宕@@ 52
宪政 52
巴士@@ 52
幽 52
引信 52
循序@@ 52
怦@@ 52
惶 52
戛@@ 52
所持 52
扩大@@ 52
挛@@ 52
文摘 52
斌 52
斡旋 52
斯达@@ 52
最易 52
未来@@ 52
梧 52
清偿 52
狒 52
琅@@ 52
疱 52
白俄罗斯 52
直接@@ 52
瞠@@ 52
矣 52
绌 52
缕@@ 52
职权 52
臀 52
蓟 52
蛾@@ 52
蜚@@ 52
该处 52
谩@@ 52
赃@@ 52
资料库 52
进修 52
铉 52
铎 52
铠@@ 52
阂 52
预先@@ 52
预测@@ 52
高技术 52
黏 52
02 51
1920 51
Applic@@ 51
Bra@@ 51
COM 51
Chris@@ 51
EL 51
IDE 51
LC 51
PS@@ 51
SR@@ 51
SW@@ 51
Vol@@ 51
co 51
del@@ 51
do 51
dy@@ 51
ma 51
op 51
tw@@ 51
ys@@ 51
℃ 51
两架 51
之为 51
公共利益 51
公立 51
内政部 51
前后@@ 51
功效 51
千美元 51
反对票 51
吸纳 51
嘲 51
奕@@ 51
妾 51
对非 51
性工作者 51
惩 51
我谨 51
挎@@ 51
掺 51
搂@@ 51
暮 51
杠@@ 51
检验@@ 51
殴 51
比利@@ 51
民法 51
流离失所 51
澜@@ 51
用人@@ 51
病率 51
瘀@@ 51
砧 51
示威@@ 51
社会保险 51
禾 51
第四条 51
管局 51
糯@@ 51
继承@@ 51
维权 51
群众@@ 51
自力更生 51
获得成功 51
藜 51
货币联盟 51
贻@@ 51
进口国 51
进驻 51
采购@@ 51
钵 51
问题@@ 51
陡 51
霄 51
鲍 51
黑海 51
1949 50
40@@ 50
ATE 50
Bas@@ 50
Bay 50
Can@@ 50
EP@@ 50
GE@@ 50
Gener@@ 50
Kay@@ 50
LE@@ 50
Pow@@ 50
TH@@ 50
ann@@ 50
az@@ 50
da@@ 50
gle 50
reg@@ 50
tle@@ 50
一案 50
三类 50
上报 50
中国人民@@ 50
临时性 50
亚历山@@ 50
交通运输 50
人因 50
价值观念 50
佐证 50
佩尔 50
信守 50
信心@@ 50
倪 50
停火@@ 50
催 50
全会 50
公国 50
公职 50
关键作用 50
内政 50
创始 50
别无@@ 50
券@@ 50
卫生系统 50
呤 50
哇@@ 50
唆 50
啬@@ 50
增设 50
壤@@ 50
备件 50
大洲 50
婶 50
子孙后代 50
岳 50
巅 50
平民@@ 50
弃权 50
律师@@ 50
感染率 50
戾 50
房地@@ 50
承办 50
指挥部 50
探测@@ 50
新能源 50
旱地 50
更广 50
朋 50
核弹头 50
桶@@ 50
欠款 50
殖民主义 50
涝 50
烩 50
爱沙尼亚 50
狒@@ 50
生活费 50
疲 50
癣 50
硫化物 50
磺@@ 50
禧 50
私立 50
突出@@ 50
简述 50
继任 50
维纳@@ 50
缔造 50
而应 50
若能 50
荼 50
贵国 50
躇 50
递送 50
铂@@ 50
铯 50
陋@@ 50
降低@@ 50
降至 50
靛@@ 50
非法@@ 50
馒@@ 50
驯 50
骏 50
髻 50
鹏 50
06 49
Br@@ 49
Com@@ 49
GA@@ 49
Jim@@ 49
Kar@@ 49
MB@@ 49
Pro@@ 49
System 49
Tri@@ 49
XX 49
ache 49
ford 49
ket 49
一至 49
不丹 49
事故@@ 49
互联@@ 49
会同 49
促进@@ 49
兑@@ 49
冽 49
别国 49
助产士 49
卓有成效 49
卫星@@ 49
卿 49
双边@@ 49
取得成功 49
叮 49
咎 49
唯 49
国际标准 49
奚@@ 49
妃@@ 49
完成@@ 49
巴尔干 49
彼 49
彼此@@ 49
徉 49
总计 49
情报机构 49
提供援助 49
收容 49
敌对@@ 49
敛@@ 49
新闻稿 49
晦 49
根据@@ 49
格兰 49
楞 49
民主化 49
沦 49
煦 49
礼宾 49
科特迪瓦 49
簿@@ 49
纫@@ 49
绎@@ 49
经过@@ 49
蓖@@ 49
蔡 49
覆盖面 49
证明书 49
译员 49
远程@@ 49
造福 49
阮@@ 49
限期 49
鬣@@ 49
220 48
6.@@ 48
Bank 48
Cap@@ 48
Cast@@ 48
DE 48
Hel@@ 48
NP@@ 48
PB@@ 48
PM 48
Rail@@ 48
ach 48
ans@@ 48
ile 48
ka 48
over 48
不是@@ 48
不服 48
严格遵守 48
中小型 48
事关 48
互 48
亚尔 48
亢 48
仕@@ 48
会计准则 48
侃@@ 48
俄语 48
停战 48
党的@@ 48
兢 48
共同利益 48
加倍努力 48
加强@@ 48
协同@@ 48
卫生部门 48
可望 48
周年@@ 48
哥斯达黎加 48
哽@@ 48
喳 48
埃及@@ 48
多万 48
妩@@ 48
完全符合 48
定期@@ 48
小组@@ 48
希望@@ 48
廊@@ 48
忐@@ 48
报告@@ 48
拈@@ 48
拴@@ 48
挽 48
摧 48
明确规定 48
曹 48
未遂 48
欺 48
正当理由 48
歧视性 48
沁@@ 48
洪都拉斯 48
淅@@ 48
炯@@ 48
犷 48
砰@@ 48
科学知识 48
竣@@ 48
缴付 48
美利@@ 48
翻修 48
联络@@ 48
草拟 48
蟆 48
袁@@ 48
襟@@ 48
觊@@ 48
觎 48
讪 48
贝格 48
责令 48
边缘化 48
迪亚@@ 48
酊 48
阿什 48
隙@@ 48
隶属于 48
首长 48
馨@@ 48
驮 48
高棉 48
鸿 48
麟 48
鼾@@ 48
001 47
1929 47
1940 47
1959 47
1964 47
AS 47
CIA 47
Cha@@ 47
ED@@ 47
Explo@@ 47
IF 47
Jan@@ 47
Je@@ 47
Ni@@ 47
Sol@@ 47
TE 47
Willi@@ 47
ade 47
af@@ 47
ari 47
lic@@ 47
name 47
phen@@ 47
七十@@ 47
七名 47
三方 47
中级 47
义务@@ 47
五条 47
五项 47
亚太 47
亚斯 47
人身@@ 47
今天上午 47
以上@@ 47
会后 47
伤害@@ 47
全体@@ 47
公务 47
公路@@ 47
军备竞赛 47
分析员 47
刹 47
博拉 47
叨@@ 47
合法权益 47
合理@@ 47
墨西哥城 47
妇女@@ 47
娠@@ 47
婷 47
屡 47
岔 47
常驻 47
弩@@ 47
彰 47
恺@@ 47
惘 47
我想@@ 47
抽签 47
挪 47
撅 47
擂 47
斐济 47
斯拉@@ 47
旷日持久 47
柚 47
柩 47
比亚@@ 47
水文 47
溉@@ 47
犯罪现场 47
猛虎 47
病假 47
痘@@ 47
窘 47
立法@@ 47
管理制度 47
糜@@ 47
紊 47
细则 47
经济社会 47
结核@@ 47
耘 47
茴@@ 47
蛀@@ 47
谄@@ 47
财产@@ 47
财产权 47
贫困@@ 47
赔偿@@ 47
这届 47
附加值 47
高加索 47
.@@ 46
Fed 46
Han@@ 46
Lyn@@ 46
PD 46
Post@@ 46
Pu@@ 46
SEC 46
Si@@ 46
Smith 46
Tun@@ 46
anc@@ 46
ce 46
ed 46
iv@@ 46
lash 46
ly@@ 46
mar@@ 46
ong 46
stry 46
uc@@ 46
七条 46
上年 46
下述 46
不分@@ 46
不可逆转 46
东道@@ 46
东非 46
中小 46
交由 46
人均收入 46
传唤 46
侦察@@ 46
债务@@ 46
储备@@ 46
兀 46
刁@@ 46
刑期 46
助益 46
口岸 46
叩@@ 46
否@@ 46
和服 46
商标@@ 46
嗪 46
外国投资 46
奕 46
奥林匹克运动会 46
官兵 46
射入 46
怖 46
恸 46
所列 46
提前@@ 46
提请 46
旱灾 46
最低工资 46
月度 46
机关@@ 46
杞 46
枷 46
格陵@@ 46
武装部队 46
水灾 46
沓 46
法国政府 46
爆炸物 46
犯罪者 46
甫@@ 46
甲型 46
疸 46
疽@@ 46
痿 46
相互之间 46
省级 46
祗 46
立陶宛 46
第九@@ 46
缚 46
羁@@ 46
蚜 46
蜱 46
蝉@@ 46
蟒 46
规范性 46
讣@@ 46
详细分析 46
贸易壁垒 46
蹋 46
辩护@@ 46
避孕@@ 46
镂@@ 46
雍@@ 46
靖@@ 46
非正常 46
鞠 46
.5 45
Co 45
DC@@ 45
EG 45
Fl@@ 45
Hy@@ 45
Jon@@ 45
OL 45
PO 45
Saf@@ 45
Van@@ 45
ant@@ 45
ast@@ 45
box 45
ent 45
go 45
go@@ 45
lu@@ 45
ne 45
tory 45
{ 45
} 45
一九九@@ 45
严重后果 45
中华人民共和国 45
中立@@ 45
举出 45
价值链 45
值得一@@ 45
偻@@ 45
公平竞争 45
共处 45
内斯 45
力量@@ 45
勋 45
千百万 45
原产地 45
反倾销 45
发表意见 45
呛 45
啁@@ 45
商业性 45
嘌@@ 45
四分@@ 45
国家标准 45
国政府 45
处所 45
失业者 45
如前所述 45
妻制 45
嫦@@ 45
寇 45
尽职 45
干涉@@ 45
庇 45
开庭 45
弛@@ 45
强制@@ 45
恢@@ 45
憾 45
所能@@ 45
拆毁 45
措词 45
更替 45
杀伤 45
毗@@ 45
洗钱 45
滓 45
熨 45
现在@@ 45
生产国 45
甾@@ 45
知名@@ 45
知识库 45
砺 45
禧@@ 45
第一届 45
第五个 45
签订@@ 45
胭@@ 45
蜃@@ 45
蜇 45
螯 45
袒@@ 45
讲坛 45
该案 45
豺@@ 45
负有责任 45
跨境 45
退休年龄 45
选举@@ 45
邀@@ 45
那么@@ 45
锄 45
閒 45
阿布 45
饥 45
饲 45
驿@@ 45
鹳 45
1948 44
1963 44
1965 44
25@@ 44
750 44
Americ@@ 44
Cra@@ 44
Direc@@ 44
HD 44
Jos@@ 44
NP 44
Pre@@ 44
Ros@@ 44
Tel@@ 44
UP@@ 44
ant 44
cha@@ 44
enn@@ 44
goo@@ 44
ist@@ 44
j 44
min@@ 44
my@@ 44
yl@@ 44
〔 44
三个@@ 44
乍 44
佩斯 44
内罗毕 44
冈比亚 44
利马 44
加尔 44
协会@@ 44
卡因 44
卢森堡 44
咏@@ 44
咫@@ 44
噼@@ 44
复查 44
大幅度@@ 44
大洋洲 44
奥斯陆 44
姥 44
嫂@@ 44
学龄@@ 44
富有成效 44
对外贸易 44
崔 44
布宜诺斯艾利斯 44
布罗@@ 44
快速反应 44
拟议 44
探视 44
新几内亚 44
暴力犯罪 44
曦 44
本案 44
梧@@ 44
械@@ 44
槐 44
法律效力 44
涯@@ 44
烃@@ 44
狱警 44
甥 44
男女平等 44
筏@@ 44
粮食安全 44
约翰内斯堡 44
组长 44
羧@@ 44
耷@@ 44
肱@@ 44
膊@@ 44
苑 44
莹@@ 44
萍 44
蔬 44
蚊帐 44
袅@@ 44
谟 44
蹊@@ 44
违反@@ 44
里斯@@ 44
锻 44
骼@@ 44
魏 44
1962 43
2050 43
240 43
BS 43
Ba@@ 43
CCD 43
DM 43
Feder@@ 43
HR@@ 43
NG@@ 43
Name 43
Spr@@ 43
TED 43
UB@@ 43
ack 43
ain@@ 43
ano 43
ear@@ 43
erg@@ 43
har@@ 43
her@@ 43
int 43
ket@@ 43
obe@@ 43
rel@@ 43
ser@@ 43
str@@ 43
ype 43
〕 43
不大@@ 43
不相称 43
东南@@ 43
严格执行 43
享有@@ 43
亵@@ 43
修缮 43
偏高 43
元首 43
加快@@ 43
受训 43
名额 43
哈拉 43
埃拉 43
基本权利 43
塞内加尔 43
壕@@ 43
多米@@ 43
大力支持 43
姻 43
嬷@@ 43
官方@@ 43
定额 43
实习@@ 43
实际行动 43
峋 43
崎 43
弋 43
强加@@ 43
彦@@ 43
後 43
惴@@ 43
揽@@ 43
摄 43
收支@@ 43
教育部 43
昆 43
朋友@@ 43
朔 43
未经@@ 43
本章 43
楣 43
榔 43
民盟 43
氯化 43
海关@@ 43
海洋学 43
淹 43
湾@@ 43
潺 43
牵头 43
电子邮@@ 43
痣 43
监狱@@ 43
督 43
瞄 43
矜@@ 43
禀@@ 43
窜@@ 43
第三十@@ 43
经合组织 43
股份@@ 43
膺 43
自由选择 43
自营 43
芪 43
葡@@ 43
谑 43
财务管理 43
资金来源 43
起诉书 43
转给 43
避免@@ 43
醺 43
钼 43
阉@@ 43
霭 43
首脑会议 43
骏@@ 43
30@@ 42
Access 42
Bel@@ 42
Bri@@ 42
Kim@@ 42
MM 42
Mad@@ 42
Mag@@ 42
PR 42
Sachs 42
Tra@@ 42
fe@@ 42
mer@@ 42
organ@@ 42
ps 42
the 42
ue 42
version 42
上文 42
专职 42
丫 42
体制改革 42
克林@@ 42
公安机关 42
军事法庭 42
出现@@ 42
切尔诺贝利 42
包容性 42
北欧国家 42
反腐败 42
发布@@ 42
嚎 42
嚼@@ 42
复审 42
大赦 42
婶@@ 42
学童 42
宏观@@ 42
实效 42
尔多@@ 42
峨 42
嶙@@ 42
常规@@ 42
廖@@ 42
彬 42
恐怖活动 42
慑@@ 42
捶@@ 42
掐 42
掳@@ 42
收入水平 42
教科文组织 42
数量@@ 42
日益严重 42
本年度 42
枫 42
枭 42
检察长 42
榕@@ 42
消极影响 42
煞 42
照管 42
犸@@ 42
璃 42
甄@@ 42
疾病@@ 42
盂 42
监督管理 42
目标@@ 42
瞻 42
粟@@ 42
粹 42
继承权 42
脓 42
苇@@ 42
莓@@ 42
获取信息 42
菲律@@ 42
蜊 42
要件 42
解除@@ 42
该省 42
跷 42
轿@@ 42
近地 42
迫击炮 42
遏 42
铀@@ 42
霄@@ 42
﹕ 42
1961 41
200@@ 41
Black@@ 41
CH 41
Dav@@ 41
Du@@ 41
GM 41
IL@@ 41
Lar@@ 41
RA 41
Ram@@ 41
Rus@@ 41
SF 41
Shel@@ 41
Syn@@ 41
ass 41
ass@@ 41
change@@ 41
cher 41
fo@@ 41
ki 41
ko@@ 41
ky 41
over@@ 41
sc@@ 41
ther@@ 41
tu 41
ty@@ 41
上述情况 41
书面通知 41
仲裁@@ 41
伱 41
作业@@ 41
侵 41
便利@@ 41
内容@@ 41
利比@@ 41
利比里亚 41
卫生设施 41
双重@@ 41
口译 41
可以@@ 41
司法部长 41
合众@@ 41
周岁 41
啉 41
嘿@@ 41
圆满@@ 41
基本要素 41
大马@@ 41
妥@@ 41
孀 41
官方语言 41
家庭暴力 41
年终 41
应邀 41
怅 41
性别差异 41
总收入 41
惩治 41
手续费 41
摈@@ 41
斟酌 41
明确@@ 41
暂 41
核心内容 41
桦 41
桨@@ 41
梏 41
欧洲议会 41
氦@@ 41
沪 41
滕@@ 41
煤炭@@ 41
熄 41
特立@@ 41
狈 41
眺 41
着重于 41
矶@@ 41
磊 41
社区@@ 41
私营企业 41
第三季度 41
纪念活动 41
缸@@ 41
腮 41
航空器 41
葡萄牙语 41
蒿@@ 41
蜥 41
衷心@@ 41
计入 41
讬 41
财务报表 41
质量保证 41
费率 41
踞 41
转交 41
迩 41
遛@@ 41
锣 41
霖 41
马斯 41
麂@@ 41
﹒ 41
／ 41
07 40
1944 40
But@@ 40
Develop@@ 40
FA 40
FP@@ 40
Fil@@ 40
Frank@@ 40
HR 40
Jeff@@ 40
Mal@@ 40
Ob@@ 40
So@@ 40
Tr@@ 40
World@@ 40
ader 40
ble 40
ero@@ 40
est 40
ich 40
lan@@ 40
ney 40
ook 40
pa@@ 40
ran@@ 40
st 40
ster 40
tion 40
ut@@ 40
ven@@ 40
上一年 40
亿人 40
会费 40
侵权行为 40
保障@@ 40
借以 40
入伍 40
全日制 40
六次 40
具体地说 40
判处死刑 40
区别对待 40
医疗卫生 40
吉尔吉斯斯坦 40
吡@@ 40
哉 40
喀麦隆 40
喳@@ 40
团结@@ 40
国家主权 40
壑@@ 40
多元@@ 40
奥斯 40
娓@@ 40
婢@@ 40
居留 40
库尔 40
彪@@ 40
感器 40
拄@@ 40
拒绝@@ 40
指标@@ 40
按规定 40
捣 40
推动@@ 40
搜索@@ 40
摞 40
撰 40
新西@@ 40
无障碍 40
杀伤@@ 40
枉 40
桅 40
桎@@ 40
桐 40
桐@@ 40
桡@@ 40
汇率@@ 40
法中 40
洛杉@@ 40
海外@@ 40
淤 40
渤@@ 40
炸死 40
理事 40
申请书 40
秸 40
竞 40
竺@@ 40
耶夫 40
联合国大会 40
胡锦@@ 40
能效 40
脲 40
芝加@@ 40
萧 40
裴@@ 40
诉状 40
诩 40
财务报告 40
踹 40
辖@@ 40
辖区 40
辘 40
辘@@ 40
过渡期 40
里程@@ 40
镳 40
阱 40
雇佣@@ 40
雷区 40
魄@@ 40
1953 39
1956 39
2030 39
DP@@ 39
HC 39
Hol@@ 39
Im@@ 39
Ke@@ 39
Mess@@ 39
PCB 39
Pl@@ 39
Ri@@ 39
Service 39
WH@@ 39
att@@ 39
bas@@ 39
ber 39
beta 39
ich@@ 39
im 39
og 39
ore@@ 39
phone 39
pro@@ 39
ris@@ 39
son@@ 39
tom 39
丙 39
人口老龄化 39
伊斯兰@@ 39
住房@@ 39
倘@@ 39
公民权利 39
厘 39
双方同意 39
发放@@ 39
呱 39
咧 39
土著居民 39
城镇@@ 39
大幅@@ 39
奥林匹克@@ 39
威胁@@ 39
定位系统 39
巡逻队 39
应以 39
彝@@ 39
忒 39
惆@@ 39
收支 39
教廷 39
文森特 39
日内 39
最多@@ 39
有利条件 39
有所提高 39
桉@@ 39
消费量 39
清点 39
漂 39
片剂 39
现金流量 39
相互依存 39
第四十@@ 39
笼统 39
筹措 39
纲@@ 39
缔约方 39
缴费 39
署长 39
羁押 39
美利坚合众国 39
芜@@ 39
苯酚 39
葡萄牙@@ 39
薰 39
衡量@@ 39
设备@@ 39
追查 39
逐字 39
遮 39
釜 39
鍊 39
鞣@@ 39
飙 39
鲶@@ 39
0.1 38
04 38
1.6 38
108 38
11@@ 38
DR 38
Great@@ 38
IO@@ 38
IV@@ 38
Ken@@ 38
LP 38
Log@@ 38
Mul@@ 38
Spring 38
Star@@ 38
Val@@ 38
ah 38
ari@@ 38
mon@@ 38
ous@@ 38
pha 38
pi@@ 38
sy@@ 38
ting@@ 38
ug@@ 38
下放 38
伤亡@@ 38
使用费 38
内陆@@ 38
准军事 38
刑事诉讼 38
判例 38
办事@@ 38
努力实现 38
励 38
博茨瓦纳 38
原则@@ 38
可行性研究 38
各种因素 38
吮 38
噱@@ 38
外阴 38
多米尼克 38
太平洋地区 38
娱 38
宗教团体 38
实况 38
容易@@ 38
少将 38
届满 38
巴基斯坦@@ 38
巴塞尔 38
帐目 38
年龄@@ 38
建立联系 38
形势@@ 38
徨 38
惟 38
惩处 38
意性 38
憋@@ 38
战略目标 38
所长 38
拗 38
提出申请 38
搽 38
撕 38
操守 38
政治化 38
斟@@ 38
无助于 38
时向 38
明确指出 38
民选 38
沥 38
海盗@@ 38
渎@@ 38
灿 38
炫 38
烟草@@ 38
煲 38
物力 38
特朗普 38
生殖器官 38
电离@@ 38
畸 38
瘸 38
第四次 38
篓 38
纳尔 38
罔@@ 38
芥 38
茜@@ 38
蒿 38
表示祝贺 38
裘@@ 38
褂 38
诣 38
详细资料 38
谦 38
豁免权 38
贝尔格莱德 38
货物运输 38
贪 38
资料@@ 38
赤贫 38
边远地区 38
迁往 38
违禁 38
造林 38
遇害 38
郭 38
醺@@ 38
野生@@ 38
阪 38
阿拉法特 38
霞@@ 38
韭@@ 38
预见@@ 38
颐@@ 38
4.5 37
7.@@ 37
AI 37
Bla@@ 37
DD 37
Dar@@ 37
Fac@@ 37
Ham@@ 37
Il@@ 37
Jack@@ 37
Outlook 37
Pr@@ 37
RD 37
SH@@ 37
Sec@@ 37
Sim@@ 37
Sm@@ 37
Sun 37
TO@@ 37
West@@ 37
ana 37
ans 37
ap 37
are@@ 37
ave 37
den 37
em 37
ful 37
ga 37
gl@@ 37
ha 37
illa 37
mer 37
off 37
phere 37
ret@@ 37
row@@ 37
up 37
不久@@ 37
不法 37
不过@@ 37
两届 37
中小学 37
主权国家 37
乍得 37
们@@ 37
仲裁员 37
佯@@ 37
依法@@ 37
侦察机 37
债权@@ 37
公吨 37
刑事责任 37
卡特尔 37
受益@@ 37
合同规定 37
合计 37
和平谈判 37
咚 37
国家元首 37
国际事务 37
基础教育 37
妨 37
学士 37
安全局 37
审计师 37
工商 37
已于 37
年龄组 37
广泛传播 37
庐 37
当前@@ 37
总体而言 37
意见@@ 37
愣@@ 37
懵@@ 37
手语 37
招待@@ 37
推选 37
揪@@ 37
擀@@ 37
整修 37
斯洛文尼亚 37
民警 37
渔 37
渠@@ 37
珊瑚@@ 37
琦 37
相辅相成 37
眸@@ 37
示范@@ 37
笞 37
第二项 37
答辩 37
管理工具 37
粮食价格 37
紧迫性 37
纪律@@ 37
腈 37
膳 37
自足 37
茧@@ 37
萨卡 37
被害人 37
詹 37
赦@@ 37
过渡性 37
送交 37
遗 37
采取有效 37
锆 37
镍@@ 37
阿塞拜疆 37
非盟 37
预警系统 37
髁 37
高等法院 37
龋@@ 37
.. 36
1955 36
80@@ 36
AF@@ 36
Buil@@ 36
Cas@@ 36
Cli@@ 36
Fu@@ 36
Ho@@ 36
IV 36
Internation@@ 36
John 36
Mur@@ 36
Po@@ 36
Pol@@ 36
Red@@ 36
SO 36
SR 36
ame 36
ba@@ 36
bar@@ 36
com@@ 36
ind@@ 36
ject 36
ker@@ 36
les@@ 36
log 36
mark 36
of 36
ora 36
tal 36
中未 36
人向 36
人应 36
人民政府 36
侧重 36
信仰@@ 36
信托@@ 36
全面@@ 36
公用@@ 36
匈牙@@ 36
卫者 36
受惠 36
变得@@ 36
变通 36
另行 36
司令@@ 36
合用 36
和平解决 36
啼 36
嘧@@ 36
嚓 36
国情 36
地名 36
坳 36
多斯 36
多种形式 36
大地@@ 36
太子港 36
孕产妇 36
寡 36
就业@@ 36
岛民 36
嵴 36
开始@@ 36
弥 36
征兵 36
忑@@ 36
扪@@ 36
承包人 36
挞 36
掀 36
授权@@ 36
接洽 36
揣 36
搜 36
摩加迪沙 36
收入@@ 36
更多@@ 36
服务台 36
棺 36
欧共体 36
武装人员 36
民主主义 36
泣@@ 36
爹@@ 36
犸 36
眯 36
矢 36
秽@@ 36
童工 36
第五条 36
翌@@ 36
翩 36
耦 36
萨拉@@ 36
蘖 36
行为人 36
襁@@ 36
觑 36
豫 36
负责管理 36
跺 36
通力合作 36
通性 36
酊@@ 36
钒 36
铿@@ 36
锑 36
镌@@ 36
阿尔巴尼亚 36
雏 36
飞离 36
骸@@ 36
麒@@ 36
1.1 35
115 35
1947 35
550 35
Angel@@ 35
Book 35
Clar@@ 35
EG@@ 35
Em@@ 35
FT 35
Hay@@ 35
Management 35
OPEC 35
Wil@@ 35
ca@@ 35
ek 35
fin@@ 35
il 35
lay@@ 35
log@@ 35
ns 35
null 35
ris 35
rob@@ 35
stein 35
tz 35
ya 35
上届 35
产前 35
仇视 35
付诸实施 35
以利 35
兀@@ 35
公民@@ 35
其能 35
刈 35
利害关系 35
匣 35
博物@@ 35
叁 35
咋 35
咏 35
啧@@ 35
国内@@ 35
埔 35
堰@@ 35
夥 35
失业@@ 35
姊 35
学金 35
学院@@ 35
安全部门 35
宗教自由 35
寨@@ 35
巴哈马 35
年满 35
广泛@@ 35
徕 35
提款@@ 35
改革方案 35
放射性@@ 35
普通法 35
杞@@ 35
核设施 35
检查员 35
楠 35
歹 35
每名 35
每项 35
沈 35
浃@@ 35
涝@@ 35
湎 35
狄 35
珑 35
瓦拉 35
皑@@ 35
相关@@ 35
瞬 35
磐 35
祸害 35
秧@@ 35
第十 35
管控 35
绉 35
经贸@@ 35
结束@@ 35
绝育 35
绞 35
统计资料 35
罗姆 35
翁@@ 35
自决 35
萨米 35
蒡 35
蓓@@ 35
蕉@@ 35
蛊@@ 35
议席 35
诟@@ 35
诽@@ 35
贝鲁特 35
财政危机 35
贸易谈判 35
赝@@ 35
轩 35
违规行为 35
连带 35
遣返 35
郝@@ 35
钹 35
靖 35
非正规 35
颁 35
马丁@@ 35
髂 35
鹈@@ 35
鹕 35
默德 35
黜 35
龌@@ 35
2016 34
8.@@ 34
Air@@ 34
Bet@@ 34
Brothers 34
Cla@@ 34
Dan@@ 34
ECB 34
Ev@@ 34
Hen@@ 34
Hot@@ 34
ING 34
Inform@@ 34
MB 34
Mr@@ 34
Ra@@ 34
SB 34
Stat@@ 34
VE@@ 34
able 34
ain 34
dis@@ 34
erv@@ 34
fy 34
ho@@ 34
ill 34
let@@ 34
print 34
sen 34
付诸 34
仲裁庭 34
侨@@ 34
信贷@@ 34
傢 34
公信力 34
公民权 34
公海 34
内为 34
册@@ 34
初步@@ 34
加特 34
咱@@ 34
啕@@ 34
啡@@ 34
喽 34
嗖 34
基层@@ 34
如上所述 34
委托@@ 34
媛 34
学校@@ 34
实地@@ 34
富有@@ 34
就业率 34
屯@@ 34
工业界 34
帕拉 34
平均数 34
幼儿@@ 34
应予以 34
弩 34
当量 34
性虐待 34
惦@@ 34
惩@@ 34
憨@@ 34
所得@@ 34
扩散@@ 34
捂 34
改善@@ 34
政治性 34
方法学 34
昨@@ 34
本分 34
柬 34
框架@@ 34
殃 34
水电@@ 34
深入分析 34
淳@@ 34
湘 34
熠 34
燧@@ 34
牦@@ 34
犯罪活动 34
猁 34
由该 34
矽@@ 34
第一节 34
第十二 34
管理程序 34
继续执行 34
维尔@@ 34
聂@@ 34
联合体 34
蒲 34
袅 34
褓 34
贬 34
踱 34
辖 34
逍遥法外 34
遁@@ 34
遨@@ 34
采取@@ 34
重于 34
钨 34
镐 34
闆 34
闽@@ 34
非洲联盟 34
顾问@@ 34
颐 34
魅 34
龊 34
102 33
119 33
190 33
1933 33
1957 33
380 33
6.5 33
AG 33
Amazon 33
Bi@@ 33
Bor@@ 33
Clear@@ 33
Cy@@ 33
Fra@@ 33
Green@@ 33
LS 33
List 33
MT 33
Mit@@ 33
NC 33
On@@ 33
Phil@@ 33
Space 33
TB 33
Tor@@ 33
UT 33
UT@@ 33
abl@@ 33
du@@ 33
ft 33
gu@@ 33
hel@@ 33
ist 33
kel 33
low@@ 33
na@@ 33
ors 33
time 33
不法行为 33
东帝汶 33
中非 33
亘@@ 33
伊拉克政府 33
休会 33
侮@@ 33
全力支持 33
全民@@ 33
公布@@ 33
六条 33
动荡@@ 33
区划 33
圣马@@ 33
塞族 33
增至 33
尼亚人 33
屯 33
巴拿马@@ 33
年度报告 33
广播节目 33
忖 33
所定 33
承认@@ 33
提法 33
摁 33
摹 33
有鉴于此 33
本条 33
权力@@ 33
权能 33
核扩散 33
武装@@ 33
毛派 33
汶@@ 33
浑 33
海地区 33
深表 33
渥@@ 33
渭@@ 33
灾后 33
為 33
特网 33
现正 33
甙 33
癞@@ 33
癫 33
皑 33
睦@@ 33
移民局 33
立方米 33
第一款 33
第十四条 33
箔@@ 33
籍@@ 33
绺 33
缅甸政府 33
缇 33
胴@@ 33
舔@@ 33
芭 33
药物@@ 33
萌 33
蒋 33
蛤 33
补助金 33
讹@@ 33
访问期间 33
试验性 33
该组 33
谬 33
赞成票 33
轿 33
进行性 33
逆转录 33
造成@@ 33
鑫 33
问责 33
隅 33
零零@@ 33
鳗 33
1952 32
Alex@@ 32
CI@@ 32
FP 32
In 32
Ker@@ 32
Key@@ 32
Liv@@ 32
Mari@@ 32
OL@@ 32
PL 32
Pot@@ 32
Sun@@ 32
Ti@@ 32
Tur@@ 32
VI 32
XXX 32
Yel@@ 32
ace@@ 32
ail 32
gi@@ 32
ik@@ 32
ino 32
mu@@ 32
rec@@ 32
ron@@ 32
sel@@ 32
sion@@ 32
un 32
za 32
下降@@ 32
专家组 32
世贸@@ 32
中作 32
中均 32
中等@@ 32
中长期 32
举行@@ 32
人和@@ 32
人身安全 32
仇外 32
八条 32
刑事案件 32
医务 32
发言者 32
吆@@ 32
合格@@ 32
咱 32
啊@@ 32
嗣 32
固体@@ 32
圣城 32
在建 32
塘@@ 32
大陆架 32
完整@@ 32
尽可能@@ 32
岖@@ 32
弥合 32
总人口 32
总面积 32
情况@@ 32
懑 32
持久@@ 32
掬 32
政治犯 32
日起 32
普及@@ 32
期中 32
欧洲联盟 32
毡@@ 32
牲 32
特许权 32
猞@@ 32
生产性 32
瞒@@ 32
私有@@ 32
第一句 32
箕 32
糜 32
纲要 32
茹 32
蒴@@ 32
证明文件 32
调整@@ 32
谤@@ 32
轮值 32
过渡@@ 32
进行@@ 32
重大进展 32
韶@@ 32
1.0 31
1.3 31
1.4 31
1.8 31
104 31
1951 31
230 31
270 31
320 31
35@@ 31
Adap@@ 31
BM@@ 31
Bec@@ 31
Design@@ 31
ERP 31
EU 31
GNP 31
Glob@@ 31
Lau@@ 31
May@@ 31
Mel@@ 31
ON 31
Out@@ 31
Res@@ 31
SER@@ 31
Set 31
Vie@@ 31
Wi@@ 31
Win@@ 31
Yor@@ 31
ance@@ 31
ata 31
back 31
ban@@ 31
dec@@ 31
dia 31
ech@@ 31
ei@@ 31
ffe@@ 31
han@@ 31
kin@@ 31
ling 31
pen@@ 31
tar 31
ti 31
true 31
ung@@ 31
不成比例 31
中产@@ 31
互信 31
仲 31
价格指数 31
估计@@ 31
來 31
克兰@@ 31
入籍 31
再循环 31
几份 31
出席会议 31
分阶段 31
加蓬 31
努力提高 31
化学武器 31
史密@@ 31
呃@@ 31
咋@@ 31
啥@@ 31
啰 31
因数 31
坪@@ 31
垣 31
培训班 31
塔吉克斯坦 31
墩@@ 31
处长 31
奂 31
姻@@ 31
嫖@@ 31
家庭收入 31
履行@@ 31
巴布@@ 31
巴拉圭 31
帜 31
幂 31
开展业务 31
彤 31
彦 31
御 31
悸@@ 31
情报部门 31
承包@@ 31
报案 31
明示 31
晾 31
暂定 31
林业@@ 31
栋@@ 31
案情 31
款额 31
歧 31
民主联盟 31
氩 31
汰@@ 31
滥 31
父亲@@ 31
珐@@ 31
町 31
白皮书 31
磊@@ 31
磺酸 31
符合条件 31
第十条 31
缔结 31
缛@@ 31
缜@@ 31
胛@@ 31
自愿@@ 31
舆@@ 31
蓦@@ 31
蕉 31
蛀 31
蝓 31
蟒@@ 31
被告@@ 31
譬@@ 31
记录在案 31
论及 31
贼@@ 31
赊@@ 31
踊@@ 31
转载 31
过渡政府 31
道路@@ 31
重点@@ 31
钎@@ 31
铣 31
锰@@ 31
阐@@ 31
阶段@@ 31
预付款 31
颧@@ 31
饵@@ 31
1958 30
330 30
Ag@@ 30
Blo@@ 30
CG@@ 30
CON@@ 30
Dec@@ 30
FF 30
Gal@@ 30
Go@@ 30
Gran@@ 30
IO 30
IOS 30
Integr@@ 30
Is@@ 30
Pad@@ 30
RD@@ 30
Sil@@ 30
Stanley 30
Stre@@ 30
Ya@@ 30
add@@ 30
art 30
board 30
ck 30
ds 30
eman 30
ier 30
ity 30
ley@@ 30
list 30
logo 30
ong@@ 30
our 30
out@@ 30
par@@ 30
sh 30
ters 30
ts@@ 30
ura 30
专题@@ 30
两用 30
产值 30
今天@@ 30
介绍@@ 30
他国 30
佔@@ 30
使用暴力 30
候选@@ 30
公众@@ 30
公共事务 30
共计 30
冀@@ 30
冶 30
凌辱 30
列明 30
劳动法 30
匝@@ 30
历届 30
厕@@ 30
参加@@ 30
可比性 30
司法机关 30
司法部门 30
呦 30
和平共处 30
圆桌 30
圭@@ 30
外层空间 30
大院 30
娑 30
婚姻状况 30
孰@@ 30
实施方案 30
展开@@ 30
幔@@ 30
弘 30
情节@@ 30
所提 30
执法人员 30
提出异议 30
敝 30
斩 30
无家可归者 30
昵 30
有期徒刑 30
本期 30
札@@ 30
核裁军 30
武装冲突 30
炙 30
环境卫生 30
现实情况 30
瑜 30
痔@@ 30
监护权 30
社会群体 30
粹主义 30
糠@@ 30
约瑟@@ 30
组成员 30
统计局 30
羯@@ 30
翰@@ 30
肇事者 30
膈 30
艮@@ 30
菁 30
萨拉姆 30
藩@@ 30
行政区 30
详细情况 30
负担@@ 30
财政年度 30
跆@@ 30
跺@@ 30
躇@@ 30
边境@@ 30
遏止 30
邹@@ 30
长期投资 30
闭幕 30
阿克拉 30
高级别 30
鹃@@ 30
麼 30
龋 30
103 29
175 29
2.3 29
225 29
24@@ 29
AV@@ 29
AW@@ 29
Bon@@ 29
CF 29
Chan@@ 29
FF@@ 29
GS 29
Ha@@ 29
III 29
Ju@@ 29
Jul@@ 29
Ka@@ 29
MAT@@ 29
MX 29
Scot@@ 29
Stand@@ 29
Vo@@ 29
Wat@@ 29
ac 29
alize 29
can@@ 29
cm 29
dit 29
eph@@ 29
ina 29
land@@ 29
loc@@ 29
ol 29
so@@ 29
und@@ 29
举证责任 29
之一@@ 29
九条 29
亚美@@ 29
人工流产 29
仗@@ 29
佃@@ 29
作出贡献 29
信息安全 29
全权 29
全球定位系统 29
公诉 29
其下 29
具体措施 29
内政部长 29
分会 29
切合实际 29
制度化 29
努力争取 29
勘查 29
卟 29
参看 29
参谋 29
含水层 29
吭@@ 29
啻 29
喀 29
外债 29
姚 29
完全同意 29
导致@@ 29
尚待 29
岬 29
巡 29
差价 29
巴勒斯坦国 29
并作 29
库拉 29
廿@@ 29
怔 29
恃@@ 29
恰 29
扣减 29
捷克共和国 29
教育工作者 29
数据交换 29
斯洛@@ 29
新闻自由 29
日至 29
核爆炸 29
此类@@ 29
汕@@ 29
漱 29
相互尊重 29
知悉 29
砷@@ 29
穆萨 29
立足于 29
类似@@ 29
粟 29
羽毛@@ 29
耿 29
臼@@ 29
茹@@ 29
荽 29
萨尔@@ 29
蛞@@ 29
裆 29
覆盖范围 29
讯问 29
谘 29
财产损失 29
贩运 29
蹼 29
转型期 29
辄 29
运输系统 29
进步@@ 29
遂@@ 29
铋 29
随函 29
隧@@ 29
雇佣军 29
非法行为 29
鞘@@ 29
饺 29
马耳他 29
驻地 29
鬓@@ 29
鳏@@ 29
鳖 29
鸠 29
鹬 29
135 28
1946 28
70@@ 28
AK 28
Action 28
App@@ 28
Bush 28
COP@@ 28
DV@@ 28
Dani@@ 28
Dou@@ 28
Fe@@ 28
Inte@@ 28
JP@@ 28
Ko@@ 28
Martin@@ 28
OR 28
Pa@@ 28
Pan@@ 28
Sel@@ 28
Sen@@ 28
Stan@@ 28
TN@@ 28
Tu@@ 28
Unit 28
ani 28
ga@@ 28
gen@@ 28
ica 28
ies 28
if 28
ison 28
jar 28
jo 28
len 28
lo 28
men@@ 28
my 28
old@@ 28
ood@@ 28
sp@@ 28
stone 28
tor@@ 28
tra@@ 28
ung 28
where 28
wid@@ 28
① 28
一视同仁 28
三份 28
不偏不倚 28
主管机关 28
乌兹别克斯坦 28
习惯法 28
仑@@ 28
会议记录 28
便携@@ 28
候补 28
偕@@ 28
充分认识 28
公务@@ 28
准入 28
分辨@@ 28
刍@@ 28
初稿 28
剁@@ 28
前体 28
加以解决 28
加拿大政府 28
卫生条件 28
各省 28
合法@@ 28
咨@@ 28
咩 28
噗 28
四项 28
培训@@ 28
塞尔维@@ 28
外交人员 28
夭 28
失业问题 28
妨害 28
妳@@ 28
安全网 28
寐 28
尼日利亚@@ 28
工会@@ 28
布林@@ 28
师资 28
常设 28
幂@@ 28
归化 28
惺 28
憋 28
成人@@ 28
打伤 28
投了 28
抡 28
抵销 28
捻@@ 28
旭@@ 28
有偿 28
桀@@ 28
殃@@ 28
民国 28
混凝@@ 28
渔业@@ 28
烙 28
热烈@@ 28
犯罪集团 28
独立国家 28
率为 28
监督机构 28
砝@@ 28
砥@@ 28
社会工作者 28
第七条 28
糖尿@@ 28
纳米比亚 28
经纪@@ 28
缈 28
胰 28
能源安全 28
膛@@ 28
致残 28
莞 28
蒺@@ 28
蛆 28
蛰@@ 28
蜀@@ 28
衅@@ 28
谵@@ 28
迟延 28
逍@@ 28
道而@@ 28
酌情 28
酩@@ 28
量刑 28
釜@@ 28
镣@@ 28
阎@@ 28
阿富汗人 28
非洲之角 28
非洲地区 28
飒@@ 28
鬃 28
鲆 28
黠 28
11.@@ 27
116 27
1954 27
2.2 27
210 27
260 27
Advis@@ 27
Analy@@ 27
Bal@@ 27
Christ@@ 27
Cre@@ 27
DM@@ 27
EF 27
Fo@@ 27
Framework 27
Func@@ 27
GT@@ 27
HO@@ 27
II@@ 27
King 27
LD 27
Lou@@ 27
Nichol@@ 27
Notes 27
Rec@@ 27
Rom@@ 27
Schem@@ 27
Sco@@ 27
Shi@@ 27
Sy@@ 27
System@@ 27
Times 27
Universit@@ 27
ation 27
bel 27
car@@ 27
ck@@ 27
email 27
eng@@ 27
even@@ 27
ey@@ 27
form@@ 27
fre@@ 27
int@@ 27
key@@ 27
na 27
off@@ 27
om 27
ons 27
ting 27
tri@@ 27
une 27
war@@ 27
yer 27
世界市场 27
两国政府 27
二条 27
人员@@ 27
信息中心 27
信息管理 27
俩@@ 27
储备金 27
公民投票 27
减量 27
分包 27
剿 27
加利 27
参谋长 27
可信性 27
各个@@ 27
各阶层 27
吉隆坡 27
名录 27
因应 27
团体@@ 27
坨 27
外籍@@ 27
娟 27
寰 27
居高@@ 27
座谈会 27
弈@@ 27
征询 27
徒刑 27
忒@@ 27
态度@@ 27
扦@@ 27
执行机构 27
拘 27
掰 27
掰@@ 27
揄 27
提供数据 27
搔 27
搔@@ 27
搡 27
撰文 27
擒 27
文物@@ 27
方案@@ 27
无期徒刑 27
无核@@ 27
暨 27
未决 27
杈 27
材料@@ 27
杵 27
查验 27
汹 27
泯@@ 27
海洋环境 27
淖 27
清算@@ 27
潍@@ 27
琅 27
生产量 27
甥@@ 27
瘟 27
皎@@ 27
直布罗陀 27
矸@@ 27
矾 27
破产法 27
禁止@@ 27
程序性 27
第五次 27
筷 27
簸@@ 27
绽 27
缥@@ 27
罂@@ 27
腱@@ 27
舐 27
菸 27
萸 27
蕨 27
蝽 27
规约 27
诃@@ 27
谙 27
贩卖@@ 27
超支 27
跛 27
蹴@@ 27
轻重 27
边境地区 27
追回 27
逮 27
逮捕令 27
金融部门 27
鑑@@ 27
钨@@ 27
铮@@ 27
锗 27
锵 27
镫 27
限制@@ 27
隔离@@ 27
领土完整 27
高等院校 27
鳕 27
128 26
23@@ 26
7.5 26
Act 26
Any@@ 26
BA@@ 26
BT 26
Blu@@ 26
Box 26
CAT 26
COM@@ 26
DR@@ 26
Europe@@ 26
Forms 26
Gi@@ 26
Hun@@ 26
LL@@ 26
Mid@@ 26
Pat@@ 26
RE 26
Rog@@ 26
Sab@@ 26
Sing@@ 26
Tex@@ 26
Wol@@ 26
ath@@ 26
ational 26
awa 26
cy@@ 26
field 26
hi 26
hn@@ 26
ice 26
inc@@ 26
ins 26
les 26
lif@@ 26
los@@ 26
nes 26
ok 26
pat@@ 26
red@@ 26
root 26
ski 26
text 26
tif@@ 26
ville 26
work@@ 26
上岗 26
专案 26
世界粮食计划署 26
东道国 26
个案研究 26
丶 26
举办@@ 26
二十五 26
交道 26
以向 26
侨 26
俯 26
俾@@ 26
全体成员 26
全面禁止 26
关联@@ 26
区域@@ 26
占领@@ 26
卤 26
叟 26
合规 26
吭 26
哩@@ 26
因果@@ 26
国际金融 26
多边贸易 26
孟 26
孳@@ 26
家政 26
尹@@ 26
屿 26
工商业 26
性别@@ 26
恕@@ 26
意大利政府 26
愚 26
扈 26
排放@@ 26
支付@@ 26
旭 26
暇@@ 26
暴力@@ 26
最新进展 26
本协定 26
案中 26
槁 26
毛坯 26
汝@@ 26
汾@@ 26
派出所 26
涕@@ 26
涣@@ 26
涮 26
潭@@ 26
炔 26
犄@@ 26
璜 26
瓮 26
皮书 26
眶@@ 26
碉@@ 26
祁@@ 26
禁毒 26
秧 26
第一类 26
第二类 26
第五十@@ 26
第六条 26
经济援助 26
维和部队 26
编撰 26
联合王国 26
脲@@ 26
臊 26
舛 26
药物滥用 26
蜷 26
解除武装 26
记入 26
该次 26
谀@@ 26
贝鲁@@ 26
贫困家庭 26
赈@@ 26
迅速@@ 26
通行@@ 26
遁 26
郑 26
铰 26
锏 26
防治@@ 26
阿勒@@ 26
雯 26
鲨@@ 26
～ 26
.2 25
111 25
165 25
2.1 25
2.6 25
2018 25
3.3 25
60@@ 25
850 25
AN 25
BR@@ 25
Comm@@ 25
Connec@@ 25
Cred@@ 25
Den@@ 25
Dra@@ 25
EX@@ 25
Econom@@ 25
Franc@@ 25
Hor@@ 25
IAEA 25
Jenn@@ 25
Johnson 25
Ku@@ 25
Lee 25
Lev@@ 25
Lewis 25
Ltd 25
Mas@@ 25
NG 25
PN@@ 25
Pay@@ 25
Publ@@ 25
Reg@@ 25
SG@@ 25
Sym@@ 25
TER@@ 25
WW@@ 25
World 25
ace 25
aga 25
ars 25
ator@@ 25
hoo 25
ils 25
ire 25
iss@@ 25
ite@@ 25
la 25
lam@@ 25
ls 25
ner@@ 25
ory 25
right 25
ron 25
sch@@ 25
sky 25
than@@ 25
tro@@ 25
via 25
yan@@ 25
yp@@ 25
不锈@@ 25
互补性 25
交易成本 25
人民解放军 25
介绍性 25
伊比利亚 25
佻 25
傣@@ 25
减刑 25
减至 25
刑事@@ 25
利息@@ 25
勘 25
哈萨@@ 25
唆@@ 25
商事 25
噎 25
国防@@ 25
土库曼斯坦 25
地中@@ 25
塞拉@@ 25
娄@@ 25
审查@@ 25
宦@@ 25
宪法法院 25
居留@@ 25
带薪 25
应予 25
康复中心 25
恢复性 25
惕@@ 25
憩@@ 25
扪 25
提供@@ 25
揪 25
擒@@ 25
擞 25
既往 25
暄 25
本节 25
桠 25
槐@@ 25
毁林 25
比例@@ 25
民用@@ 25
汀@@ 25
沙漠化 25
浚 25
涧 25
瀚@@ 25
焉@@ 25
现行@@ 25
盹@@ 25
砼 25
确定@@ 25
祠 25
第十一条 25
粼@@ 25
纭 25
绍 25
肯尼@@ 25
胄 25
能源供应 25
衔@@ 25
袄 25
裘 25
警务 25
讷 25
谆@@ 25
负面@@ 25
资金不足 25
跖@@ 25
跨国@@ 25
践 25
转账 25
邱 25
郡@@ 25
鄂 25
金融资产 25
閒@@ 25
阈 25
集装@@ 25
鞑@@ 25
预防@@ 25
颠 25
骁@@ 25
鸪 25
鹧@@ 25
麾@@ 25
107 24
1935 24
5.5 24
AB 24
AH@@ 24
Add@@ 24
Ak@@ 24
Aud@@ 24
Ban@@ 24
Clinton 24
Commission 24
Cou@@ 24
Cur@@ 24
Dr@@ 24
Fish@@ 24
Gil@@ 24
HL 24
Hal@@ 24
Hand@@ 24
IDA 24
IE@@ 24
Kir@@ 24
Kit@@ 24
Ly@@ 24
Nicol@@ 24
Not@@ 24
PE@@ 24
Press 24
Proc@@ 24
Ron@@ 24
SAT 24
Sin@@ 24
Sl@@ 24
UN 24
Williams 24
ai 24
ara 24
aya 24
bian 24
cel@@ 24
eld 24
ero 24
err@@ 24
hy@@ 24
iki 24
ion 24
ish 24
ld@@ 24
len@@ 24
lin 24
link 24
lit@@ 24
ock 24
old 24
ome@@ 24
port 24
ray 24
red 24
res 24
van@@ 24
wa@@ 24
zz@@ 24
一览@@ 24
为数 24
亚太经@@ 24
产权@@ 24
侨民 24
侮 24
公署 24
冢 24
凰@@ 24
分权 24
制成品 24
加入@@ 24
南极@@ 24
口粮 24
同级 24
呷 24
呸 24
咀 24
唬@@ 24
噻@@ 24
因于 24
国际法庭 24
国集团 24
土地改革 24
均等 24
垦@@ 24
基金组织 24
娱@@ 24
婀@@ 24
安南 24
官长 24
家庭环境 24
寇@@ 24
巴哈 24
干事 24
年均 24
庐@@ 24
建议书 24
当事 24
恫吓 24
悯@@ 24
成为@@ 24
户主 24
扶养 24
抿 24
拘押 24
掂@@ 24
揶@@ 24
摩尔多瓦 24
撵@@ 24
服务部 24
未满 24
未经许可 24
杂项 24
来文 24
梵 24
楔 24
汝 24
沪@@ 24
泾@@ 24
派驻 24
煅@@ 24
电文 24
监护@@ 24
盟约 24
相互理解 24
砚 24
砜 24
破产@@ 24
移送 24
符合国家 24
第二节 24
第十三条 24
粼 24
绮@@ 24
缔约 24
编入 24
老龄 24
腈@@ 24
膈@@ 24
芋@@ 24
芫@@ 24
荟@@ 24
获取@@ 24
蛭 24
蜈@@ 24
螫 24
补偿金 24
讧 24
调解人 24
谘@@ 24
谨向 24
贯彻执行 24
资源分配 24
跄@@ 24
近几@@ 24
进攻性 24
遣散 24
邢@@ 24
铛@@ 24
隽@@ 24
霰@@ 24
非常重视 24
预审 24
颚@@ 24
饯 24
骶 24
鬈 24
鱼种 24
鲫@@ 24
鹩 24
117 23
145 23
1860 23
1863 23
2.4 23
Back@@ 23
Bl@@ 23
Bru@@ 23
CAN 23
Center 23
China@@ 23
Enter@@ 23
Equ@@ 23
Express 23
FT@@ 23
Fore@@ 23
Fried@@ 23
Jac@@ 23
James 23
Jean 23
Kat@@ 23
Law@@ 23
Lis@@ 23
Mah@@ 23
NY@@ 23
Op@@ 23
Shar@@ 23
Sou@@ 23
TF@@ 23
Tw@@ 23
VER@@ 23
WC 23
WS@@ 23
air@@ 23
ame@@ 23
au 23
dem@@ 23
ders 23
ini 23
ink 23
ink@@ 23
ith 23
ium 23
map 23
ment 23
ock@@ 23
pick@@ 23
sk@@ 23
sp 23
ss@@ 23
sub@@ 23
ture 23
use 23
ward@@ 23
zer 23
七次 23
东西@@ 23
主导作用 23
乓 23
互动@@ 23
亘 23
以色列政府 23
依存 23
值得一提的是 23
偎@@ 23
僭 23
入境@@ 23
公共安全 23
冥 23
减灾 23
凛 23
刍 23
创设 23
匈@@ 23
十周年 23
协议@@ 23
单证 23
历年 23
参与@@ 23
反腐 23
口译员 23
叽 23
各部 23
合并@@ 23
吋 23
吕 23
周转@@ 23
咛 23
咦 23
哥伦比亚特区 23
啤 23
嗖@@ 23
圄 23
埠 23
复核 23
嫣@@ 23
字符@@ 23
安全部 23
小儿@@ 23
布雷顿 23
弭 23
强调指出 23
微克 23
德班 23
性暴力 23
性犯罪 23
总值 23
悼 23
意见分歧 23
愫 23
战略伙伴 23
所罗门@@ 23
抠 23
捍卫者 23
提起@@ 23
摩根@@ 23
撮@@ 23
擘 23
政府首脑 23
政策措施 23
极其@@ 23
栎 23
核动力 23
检察 23
检控 23
槲@@ 23
樊@@ 23
比拉 23
氩@@ 23
治安@@ 23
洄游 23
海上@@ 23
淑 23
淮 23
滔 23
滥用职权 23
澄 23
濡@@ 23
瀑 23
煨 23
燊 23
燎@@ 23
狈@@ 23
痛惜 23
瘁 23
短期@@ 23
确保安全 23
第六十@@ 23
筹备工作 23
箍@@ 23
篪 23
籁 23
羿 23
联席会议 23
胡安 23
胫 23
脯@@ 23
腐败现象 23
腩 23
舀@@ 23
萨拉热窝 23
萨马 23
葆@@ 23
蚣 23
螨@@ 23
襄@@ 23
该局 23
该部 23
诧 23
趸 23
跤@@ 23
过程@@ 23
通知@@ 23
遣送 23
锃@@ 23
锉 23
锉@@ 23
镓 23
镣 23
隋@@ 23
集体行动 23
集束 23
非国家 23
首席@@ 23
鹊@@ 23
麻醉药品 23
＂ 23
118 22
12.@@ 22
158 22
1904 22
27@@ 22
3.7 22
365 22
90@@ 22
AI@@ 22
AM 22
Acc@@ 22
Ali@@ 22
All@@ 22
BY 22
Bos@@ 22
CK 22
Capital 22
Ci@@ 22
DT@@ 22
Def@@ 22
FDI 22
FL@@ 22
Ful@@ 22
Gen@@ 22
Had@@ 22
ICE 22
Map 22
Mem@@ 22
Michel@@ 22
Miller 22
NGO 22
NS@@ 22
Nat@@ 22
Oc@@ 22
Ok@@ 22
Pack@@ 22
Pen@@ 22
Pic@@ 22
RF 22
St 22
Sul@@ 22
Sus@@ 22
Ty@@ 22
UL@@ 22
Ul@@ 22
Uni@@ 22
Ur@@ 22
Ven@@ 22
Works 22
Yo@@ 22
alle@@ 22
ama 22
ang 22
bit@@ 22
ble@@ 22
cat 22
core 22
cu@@ 22
ee 22
feed 22
fl@@ 22
ham@@ 22
ift 22
isa 22
ise 22
jam@@ 22
ken 22
mann 22
ole 22
ota 22
ound@@ 22
pre@@ 22
rid@@ 22
rit@@ 22
sa 22
shi@@ 22
table 22
tur@@ 22
ture@@ 22
val@@ 22
vis@@ 22
way 22
yan 22
ys 22
β 22
万人@@ 22
下表 22
中东问题 22
交换意见 22
人命 22
伎 22
会议@@ 22
传统习俗 22
偷运 22
创造条件 22
匾 22
协商一致 22
南部非洲 22
可预测性 22
司法制度 22
司法权 22
合组织 22
同工@@ 22
呋@@ 22
嗑 22
噶@@ 22
囹@@ 22
国家机关 22
国家统计局 22
堑 22
多功能 22
审定 22
审计员 22
对口 22
小农 22
小计 22
就座 22
履约 22
岐@@ 22
巍 22
巴布亚新几内亚 22
市场准入 22
广泛支持 22
怦 22
惭 22
扩 22
技术标准 22
技术转让 22
指数@@ 22
掣 22
掸 22
摹@@ 22
摺 22
日托 22
时地 22
时数 22
昴 22
替代性 22
最高级别 22
有损于 22
杳@@ 22
极端@@ 22
根据上述 22
榻@@ 22
欧国家 22
毙@@ 22
汛 22
法律依据 22
洱@@ 22
滇@@ 22
狰@@ 22
理所@@ 22
琛 22
瑁 22
瓢 22
痔 22
直接参与 22
相互了解 22
礴 22
祇 22
祟@@ 22
第二份 22
簌 22
系统管理 22
纳克 22
经济区 22
羯 22
职能@@ 22
联合国儿童基金会 22
艾哈迈德 22
范本 22
蝇@@ 22
蝮@@ 22
蝰@@ 22
西班牙政府 22
觉得@@ 22
讶@@ 22
评估@@ 22
试行 22
调查表 22
赣@@ 22
赤道几内亚 22
蹶@@ 22
边防 22
达卡 22
违犯 22
邵@@ 22
钡@@ 22
铈 22
青年党 22
飕 22
饕@@ 22
馥@@ 22
骶@@ 22
鲔 22
鲟@@ 22
鹉@@ 22
黍 22
112 21
137 21
22@@ 21
280 21
370 21
430 21
AND 21
Anth@@ 21
Ash@@ 21
CU@@ 21
Ce@@ 21
Citigroup 21
Cle@@ 21
Clo@@ 21
EV@@ 21
Eng@@ 21
GB@@ 21
Hi@@ 21
IOM 21
Lad@@ 21
MAC 21
Manu@@ 21
Martin 21
Mary@@ 21
Mobile 21
Moz@@ 21
Ol@@ 21
Ori@@ 21
Over@@ 21
Paul 21
QU@@ 21
Rem@@ 21
Reserve 21
Rol@@ 21
Rose 21
SN@@ 21
She@@ 21
TL 21
TO 21
Tou@@ 21
VO@@ 21
ab 21
acity 21
ali@@ 21
anci@@ 21
cc@@ 21
chi 21
chi@@ 21
cur@@ 21
dat@@ 21
ee@@ 21
els 21
enti@@ 21
gre@@ 21
hu@@ 21
ii 21
ingo 21
io 21
kin 21
ko 21
less 21
med@@ 21
ony 21
oun@@ 21
ov 21
ove 21
pos@@ 21
pose 21
ren 21
ro 21
sa@@ 21
sim@@ 21
sm@@ 21
stat 21
ster@@ 21
sw@@ 21
tar@@ 21
ted@@ 21
tiv@@ 21
wave 21
word 21
zy 21
主席@@ 21
主席国 21
之友 21
亚太@@ 21
交通管制 21
今世 21
保加@@ 21
偻 21
公职人员 21
兵役 21
厄立特里亚 21
县级 21
参与方 21
叛乱@@ 21
古柯 21
司法程序 21
司长 21
呀@@ 21
咙@@ 21
哥大 21
哧 21
唁 21
唷 21
国家有关 21
培训中心 21
基本法 21
壹@@ 21
多份 21
娄 21
学前教育 21
安理@@ 21
实施者 21
履行职责 21
岑@@ 21
彪 21
戎 21
战略武器 21
戚 21
所欠 21
执法@@ 21
扶贫 21
拘留所 21
拢@@ 21
捅@@ 21
提供方便 21
援助@@ 21
收缴 21
未获 21
本国@@ 21
柑 21
桡 21
欧洲委员会 21
民主政体 21
氓@@ 21
汲@@ 21
沓@@ 21
沙巴 21
澳大利亚政府 21
灸@@ 21
烽@@ 21
焖 21
牧业 21
狞 21
狩@@ 21
獠@@ 21
相互合作 21
碴 21
社区服务 21
第九条 21
第二届 21
第十一 21
簌@@ 21
系指 21
绦@@ 21
绳之以法 21
羸@@ 21
肓 21
肽@@ 21
腐败问题 21
自然人 21
莅@@ 21
蓟@@ 21
蚌@@ 21
行动者 21
表示满意 21
解释性 21
讳@@ 21
贲@@ 21
赠款 21
载明 21
运载火箭 21
适用@@ 21
速效 21
酌 21
钽 21
铌 21
镬 21
防扩散 21
靥 21
额外@@ 21
颞 21
马尼@@ 21
骜@@ 21
髋 21
.4 20
1.7 20
113 20
127 20
2200 20
26@@ 20
55@@ 20
650 20
Bab@@ 20
Bre@@ 20
Da@@ 20
Dr 20
EB@@ 20
EPA 20
East@@ 20
FM 20
GN@@ 20
Gates 20
Gr@@ 20
Hill 20
Index 20
Jackson 20
LAN 20
LR 20
LT@@ 20
Lan@@ 20
Lon@@ 20
Merr@@ 20
Nu@@ 20
ON@@ 20
Os@@ 20
PER@@ 20
Philip@@ 20
REC@@ 20
SAS 20
Scho@@ 20
Son@@ 20
TF 20
Tal@@ 20
ake 20
any@@ 20
ary 20
ater 20
den@@ 20
eli@@ 20
ence 20
fil@@ 20
ix 20
lie 20
mel@@ 20
mi@@ 20
nu@@ 20
obs 20
ome 20
ood 20
ope 20
oth@@ 20
ou 20
pol@@ 20
por@@ 20
rou@@ 20
sam@@ 20
set 20
si 20
sta@@ 20
syn@@ 20
tan@@ 20
tics 20
time@@ 20
type 20
ure@@ 20
uss 20
xon 20
一夫多妻制 20
一语 20
东北亚 20
东南亚@@ 20
东欧国家 20
丹麦@@ 20
主持会议 20
伸张正义 20
作出努力 20
修正@@ 20
們 20
倩 20
倭 20
克族 20
入学率 20
公正性 20
公私 20
切实@@ 20
刚果民主共和国 20
删去 20
剁 20
加勒@@ 20
匝 20
双重标准 20
受灾@@ 20
叙利亚@@ 20
合作项目 20
咨询机构 20
哨所 20
哺 20
嗷@@ 20
噙 20
国境 20
圭 20
埂 20
外展 20
夯@@ 20
奠 20
好的@@ 20
如何@@ 20
娆 20
寄养 20
小额贷款 20
就此@@ 20
巴厘 20
并进 20
应使 20
形成@@ 20
忸@@ 20
忿 20
总结@@ 20
总而言之 20
惠及 20
扫盲 20
指认 20
捋 20
捎 20
掸@@ 20
撷@@ 20
擤 20
收款 20
政治权利 20
教育领域 20
文盲率 20
文职 20
方对 20
方括号 20
方框 20
明文规定 20
更多 20
服兵役 20
柬埔寨@@ 20
栉@@ 20
核技术 20
桓 20
概览 20
榔@@ 20
檀 20
檫 20
民间组织 20
氚 20
淘 20
潸@@ 20
炳@@ 20
特别法庭 20
犀 20
狸@@ 20
猾@@ 20
现况 20
璇 20
生活水准 20
皓@@ 20
监察@@ 20
睾 20
社会工作 20
秩序@@ 20
程度@@ 20
第三节 20
第三阶段 20
第八条 20
第六章 20
第十二@@ 20
第四节 20
终了 20
绥@@ 20
绰 20
缰 20
羟 20
聆@@ 20
职业培训 20
联运 20
胁 20
胯@@ 20
胼@@ 20
能力@@ 20
腋 20
自由贸易区 20
荒漠化 20
莪 20
葆 20
藕 20
虞 20
蛔@@ 20
螯@@ 20
表决权 20
衩 20
裱 20
警卫@@ 20
调查小组 20
赃 20
越界 20
蹿 20
轼 20
辆@@ 20
进攻@@ 20
违规@@ 20
酌@@ 20
金融交易 20
钧 20
锒@@ 20
锲@@ 20
阄 20
阿拉伯联合酋长国 20
非法活动 20
领海 20
飙@@ 20
餮 20
香港特别行政区 20
鬓 20
鲑 20
鳐 20
鸳@@ 20
鹜 20
黎巴嫩@@ 20
黑山 20
鼬@@ 20
0.2 19
0.3 19
0.8 19
122 19
155 19
1907 19
3.2 19
Asi@@ 19
Bay@@ 19
CL 19
CN 19
Cat@@ 19
City 19
Cook 19
Council 19
Day 19
GR@@ 19
Gre@@ 19
IDS 19
Indi@@ 19
Kal@@ 19
Kh@@ 19
Ki@@ 19
LM 19
Las@@ 19
Les@@ 19
Loc@@ 19
Morgan 19
PRO@@ 19
Phot@@ 19
Pra@@ 19
Rock 19
STA@@ 19
Sand@@ 19
School 19
Sher@@ 19
Soci@@ 19
TRA@@ 19
Text 19
ally 19
are 19
aren@@ 19
ax@@ 19
ella 19
ens 19
eption 19
fon@@ 19
gr@@ 19
hn 19
ho 19
inger 19
isi@@ 19
ita 19
jo@@ 19
kins 19
lib@@ 19
line 19
ogo 19
pet 19
place@@ 19
ple 19
ston 19
tube 19
ur 19
vo@@ 19
win 19
α 19
θ 19
下落不明 19
专题讨论 19
中东@@ 19
之三 19
乞 19
二零零@@ 19
五年@@ 19
任用 19
伊斯兰共和国 19
依赖@@ 19
侧重点 19
俑@@ 19
倌 19
倘 19
偌@@ 19
傍 19
全境 19
全球战略 19
内所 19
内部事务 19
军事化 19
军用@@ 19
军警 19
准予 19
列示 19
初审 19
删 19
匡@@ 19
南奥塞梯 19
厄尔尼诺 19
原籍 19
古巴政府 19
各个部门 19
合法权利 19
呎 19
唑@@ 19
喹@@ 19
嗽@@ 19
嘭 19
地方法院 19
垣@@ 19
基金@@ 19
多米尼加共和国 19
太平洋@@ 19
妞@@ 19
孚@@ 19
孱@@ 19
宣告@@ 19
导弹@@ 19
小时@@ 19
尧 19
履行义务 19
常务@@ 19
彤@@ 19
怅@@ 19
怆 19
恃 19
战略规划 19
戮 19
房舍 19
扉@@ 19
捎@@ 19
方法@@ 19
施加@@ 19
施政 19
核不扩散 19
检察机关 19
森林资源 19
槭 19
母婴 19
氖 19
氘 19
氪 19
沐 19
法特 19
洩 19
活动分子 19
派往 19
流落 19
滥用权力 19
独立宣言 19
玳@@ 19
瓦纳 19
疝@@ 19
癔@@ 19
直辖市 19
知名人士 19
硝 19
碾 19
禀 19
第十八条 19
第十六条 19
经济制裁 19
综 19
缅甸@@ 19
联合行动 19
胝 19
膳@@ 19
药品@@ 19
菇@@ 19
萘 19
营利 19
蒙特雷 19
蔫 19
蕈 19
蚱 19
蛰 19
行政助理 19
表示遗憾 19
袂 19
警告@@ 19
跨部门 19
蹿@@ 19
过渡时期 19
迪瓦 19
退休@@ 19
遛 19
遵 19
鄱@@ 19
钯 19
铍 19
铤@@ 19
镊 19
阿卜杜勒 19
除名 19
难民署 19
高加@@ 19
高级法院 19
鲈 19
鹪@@ 19
鹿特丹 19
.3 18
106 18
2.7 18
226 18
3.0 18
33@@ 18
8.5 18
AIDS 18
ALL 18
Air 18
Bak@@ 18
Chi@@ 18
Coc@@ 18
Dal@@ 18
Dep@@ 18
Dig@@ 18
Dor@@ 18
Dun@@ 18
EN 18
FR@@ 18
G8 18
GO@@ 18
HA@@ 18
IMS 18
IPS 18
ISS 18
Inst@@ 18
KE@@ 18
KO@@ 18
LB 18
Med@@ 18
Mus@@ 18
ND@@ 18
OECD 18
Pac@@ 18
Ren@@ 18
SF@@ 18
SLA 18
Shin@@ 18
Simon 18
Spo@@ 18
TI 18
Tem@@ 18
Tom 18
Top@@ 18
Tre@@ 18
WAS 18
WHO 18
Wik@@ 18
XL@@ 18
box@@ 18
br@@ 18
cen@@ 18
class 18
code 18
develop@@ 18
eb@@ 18
end 18
equ@@ 18
ez@@ 18
fig@@ 18
html 18
kit 18
li 18
olog@@ 18
oo 18
part 18
rier 18
ser 18
sis 18
sol@@ 18
space 18
start 18
thi@@ 18
urit@@ 18
val 18
ver 18
web@@ 18
well 18
www 18
zi@@ 18
个人身份 18
中外@@ 18
之害 18
乌兹别@@ 18
二烯 18
亚哥 18
但应 18
俄文 18
保留意见 18
俸 18
個 18
公正@@ 18
册子 18
划拨 18
剌 18
劳工部 18
十分重视 18
卜拉@@ 18
同侪 18
咚@@ 18
咝@@ 18
啷 18
喀土穆 18
喏 18
嘹@@ 18
噜@@ 18
图里 18
圭亚那 18
坎昆 18
声援 18
多国 18
大会堂 18
学前@@ 18
实施@@ 18
宪兵 18
密集@@ 18
对受 18
导言 18
届@@ 18
峨@@ 18
幺 18
庚 18
徇@@ 18
得到@@ 18
房地 18
拄 18
拟订 18
持久和平 18
摒@@ 18
擅 18
政务 18
日内瓦@@ 18
杭 18
棠 18
椽 18
榛 18
榫 18
正规@@ 18
殖民化 18
氰 18
汤加 18
沽 18
法律援助 18
泛美 18
浒@@ 18
海洋法 18
淆@@ 18
渍@@ 18
溥@@ 18
炊 18
炽 18
焕 18
环境保护@@ 18
痞@@ 18
瘘管 18
百慕@@ 18
的一@@ 18
盃 18
着眼@@ 18
睑@@ 18
睿 18
砒@@ 18
秘鲁@@ 18
积极行动 18
稃 18
稼@@ 18
空间数据 18
第十五条 18
筵 18
篙 18
糅@@ 18
结案 18
结论性 18
维护者 18
翳 18
职业病 18
联大 18
胛 18
胥@@ 18
胧@@ 18
自由权 18
芩 18
茏 18
荀@@ 18
莱索托 18
萨摩亚 18
葡 18
董事@@ 18
藜@@ 18
蘸@@ 18
蛆@@ 18
蜀 18
见表 18
该款 18
谗@@ 18
谛@@ 18
豔 18
踵 18
辐 18
过去@@ 18
遴选 18
镂 18
防止@@ 18
防灾 18
阿尔巴@@ 18
阿布哈兹 18
阿比让 18
陌 18
隔离墙 18
项下 18
预支 18
预测性 18
飑 18
髌@@ 18
鲤 18
鳍@@ 18
鹏@@ 18
黔@@ 18
黝 18
0.7 17
10.@@ 17
13.@@ 17
131 17
256 17
290 17
340 17
420 17
By@@ 17
Case 17
Code 17
College 17
Control 17
Cr@@ 17
Cu@@ 17
Energy 17
England 17
Far@@ 17
Foundation 17
Gall@@ 17
Green 17
HF 17
Hon@@ 17
How@@ 17
Hum@@ 17
Inf@@ 17
Jones 17
Len@@ 17
Model 17
Mos@@ 17
NT@@ 17
News 17
One 17
PF 17
PK@@ 17
Party 17
Pier@@ 17
Pri@@ 17
Projec@@ 17
RO 17
Tan@@ 17
Type 17
WE@@ 17
WP@@ 17
ada 17
alog 17
ance 17
any 17
ao 17
app@@ 17
ater@@ 17
ates 17
bin 17
bit 17
bury 17
color 17
cop@@ 17
des 17
des@@ 17
din 17
dr@@ 17
dum@@ 17
edic@@ 17
ek@@ 17
elle 17
era 17
false 17
gs 17
head@@ 17
ian 17
ics 17
itt@@ 17
itz 17
key 17
light 17
lim@@ 17
lis 17
load 17
main 17
mat@@ 17
mid@@ 17
more 17
ob 17
ola 17
ough 17
pris@@ 17
sen@@ 17
shop 17
tus 17
uro@@ 17
vel@@ 17
view 17
ze 17
γ 17
〞 17
一夫多@@ 17
三届 17
主席团 17
之日 17
人于 17
会议厅 17
例外情况 17
供应品 17
保护法 17
保障制度 17
信息管理系统 17
俺@@ 17
倏@@ 17
倩@@ 17
僚@@ 17
公共秩序 17
公共行政 17
公营 17
凇 17
减损 17
出生日期 17
判罪 17
办公厅 17
加勒比地区 17
卫生部长 17
印发 17
危地@@ 17
卷宗 17
卿@@ 17
各点 17
各自@@ 17
哈根 17
哔@@ 17
唉@@ 17
喱@@ 17
嗥@@ 17
噤@@ 17
国际收支 17
垢@@ 17
城乡@@ 17
填补@@ 17
妍 17
娶@@ 17
宣传材料 17
富有成果 17
小组讨论 17
就此结束 17
尼日@@ 17
局局长 17
岑 17
帮助@@ 17
平等权利 17
应负 17
庶 17
总的@@ 17
恻@@ 17
愠@@ 17
担保@@ 17
拚@@ 17
招标@@ 17
拨出 17
撤销@@ 17
旅费 17
时至 17
暨@@ 17
暹@@ 17
會 17
月间 17
未作 17
构成犯罪 17
格达 17
桁 17
检察院 17
棂 17
楂@@ 17
比索 17
民族团结 17
汩 17
汩@@ 17
法文 17
淇 17
炬@@ 17
燎 17
特区@@ 17
特殊教育 17
犒@@ 17
璧 17
瓦利 17
甬@@ 17
瘿 17
直布罗@@ 17
相互信任 17
眈 17
眈@@ 17
瞩 17
禄@@ 17
禺 17
移民法 17
稔 17
窖@@ 17
第一期 17
管理信息系统 17
管理处 17
粽@@ 17
糗 17
紧急措施 17
给予@@ 17
缅 17
羰@@ 17
耙@@ 17
职工@@ 17
联合声明 17
肼 17
脍@@ 17
腐败@@ 17
臻 17
艾哈迈@@ 17
芡 17
芮@@ 17
荤 17
菖@@ 17
藿@@ 17
虞@@ 17
蚝 17
蝗 17
蠡 17
行为能力 17
警务人员 17
讼 17
识字率 17
诘@@ 17
调查组 17
调解@@ 17
谏 17
豉 17
赋权 17
趔@@ 17
跋 17
跚@@ 17
辕@@ 17
近东 17
迫击炮弹 17
追究责任 17
逍遥@@ 17
逞@@ 17
酋长国 17
酐@@ 17
重大贡献 17
金伯利 17
钜 17
铢 17
镗 17
镰 17
问责制 17
阜@@ 17
阿拉伯文 17
隔离区 17
雉 17
靛 17
顽 17
颏 17
高级专员 17
鲎 17
鲷 17
鲽 17
鳌 17
147 16
185 16
212 16
301 16
36@@ 16
58@@ 16
AG@@ 16
Alber@@ 16
Ann@@ 16
Arm@@ 16
Association 16
Briti@@ 16
Bul@@ 16
Dem@@ 16
Docu@@ 16
FIR 16
Fel@@ 16
Fer@@ 16
Four@@ 16
Good@@ 16
Gor@@ 16
Haw@@ 16
House 16
Intel@@ 16
International 16
Jack 16
Jar@@ 16
Medi@@ 16
Mik@@ 16
Mod@@ 16
Nag@@ 16
OB@@ 16
Objec@@ 16
Om@@ 16
Panel 16
Power 16
Quick@@ 16
Raj@@ 16
Ran@@ 16
Ray@@ 16
Research 16
Rev@@ 16
Sci@@ 16
Security 16
Sir@@ 16
Stock@@ 16
Stra@@ 16
Street 16
Toy@@ 16
Tro@@ 16
WA 16
WM@@ 16
Wall@@ 16
ae 16
air 16
als 16
ase 16
ball 16
bo 16
bra@@ 16
char@@ 16
check@@ 16
cul@@ 16
dig@@ 16
don@@ 16
down 16
each 16
ear 16
elec@@ 16
ette 16
ex 16
ez 16
file 16
for 16
ful@@ 16
gh 16
how 16
imp@@ 16
lick 16
loo@@ 16
ms 16
nie 16
ny 16
oto 16
plot 16
pon@@ 16
rent 16
rop@@ 16
script 16
so 16
stal@@ 16
string 16
stub 16
tem@@ 16
ten 16
thy 16
under@@ 16
value 16
wan 16
wer 16
wh@@ 16
with@@ 16
wood 16
ynam@@ 16
ω 16
专门知识 16
主持@@ 16
人居 16
优势@@ 16
侵权@@ 16
俪 16
军用飞机 16
减除 16
利率@@ 16
劫持@@ 16
劳工@@ 16
劳工市场 16
历次 16
受损害 16
吉尔吉@@ 16
呗 16
咩@@ 16
哈马 16
哌 16
唏@@ 16
唰 16
啧 16
噩 16
噶 16
四氯化碳 16
囫@@ 16
国务@@ 16
在押 16
坷@@ 16
型飞机 16
塬 16
增补 16
多哥 16
大区 16
委员@@ 16
姗 16
娣 16
婷@@ 16
安卡拉 16
安提@@ 16
宕 16
宣布@@ 16
工作进展 16
巳 16
巴博 16
年度预算 16
应于 16
开发署 16
开幕@@ 16
征募 16
征求意见 16
悌 16
愆 16
愕@@ 16
所在国 16
所订 16
技术开发 16
抿@@ 16
捶 16
撵 16
收益@@ 16
暴力行动 16
本项 16
柞@@ 16
楷 16
榉@@ 16
歼 16
殓 16
沙特@@ 16
波里 16
泯 16
滂@@ 16
澈@@ 16
焗 16
煌@@ 16
父母@@ 16
特设 16
犯罪人 16
玺 16
琶@@ 16
璐 16
畦 16
畴 16
痍 16
登记册 16
登载 16
瞳 16
矶 16
磕 16
私人资本 16
第一百@@ 16
第二十@@ 16
筐@@ 16
管制@@ 16
管理部 16
箫 16
粱@@ 16
索偿 16
纾@@ 16
组在 16
罗德里格斯 16
耦@@ 16
脖 16
芸 16
范围@@ 16
蔑@@ 16
议会@@ 16
议定 16
许可@@ 16
讹 16
诛@@ 16
诨 16
诮 16
诿 16
豇@@ 16
赅 16
蹙 16
辍 16
达喀尔 16
进入@@ 16
這@@ 16
邯@@ 16
醌 16
金融体制 16
钇 16
锆@@ 16
阿尔及尔 16
附注 16
陲 16
靓 16
饨 16
骺 16
鲟 16
鸢@@ 16
鸬@@ 16
鹚 16
龇@@ 16
0.4 15
114 15
123 15
132 15
141 15
156 15
1889 15
19.@@ 15
198 15
2017 15
2025 15
206 15
2100 15
29@@ 15
310 15
390 15
480 15
48@@ 15
500@@ 15
Agency 15
Ah@@ 15
Ari@@ 15
BE@@ 15
Bat@@ 15
Bir@@ 15
Bob 15
Chu@@ 15
Commun@@ 15
DG@@ 15
Data 15
David 15
Donald 15
Eli@@ 15
FOR@@ 15
Fa@@ 15
Fran@@ 15
Fund 15
Go 15
Hil@@ 15
IPCC 15
Institute 15
Ir@@ 15
Is 15
Ja@@ 15
Kan@@ 15
Kel@@ 15
LIS@@ 15
Leon@@ 15
Lind@@ 15
Mak@@ 15
Me 15
Met@@ 15
Oli@@ 15
Oper@@ 15
Park 15
Rad@@ 15
Rock@@ 15
SG 15
Sit@@ 15
Source 15
Spe@@ 15
Spec@@ 15
Sta@@ 15
TER 15
UD@@ 15
UP 15
Wilson 15
abe@@ 15
acy 15
ado 15
aki 15
ams 15
ange 15
assi@@ 15
back@@ 15
bor@@ 15
bs 15
bur@@ 15
di 15
ding 15
dra@@ 15
ea@@ 15
eck 15
ers@@ 15
flo@@ 15
gan@@ 15
gn@@ 15
gro@@ 15
ings 15
ji 15
ji@@ 15
lan 15
low 15
mem@@ 15
min 15
no 15
pa 15
place 15
read@@ 15
ree 15
run@@ 15
sand@@ 15
sel 15
sion 15
size 15
stan@@ 15
star@@ 15
tal@@ 15
test 15
tribute 15
va 15
var@@ 15
ym@@ 15
中亚@@ 15
争取@@ 15
人人平等 15
人发 15
人身自由 15
仃 15
以利于 15
以色列@@ 15
伯利 15
伺 15
侗@@ 15
俞@@ 15
修订版 15
俳@@ 15
倪@@ 15
偃@@ 15
儆@@ 15
八国集团 15
八次 15
兰政府 15
分项 15
刑事犯罪 15
创始@@ 15
创收 15
初等 15
剿@@ 15
加元 15
加迪@@ 15
匐@@ 15
区域合作 15
协作@@ 15
协力 15
卢西亚 15
危险废物 15
及时性 15
受让人 15
各派 15
合实际 15
同等@@ 15
哌@@ 15
哚 15
啕 15
啮 15
嗔 15
噎@@ 15
囧 15
坚定@@ 15
壹 15
处处长 15
多数票 15
多氯联苯 15
大量@@ 15
如上 15
妲 15
嫉 15
孤 15
安全法 15
审计工作 15
岱 15
常任理事 15
常务委员会 15
庚@@ 15
康复@@ 15
建制 15
建立@@ 15
弃权票 15
循证 15
必要措施 15
怔@@ 15
愎@@ 15
戊 15
成人教育 15
或经 15
捐助国 15
揩 15
摺@@ 15
支助 15
政令 15
政策@@ 15
政策性 15
晌 15
曝 15
服务处 15
未付 15
桓@@ 15
梢@@ 15
樽 15
正式@@ 15
毛里求斯 15
民主选举 15
沏 15
波罗@@ 15
浓缩@@ 15
浜 15
涓 15
涟 15
渎 15
特遣队 15
狞@@ 15
猖@@ 15
环境监测 15
瑶 15
男女之间 15
痫@@ 15
瘴@@ 15
皓 15
砚@@ 15
碁 15
祠@@ 15
离境 15
私法 15
积极支持 15
立即@@ 15
第十三 15
管辖区 15
箨 15
籁@@ 15
粳@@ 15
纨@@ 15
纰@@ 15
组织协调 15
绉@@ 15
绶@@ 15
缚@@ 15
羹@@ 15
职权范围 15
胍 15
胥 15
腓 15
自备 15
艏 15
艮 15
芮 15
苄 15
苏丹政府 15
苓 15
荞 15
菁@@ 15
萘@@ 15
蓉@@ 15
蛹@@ 15
蜕 15
裆@@ 15
裟 15
裴 15
视频会议 15
解放运动 15
评注 15
诉讼法 15
诳@@ 15
谙@@ 15
贫困线 15
资助@@ 15
赫尔辛基 15
跨界 15
蹙@@ 15
蹭@@ 15
辊@@ 15
鑫@@ 15
钕 15
铵@@ 15
闭门 15
闰@@ 15
阡@@ 15
阿鲁@@ 15
靼 15
飕@@ 15
飚 15
馄@@ 15
马丁内斯 15
骄 15
骡 15
鲣@@ 15
鳝 15
鳟 15
鸮 15
鸯 15
鸸@@ 15
鹋 15
麟@@ 15
龚 15
1.9 14
129 14
136 14
168 14
192 14
2.8 14
205 14
3.1 14
3.6 14
3.8 14
325 14
44@@ 14
6.3 14
99.@@ 14
Arn@@ 14
Bag@@ 14
CAP 14
CAS 14
CCP 14
CPR 14
Chr@@ 14
Controller 14
Custom@@ 14
Dan 14
Doc@@ 14
ESA 14
Execu@@ 14
Ford 14
Frank 14
Gam@@ 14
Gaz@@ 14
High@@ 14
Home 14
IFF 14
Ig@@ 14
Jud@@ 14
Kim 14
Manag@@ 14
Medic@@ 14
Mis@@ 14
Mobil@@ 14
NPC 14
Net 14
OC 14
PAR@@ 14
Pass@@ 14
Pel@@ 14
Project 14
RM@@ 14
Rap@@ 14
River 14
Squ@@ 14
Sur@@ 14
TT 14
Tig@@ 14
Tod@@ 14
Vel@@ 14
Vin@@ 14
Vlad@@ 14
Ye@@ 14
Young 14
af 14
ala 14
ask@@ 14
ast 14
atic@@ 14
bar 14
cor@@ 14
day 14
ele@@ 14
eller 14
enc@@ 14
ere 14
esh@@ 14
fra@@ 14
hom@@ 14
ht@@ 14
ik 14
ili@@ 14
imple@@ 14
inter@@ 14
ito 14
ki@@ 14
king 14
king@@ 14
mal@@ 14
mes 14
nan 14
onn@@ 14
ool 14
ori@@ 14
ose 14
ote 14
oud 14
ox@@ 14
pan@@ 14
ped@@ 14
pin 14
pp@@ 14
put 14
rup@@ 14
san@@ 14
spec@@ 14
su 14
tain@@ 14
tered 14
title 14
uk 14
yle 14
× 14
μ 14
与会代表 14
主管人员 14
从来@@ 14
代办 14
伯利兹 14
佢 14
信息网络 14
修改@@ 14
充分就业 14
全面性 14
关岛 14
具有@@ 14
凫 14
刑事诉讼法 14
列于 14
加大力度 14
加班@@ 14
加班费 14
劳资@@ 14
单位@@ 14
发言稿 14
叵@@ 14
各政党 14
啜 14
囿@@ 14
土库@@ 14
圣地@@ 14
圬 14
增效 14
处罚@@ 14
外空 14
婢 14
安全形势 14
定期存款 14
审计@@ 14
寮 14
尔德@@ 14
屎@@ 14
屐 14
岚 14
岬@@ 14
岱@@ 14
崴 14
巴基@@ 14
巴库 14
市政当局 14
幷 14
彻底消除 14
惚@@ 14
意识@@ 14
战斗人员 14
投入@@ 14
拗@@ 14
捱@@ 14
文化部 14
无记名 14
曜@@ 14
权利@@ 14
杓 14
枞@@ 14
柬@@ 14
核定 14
格勒@@ 14
格鲁吉@@ 14
椽@@ 14
樟 14
氙@@ 14
氟化 14
汞@@ 14
汰 14
沛@@ 14
法学家 14
洩@@ 14
淬 14
淼 14
清偿债务 14
渔获 14
渚 14
澳门特别行政区 14
濑@@ 14
琏 14
疥@@ 14
痞 14
眷 14
矽 14
秩 14
穆斯@@ 14
笠 14
第三十条 14
第二十五条 14
第二十六条 14
第十二条 14
箩@@ 14
结余 14
结清 14
肱 14
胬@@ 14
腴 14
舢@@ 14
苏丹@@ 14
若干次 14
莘@@ 14
莞@@ 14
莳@@ 14
葩 14
蜣@@ 14
螅 14
袈@@ 14
西藏@@ 14
觐@@ 14
讫 14
议事 14
记名 14
讲习班 14
该段 14
该股 14
详见 14
诶 14
货币基金 14
贫困率 14
贸易中心 14
趄 14
越境 14
转用 14
运载工具 14
迢 14
迢@@ 14
适用法律 14
遑@@ 14
遵守@@ 14
铆 14
铱 14
锭@@ 14
镗@@ 14
镯@@ 14
附表 14
陇@@ 14
隅@@ 14
霏 14
项中 14
饷 14
馋 14
髅@@ 14
鲢@@ 14
鹂 14
鹳@@ 14
﹔ 14
0.0@@ 13
109 13
121 13
139 13
146 13
154 13
188 13
1925 13
264 13
275 13
3.4 13
300@@ 13
440 13
89@@ 13
9.7 13
APEC 13
Abdul@@ 13
Amaz@@ 13
Bad@@ 13
Board 13
CER@@ 13
Cel@@ 13
Cho@@ 13
Colum@@ 13
Control@@ 13
Corporation 13
Dev@@ 13
Dim@@ 13
Dre@@ 13
Dro@@ 13
ERS 13
EX 13
Ele@@ 13
Emil@@ 13
FIFA 13
Fis@@ 13
Fred@@ 13
Fun@@ 13
GH@@ 13
Global 13
Gul@@ 13
H.@@ 13
Head@@ 13
INE 13
ION 13
Iv@@ 13
Jacqu@@ 13
Kenne@@ 13
Kennedy 13
Khan 13
Ky@@ 13
Lam@@ 13
MF@@ 13
Map@@ 13
McC@@ 13
Meh@@ 13
Men@@ 13
Mol@@ 13
OF 13
Of@@ 13
Ox@@ 13
Pas@@ 13
Pon@@ 13
Rain@@ 13
Repe@@ 13
River@@ 13
Run@@ 13
Scott 13
Securities 13
Sheik@@ 13
Start 13
Super@@ 13
Table 13
Time 13
True 13
Up 13
Ve@@ 13
Wid@@ 13
XX@@ 13
aff@@ 13
aj@@ 13
aliz@@ 13
alog@@ 13
aly@@ 13
ana@@ 13
ane 13
ault 13
bank 13
body 13
bot@@ 13
bul@@ 13
cape 13
cas@@ 13
case 13
che 13
ech 13
emb@@ 13
ena 13
eni@@ 13
ess 13
ev 13
ever@@ 13
fa@@ 13
fol@@ 13
ico 13
ide 13
ign@@ 13
ind 13
index 13
ju@@ 13
lat@@ 13
lip@@ 13
lot@@ 13
mag@@ 13
mus@@ 13
oc 13
ond@@ 13
oni 13
ph 13
play 13
point 13
rap@@ 13
rem@@ 13
ression 13
rey 13
rid 13
row 13
spr@@ 13
ss 13
sson 13
ties 13
til 13
tim@@ 13
tis 13
tric@@ 13
tro 13
try 13
tup 13
uma 13
umb@@ 13
user 13
vin@@ 13
vo 13
ward 13
you@@ 13
→ 13
一百零@@ 13
世界贸易@@ 13
为限 13
书记@@ 13
事务处 13
事务局 13
事务部 13
以下@@ 13
会期 13
依法追究 13
俄罗斯联邦 13
僮 13
全面实施 13
冗 13
军事装备 13
劫持人质 13
劳工法 13
卡扎@@ 13
卫星通信 13
印件 13
厦 13
厮 13
可用@@ 13
同期@@ 13
向本 13
吲@@ 13
呛@@ 13
咖 13
咿@@ 13
嗣@@ 13
嗤 13
国别 13
国务 13
土耳其政府 13
地理信息系统 13
址@@ 13
埃塞@@ 13
奢 13
孜 13
孰 13
安曼 13
寅@@ 13
尔群岛 13
岷@@ 13
已获 13
巴勒斯坦@@ 13
巴塞罗@@ 13
巴西政府 13
常任 13
幡 13
年度@@ 13
庵 13
开列 13
开曼群岛 13
弹道@@ 13
怏@@ 13
怩 13
恸@@ 13
戕@@ 13
所载 13
所附 13
扳 13
持有@@ 13
挪威政府 13
掮@@ 13
敌对行动 13
斯威士兰 13
无线电台 13
日增 13
昭 13
曜 13
曳@@ 13
有辱 13
权力下放 13
条中 13
栀@@ 13
栎@@ 13
核武库 13
楠@@ 13
榭 13
欧洲理事会 13
此机会 13
殇 13
殡 13
殷 13
毁灭@@ 13
毛利@@ 13
沁 13
波黑 13
泮 13
泱@@ 13
海事@@ 13
濯 13
炯 13
玫 13
电子政务 13
皲@@ 13
直属 13
相比@@ 13
睛@@ 13
瞭 13
碇 13
福克兰群岛 13
笏 13
笙 13
结转 13
缢@@ 13
缦 13
罄 13
翎@@ 13
脆弱@@ 13
腘 13
茗 13
莨@@ 13
蒐@@ 13
藩 13
蚋 13
蛐@@ 13
蜉@@ 13
行使@@ 13
衙@@ 13
补充性 13
西班牙文 13
觐 13
說 13
警察部队 13
调入 13
调拨 13
谚 13
责任人 13
责成 13
贫困者 13
辰@@ 13
递延 13
重新部署 13
钋 13
铟 13
镧 13
阿齐兹 13
难民@@ 13
需求@@ 13
霆@@ 13
颁布@@ 13
鲵 13
鳃@@ 13
鳅 13
鸫 13
麻醉品 13
龈@@ 13
﹖ 13
000@@ 12
12.5 12
126 12
133 12
142 12
149 12
152 12
161 12
221 12
235 12
38@@ 12
4.4 12
640 12
69@@ 12
7.6 12
7.8 12
75@@ 12
776 12
8.6 12
America 12
Ara@@ 12
Arch@@ 12
Bran@@ 12
Carol@@ 12
China 12
Company 12
Compu@@ 12
Cul@@ 12
DH 12
DIS@@ 12
Dam@@ 12
Des@@ 12
Dom@@ 12
Dur@@ 12
Eliz@@ 12
Employ@@ 12
Eric 12
Fab@@ 12
Fir@@ 12
Fire 12
Flu@@ 12
Fol@@ 12
Fr@@ 12
GO 12
Ga@@ 12
Gene@@ 12
Grant 12
HI 12
HO 12
Has@@ 12
Hop@@ 12
Human@@ 12
ICC 12
ICP 12
Invest@@ 12
Japan 12
Ji@@ 12
Joe 12
KS 12
Kur@@ 12
Li 12
MAR@@ 12
Mill@@ 12
Mir@@ 12
Mun@@ 12
Nav@@ 12
Nik@@ 12
ORGANIZ@@ 12
PAC 12
Part@@ 12
Pin@@ 12
Plan@@ 12
Process 12
Proper@@ 12
Radi@@ 12
Recor@@ 12
Resear@@ 12
SPF 12
Sach@@ 12
Sof@@ 12
Sum@@ 12
Techn@@ 12
UNC@@ 12
Us@@ 12
Vir@@ 12
WA@@ 12
Well@@ 12
act@@ 12
ago@@ 12
ales 12
ami 12
asa 12
bec@@ 12
bert 12
bin@@ 12
bol@@ 12
bri@@ 12
cer@@ 12
client 12
data 12
derson 12
doc@@ 12
dog 12
ec 12
ello 12
eme@@ 12
ence@@ 12
esh 12
foot@@ 12
form 12
fu@@ 12
gar@@ 12
garet@@ 12
gra@@ 12
hor@@ 12
house 12
ific@@ 12
ime 12
ines 12
ins@@ 12
ira 12
isten@@ 12
ization 12
jure 12
kets 12
kh@@ 12
km 12
lier 12
lor@@ 12
make 12
mat 12
mit@@ 12
mond 12
mun@@ 12
nel 12
ni 12
non@@ 12
object 12
orum 12
ova 12
post@@ 12
pr@@ 12
rac@@ 12
ram@@ 12
ran 12
ri 12
schem@@ 12
sed 12
server 12
sin@@ 12
sis@@ 12
squ@@ 12
star 12
ste@@ 12
store 12
sy 12
tec@@ 12
tit@@ 12
ubl@@ 12
uk@@ 12
ule 12
windows 12
ws 12
you 12
∶ 12
一体@@ 12
不会@@ 12
专业培训 12
东耶路撒冷 12
主义@@ 12
主任@@ 12
予以考虑 12
交流信息 12
人人@@ 12
人权@@ 12
你们@@ 12
供应国 12
俐@@ 12
倔 12
入账 12
军控 12
农业部门 12
列支敦士登 12
制度@@ 12
剜 12
参谋@@ 12
反倾@@ 12
叩 12
各项任务 12
同日 12
咎@@ 12
啰@@ 12
嗷 12
嘣 12
回答@@ 12
固体废物 12
国家计划 12
国民大会 12
国民议会 12
国防军 12
埔@@ 12
堇 12
堕 12
夙@@ 12
多国部队 12
央 12
姣@@ 12
娴 12
娼 12
孽@@ 12
安第斯 12
审计报告 12
宸 12
寓 12
屹 12
峪@@ 12
崂@@ 12
工商企业 12
巧克@@ 12
布隆迪 12
希亚 12
当事方 12
忑 12
怏 12
性健康 12
拨给 12
挲 12
据报 12
掂 12
掇 12
教育权 12
旖@@ 12
无异议 12
晌@@ 12
晷 12
核心作用 12
梓 12
森特 12
榫@@ 12
槛 12
槿 12
殒@@ 12
每季度 12
氖@@ 12
氟碳 12
沱 12
泗@@ 12
泸@@ 12
浙 12
涉及@@ 12
淌@@ 12
潴@@ 12
灾难@@ 12
焓 12
牍 12
特别强调 12
特派 12
环卫 12
理事@@ 12
瑶@@ 12
瓤 12
甄选 12
生物武器 12
畲@@ 12
疟 12
皖@@ 12
监察员 12
私营@@ 12
科尔多@@ 12
科特@@ 12
程序法 12
稷 12
第三十一条 12
第二十一条 12
第四届 12
管理费用 12
箴 12
红十字 12
纳税@@ 12
维护和平 12
罔 12
羌@@ 12
翟@@ 12
职责@@ 12
联席 12
联络处 12
艇@@ 12
艉 12
芎 12
茬@@ 12
荪 12
莆@@ 12
菟@@ 12
蒽@@ 12
蓑@@ 12
藓@@ 12
蝣 12
蠊 12
袁 12
观察站 12
角度@@ 12
誊@@ 12
讷@@ 12
谍 12
豢@@ 12
贝宁 12
贸易法 12
赳@@ 12
足额 12
跖 12
身心@@ 12
轻武器 12
边界地区 12
辽 12
达格 12
遽 12
郝 12
部委 12
部级 12
金沙萨 12
钗 12
钧@@ 12
铒 12
铮 12
锵@@ 12
锺 12
镭@@ 12
闵@@ 12
阈@@ 12
阑 12
阙 12
隶 12
馑 12
马普@@ 12
骐 12
骤 12
魟 12
鳝@@ 12
鸵 12
黒 12
鼩 12
齣 12
﹗ 12
.... 11
143 11
144 11
15.@@ 11
183 11
184 11
194 11
1A 11
207 11
209 11
21@@ 11
2C 11
39@@ 11
4.2 11
4.3 11
4.8 11
400@@ 11
404 11
410 11
470 11
5.6 11
512 11
622 11
7.1 11
737 11
8.8 11
97@@ 11
99@@ 11
AF 11
AU@@ 11
Administration 11
Alex 11
And@@ 11
Anton@@ 11
Aqu@@ 11
Architec@@ 11
Art 11
Arth@@ 11
Av@@ 11
Bash@@ 11
Bau@@ 11
Bol@@ 11
Bom@@ 11
Bou@@ 11
Brit@@ 11
Broad@@ 11
Bud@@ 11
CMP 11
Care@@ 11
Che@@ 11
Cher@@ 11
Chin@@ 11
Christian@@ 11
Conver@@ 11
Cos@@ 11
Cru@@ 11
DDT 11
DEC@@ 11
Depart@@ 11
ESS 11
EST 11
Gabri@@ 11
Gol@@ 11
HK 11
Hann@@ 11
Harv@@ 11
Hat@@ 11
Hear@@ 11
Hur@@ 11
IVE 11
Ind@@ 11
Jim 11
KA 11
Kam@@ 11
Kle@@ 11
Kum@@ 11
Lab@@ 11
Lag@@ 11
Language 11
Leg@@ 11
Lit@@ 11
Lom@@ 11
MN@@ 11
Man 11
Max 11
Merc@@ 11
Monitor 11
Mr 11
Nam@@ 11
Navi@@ 11
Nov@@ 11
Number 11
Page 11
Pla@@ 11
Pres@@ 11
Prof@@ 11
Property 11
Protec@@ 11
Pun@@ 11
Quar@@ 11
RAP 11
Rh@@ 11
SET 11
Sig@@ 11
Tak@@ 11
Target 11
Tat@@ 11
Taylor 11
That@@ 11
Tru@@ 11
Twit@@ 11
User 11
Victor@@ 11
WIT@@ 11
Wa@@ 11
White 11
Wiki@@ 11
William 11
Yu@@ 11
Yuk@@ 11
Zim@@ 11
action 11
ag 11
ager 11
ages 11
agu@@ 11
aire 11
ateway 11
ats 11
avi@@ 11
berry 11
book@@ 11
bre@@ 11
bro@@ 11
che@@ 11
cre@@ 11
del 11
dev 11
dge 11
din@@ 11
edo 11
ene 11
engine 11
ert 11
esse 11
eu@@ 11
fish 11
flu@@ 11
gg@@ 11
he 11
hol@@ 11
ici@@ 11
igh@@ 11
into 11
ipp@@ 11
iqu@@ 11
iti@@ 11
iv 11
je@@ 11
ku@@ 11
lah 11
lec@@ 11
ling@@ 11
lock 11
long@@ 11
mad@@ 11
met@@ 11
mou@@ 11
ning@@ 11
ones@@ 11
oody 11
oros 11
oss 11
ost 11
oul@@ 11
ous 11
oy 11
person@@ 11
post 11
power 11
pp 11
py 11
rak@@ 11
reat@@ 11
rich@@ 11
rot@@ 11
sey 11
sha@@ 11
sia 11
sian 11
sing@@ 11
sor 11
sur@@ 11
system 11
tern 11
tom@@ 11
trac@@ 11
tre@@ 11
uni@@ 11
uration 11
ush@@ 11
verb@@ 11
wart 11
word@@ 11
yo@@ 11
yst@@ 11
下设 11
专员@@ 11
专属经济区 11
中所列 11
互补@@ 11
亚非 11
人口比例 11
仄 11
使团 11
使本 11
供词 11
倏 11
充分反映 11
克什@@ 11
全权@@ 11
全权代表 11
凝聚@@ 11
函件 11
刑法典 11
刚果@@ 11
利雅得 11
匮@@ 11
占领军 11
卫生组织 11
反洗钱 11
吉布提 11
员工@@ 11
和平利用 11
哞 11
啐 11
啭 11
喹 11
在册 11
地理信息 11
坎帕拉 11
垄 11
塞舌尔 11
多式 11
大洋@@ 11
夯 11
嫡@@ 11
孑@@ 11
存者 11
定稿 11
宥 11
对联 11
屠 11
峥@@ 11
差旅费 11
巴巴@@ 11
巴拿@@ 11
布基纳法索 11
带来@@ 11
帷 11
幌 11
应付@@ 11
应急@@ 11
应计 11
应适当 11
徉@@ 11
後@@ 11
忱@@ 11
恺 11
戟@@ 11
所罗门群岛 11
打击犯罪 11
技术培训 11
抗议@@ 11
抠@@ 11
拷 11
掖 11
掴 11
撷 11
擂@@ 11
救护@@ 11
敖@@ 11
昊 11
朕 11
未予 11
札 11
检察@@ 11
樊 11
檗 11
正当程序 11
残疾儿童 11
每届 11
民用航空 11
氤@@ 11
氲 11
沽@@ 11
法律事务 11
涮@@ 11
淳 11
溼@@ 11
炜 11
爲 11
牝@@ 11
獴 11
玖 11
珩@@ 11
璋 11
电子邮箱 11
疖 11
疚@@ 11
癜 11
登记处 11
盅 11
监督机制 11
目标群体 11
着重指出 11
睪 11
睹@@ 11
瞅@@ 11
瞋 11
矜 11
碲 11
磋 11
禹 11
科菲 11
第七次 11
第三十六条 11
第三类 11
第三项 11
第九十@@ 11
第二十三条 11
第二十四条 11
第二十条 11
第二期 11
第十七条 11
第十九条 11
箝@@ 11
簪 11
经济合作与发展组织 11
绔@@ 11
缴款 11
羲 11
肛 11
胳 11
膘 11
自愿性 11
芍@@ 11
茯@@ 11
荚@@ 11
荷兰政府 11
荼@@ 11
葺 11
蔚 11
虏@@ 11
螟 11
行政法 11
裁谈会 11
裱@@ 11
裾 11
讦 11
诘 11
诡 11
该条 11
调解员 11
谔 11
谟@@ 11
谴 11
贯彻落实 11
赁@@ 11
蹉@@ 11
蹬@@ 11
身份证件 11
转送 11
辋 11
辩论@@ 11
迄今已 11
連@@ 11
钼@@ 11
铠 11
锨 11
闫 11
阿勒 11
阿卜@@ 11
非军事区 11
非洲@@ 11
韬 11
预算外 11
颊@@ 11
馋@@ 11
馍 11
髂@@ 11
髯 11
鸢 11
.6 10
0.6 10
138 10
14.@@ 10
163 10
164 10
179 10
182 10
1888 10
199 10
201 10
201@@ 10
202 10
222 10
228 10
255 10
304 10
305 10
316 10
323 10
45@@ 10
460 10
49@@ 10
5.3 10
508 10
509 10
555 10
6.6 10
6.7 10
7.3 10
780 10
79@@ 10
840 10
88@@ 10
9.6 10
9.9 10
Abra@@ 10
Adv@@ 10
Appl@@ 10
Application 10
Asia 10
Ball@@ 10
Bil@@ 10
Bun@@ 10
Cad@@ 10
Cir@@ 10
Citi@@ 10
Club 10
Commerce 10
Cop@@ 10
Day@@ 10
Dri@@ 10
EEC 10
ENT 10
Elec@@ 10
Enterprise 10
Euro@@ 10
Fal@@ 10
Fed@@ 10
Fern@@ 10
Fire@@ 10
Fres@@ 10
Fri@@ 10
Gonz@@ 10
HU@@ 10
Hir@@ 10
Hou@@ 10
Id@@ 10
Institu@@ 10
Island 10
Jane 10
Jay@@ 10
Jaz@@ 10
Jen@@ 10
Jun@@ 10
Key 10
Life 10
Mike 10
Moun@@ 10
NAT@@ 10
NC@@ 10
Nar@@ 10
Now 10
Ow@@ 10
Oz@@ 10
Peter 10
Petro@@ 10
Provi@@ 10
Ps 10
Pul@@ 10
Pur@@ 10
Ras@@ 10
Rel@@ 10
Rep@@ 10
Requ@@ 10
Richard 10
Rico 10
Room 10
Sarah 10
Sav@@ 10
Scheme 10
Science 10
Serge@@ 10
Square 10
Star 10
Stor@@ 10
TH 10
Technologies 10
Tok@@ 10
Trin@@ 10
Trump 10
Trust 10
Up@@ 10
Writ@@ 10
Yan@@ 10
aa 10
acc@@ 10
ald 10
ali 10
alia 10
alls 10
ani@@ 10
anna 10
anne 10
aran@@ 10
aster 10
aus@@ 10
az 10
base 10
bay 10
bay@@ 10
ben@@ 10
bil@@ 10
bon@@ 10
cat@@ 10
cell 10
child 10
chron@@ 10
con 10
cro@@ 10
ded@@ 10
dian 10
dom@@ 10
down@@ 10
dre@@ 10
elli 10
eng 10
enh@@ 10
ential 10
esti@@ 10
estin@@ 10
evel@@ 10
face 10
fix@@ 10
flow 10
fore@@ 10
fun@@ 10
hr 10
http 10
idi 10
insert 10
ion@@ 10
iro 10
isco 10
ism 10
itor 10
kov@@ 10
lad@@ 10
lement 10
ll 10
mil@@ 10
night@@ 10
nik 10
not 10
not@@ 10
oth 10
ove@@ 10
ovo 10
oy@@ 10
pace 10
pe 10
ping 10
plate 10
pri@@ 10
pur 10
pur@@ 10
py@@ 10
real@@ 10
rest 10
rich 10
ries 10
rol@@ 10
seud@@ 10
sil@@ 10
square 10
tabl@@ 10
tel 10
tern@@ 10
tes@@ 10
that 10
tings 10
tis@@ 10
tl@@ 10
toc@@ 10
tribu@@ 10
ude 10
ug 10
ull 10
vi 10
vir@@ 10
ware 10
wee@@ 10
wire 10
works 10
xy 10
ye 10
ye@@ 10
yes 10
é 10
② 10
一览表 10
书记官 10
互动式 10
亚洲开发银行 10
交存 10
伉@@ 10
优惠待遇 10
低于@@ 10
佗 10
佛得角 10
关税@@ 10
冉 10
几届 10
分列 10
分配资源 10
列名 10
判决书 10
利害攸关 10
利政府 10
劵 10
区域间 10
十六届 10
协商会议 10
南非@@ 10
卯@@ 10
厥@@ 10
叁@@ 10
参与性 10
发展局 10
受权 10
叱@@ 10
各项政策 10
各项规定 10
合伙@@ 10
合办 10
同性@@ 10
同意@@ 10
吝 10
咂 10
咭 10
哆 10
喇 10
嗦@@ 10
嘅 10
噌 10
囵 10
圣马力诺 10
在下文 10
垛@@ 10
复议 10
外联 10
多米尼加 10
大会@@ 10
太子@@ 10
失踪@@ 10
奥地@@ 10
女议员 10
如表 10
妨@@ 10
娲 10
存款@@ 10
季度@@ 10
安全区 10
安道尔 10
安非他@@ 10
尊重@@ 10
小儿麻@@ 10
就学 10
尹 10
屿@@ 10
工商界 10
巴巴多斯 10
常委会 10
幄 10
幢@@ 10
庶@@ 10
廖 10
律师协会 10
忪 10
恪@@ 10
憾@@ 10
懵 10
戈兰@@ 10
戈马 10
戍@@ 10
成千上@@ 10
所需 10
执法机关 10
抚恤金 10
挎 10
捺 10
排定 10
掣@@ 10
提高认识 10
揩@@ 10
敕@@ 10
文职人员 10
施暴 10
旌@@ 10
旎 10
時@@ 10
最迟 10
枇@@ 10
架次 10
柬埔寨政府 10
桢 10
桤@@ 10
梆 10
梆@@ 10
椋@@ 10
椿 10
榭@@ 10
武库 10
殚@@ 10
比利亚 10
毽@@ 10
民政 10
民法典 10
氛 10
汐@@ 10
汾 10
沱@@ 10
泓 10
法人@@ 10
法外 10
法律义务 10
法律文书 10
滴滴@@ 10
漳@@ 10
濒 10
濛 10
灭绝@@ 10
烨 10
爿 10
特许@@ 10
环境法 10
理事国 10
璐@@ 10
甑 10
生命权 10
痢 10
痰@@ 10
着重强调 10
睽 10
睽@@ 10
瞑@@ 10
矾@@ 10
碜 10
祯 10
秕 10
稗@@ 10
第七章 10
第三十二条 10
第二十七条 10
第二十八条 10
第五届 10
第八十@@ 10
第六次 10
篆@@ 10
索托 10
细目 10
结婚年龄 10
编列 10
缬@@ 10
罅@@ 10
耆@@ 10
聒@@ 10
联盟@@ 10
胯 10
致函 10
臻@@ 10
舜 10
苋 10
苯丙胺 10
荆 10
荠@@ 10
荤@@ 10
菀 10
菅 10
萋 10
萜 10
萜@@ 10
薛 10
虬@@ 10
蚧 10
蚴 10
表达意见 10
袢 10
订正 10
记录员 10
讴@@ 10
调往 10
调集 10
谕@@ 10
谨此 10
负责@@ 10
贰 10
转折@@ 10
轭@@ 10
轻重缓急 10
辩方 10
迟于 10
部长会议 10
酞 10
酞@@ 10
醣@@ 10
钰@@ 10
铧 10
锇 10
问责@@ 10
隘 10
集会自由 10
非关税壁垒 10
鞅 10
飒 10
馀@@ 10
马科 10
马诺@@ 10
骠@@ 10
骰 10
高专 10
鬟 10
黴@@ 10
.1 9
148 9
151 9
157 9
178 9
1844 9
193 9
204 9
241 9
245 9
250@@ 9
265 9
375 9
37@@ 9
395 9
4.6 9
5.1 9
501 9
528 9
530 9
57@@ 9
580 9
59@@ 9
600@@ 9
63@@ 9
65@@ 9
74@@ 9
Al 9
Ang@@ 9
Anna 9
As 9
Assad 9
Auth@@ 9
Bill 9
Black 9
Bret@@ 9
CDM 9
CLO@@ 9
Centr@@ 9
Cham@@ 9
Chan 9
Chang@@ 9
Committee 9
Date 9
Deut@@ 9
Ear@@ 9
Ec@@ 9
End@@ 9
Et@@ 9
Even@@ 9
Ever@@ 9
FI@@ 9
FIN@@ 9
FROM 9
Flo@@ 9
Form 9
Forum 9
Fron@@ 9
Games 9
General 9
Geo@@ 9
Harry 9
Hello 9
Ho 9
Hus@@ 9
ITY 9
Indu@@ 9
Jer@@ 9
Journal 9
Kol@@ 9
Kr@@ 9
LAS 9
LGBT 9
Lib@@ 9
Lim@@ 9
Line 9
Live 9
London 9
MAN@@ 9
Maj@@ 9
Mandel@@ 9
Mary 9
Maz@@ 9
Moham@@ 9
Nas@@ 9
Neg@@ 9
New 9
Nig@@ 9
Once 9
Online 9
Order 9
Ou@@ 9
POS 9
Partners 9
Patric@@ 9
Pear@@ 9
Pers@@ 9
Pit@@ 9
Plus 9
Pre 9
Price 9
Pro 9
Qual@@ 9
Ref@@ 9
Reu@@ 9
Rid@@ 9
Rud@@ 9
Sam 9
Singh 9
State 9
TU@@ 9
Tar@@ 9
Ther@@ 9
Tony 9
UK 9
UK@@ 9
USA 9
Vil@@ 9
Vit@@ 9
WO@@ 9
Wall 9
Wash@@ 9
Wel@@ 9
West 9
XI 9
add 9
agen@@ 9
agg@@ 9
ais 9
amb@@ 9
anim@@ 9
anner 9
anu@@ 9
ason 9
ated 9
ati 9
ations 9
bal@@ 9
bi 9
borne 9
build 9
burg 9
ca 9
can 9
ches 9
cho@@ 9
chro@@ 9
cle@@ 9
cler@@ 9
create 9
dent 9
die 9
dou@@ 9
ela 9
entity 9
entre@@ 9
ets 9
evi@@ 9
ew@@ 9
fer 9
fire 9
fo 9
force 9
gener@@ 9
gent 9
ges 9
ght@@ 9
guard 9
hal@@ 9
han 9
har 9
high 9
him@@ 9
hyper@@ 9
ide@@ 9
ili 9
iner 9
inf@@ 9
ington 9
ision@@ 9
iti 9
its 9
itz@@ 9
ize 9
ja@@ 9
leg@@ 9
lice 9
lig@@ 9
loy@@ 9
mak@@ 9
master 9
mir@@ 9
mis@@ 9
mon 9
mp@@ 9
mut@@ 9
nam@@ 9
non 9
ology 9
ols 9
ona 9
oni@@ 9
oph@@ 9
own 9
party 9
pay@@ 9
pers 9
pil@@ 9
plan 9
poin@@ 9
polis 9
pot 9
prin@@ 9
rence 9
rest@@ 9
sche 9
service 9
ses 9
show 9
sight 9
sl@@ 9
span 9
spo@@ 9
stance 9
stra@@ 9
stro 9
strong 9
sym@@ 9
tail@@ 9
tex 9
thou@@ 9
tionary 9
tive 9
tle 9
town 9
tra 9
tran@@ 9
ua 9
und 9
ush 9
vic 9
vis 9
wal@@ 9
while 9
wind 9
wind@@ 9
wood@@ 9
work 9
yo 9
〖 9
〗 9
〝 9
一连@@ 9
丁斯 9
下向 9
不用@@ 9
之急 9
亚的斯亚贝巴 9
人民共和国 9
伙伴@@ 9
佑@@ 9
便利化 9
俟 9
信仰自由 9
傧@@ 9
克罗地@@ 9
公共信息 9
公法 9
关税壁垒 9
具体步骤 9
内务部 9
写信@@ 9
农村妇女 9
决议案 9
切尔诺@@ 9
刑警 9
利息收入 9
北大西洋公约组织 9
参政 9
參@@ 9
受援国 9
司法独立 9
同时@@ 9
吏@@ 9
吡 9
呣 9
和表 9
咔 9
咝 9
咻 9
哐@@ 9
哔 9
喀什 9
嗬 9
嗳 9
嘀 9
嘛@@ 9
囔@@ 9
国际公约 9
国际法院 9
圣卢西亚 9
圣多@@ 9
在实践@@ 9
坍 9
埃塞俄比亚@@ 9
基里巴斯 9
堑@@ 9
墨西哥政府 9
复员 9
大西洋@@ 9
妍@@ 9
实质@@ 9
审计长 9
家庭事务 9
对话者 9
尉@@ 9
小小@@ 9
少年犯 9
工业部门 9
工作队 9
己烷 9
巽@@ 9
帕劳 9
帛 9
常规武器 9
应邀@@ 9
开发银行 9
志愿@@ 9
怩@@ 9
总协定 9
恻 9
戎@@ 9
所以@@ 9
所涉 9
所负 9
抗灾 9
拉丹 9
捩@@ 9
捺@@ 9
搀 9
撂@@ 9
擀 9
政治局势 9
敝@@ 9
整个@@ 9
新的@@ 9
方在 9
明斯克 9
有悖于 9
朊 9
朊@@ 9
栉 9
核销 9
格林纳达 9
桧 9
椹 9
榆 9
槌@@ 9
樱 9
正教 9
正规化 9
此项工作 9
殆 9
毓@@ 9
比勒陀利亚 9
比照 9
氅 9
民族解放 9
氙 9
永久@@ 9
沆@@ 9
沏@@ 9
法院@@ 9
海洋资源 9
淙@@ 9
滇 9
滥杀 9
瀣@@ 9
炕 9
炳 9
特立尼@@ 9
玄 9
珞 9
琦@@ 9
瑞典政府 9
璃@@ 9
瓦努阿图 9
瓮@@ 9
痱@@ 9
痲@@ 9
痳 9
痼@@ 9
瘩@@ 9
眦 9
瞟@@ 9
磬 9
祢@@ 9
禹@@ 9
稜 9
稞 9
種 9
窈@@ 9
窕 9
窸 9
笆@@ 9
符合国际 9
第一百 9
第七十@@ 9
第三十三条 9
第三届 9
第九届 9
第八次 9
第四十一条 9
篦@@ 9
粑 9
糅 9
紧急行动 9
红新月会 9
纶@@ 9
继续加强 9
缨 9
缫@@ 9
联合国总部 9
联络官 9
舂 9
苄@@ 9
苎@@ 9
苏里南 9
茔 9
茛 9
莺@@ 9
菏@@ 9
菪@@ 9
蕃 9
薮 9
虺 9
蛐 9
蜴@@ 9
行政当局 9
衡平 9
补助@@ 9
裁决@@ 9
裁撤 9
裥 9
解放组织 9
解放阵线 9
論 9
诏@@ 9
该司 9
谀 9
谶@@ 9
豺 9
责任制 9
货物@@ 9
赤道@@ 9
趴 9
跎 9
踟@@ 9
踽@@ 9
迟交 9
部将 9
郸 9
钴@@ 9
铄 9
铑 9
雹@@ 9
顷 9
预算内 9
领土@@ 9
领域@@ 9
颍 9
飨 9
餍 9
饴@@ 9
马其顿@@ 9
驭@@ 9
驮@@ 9
鲐 9
鲛 9
鹑@@ 9
鹬@@ 9
鼓励@@ 9
龃@@ 9
龉 9
0.9 8
1.25 8
10.5 8
166 8
167 8
17.@@ 8
172 8
173 8
1820 8
195 8
196 8
2.9 8
208 8
215 8
216 8
217 8
23.@@ 8
232 8
238 8
239 8
24.@@ 8
246 8
273 8
281 8
294 8
295 8
302 8
311 8
34@@ 8
373 8
378 8
386 8
4.7 8
4.9 8
447 8
451 8
490 8
5.7 8
510 8
520 8
525 8
6.1 8
7.7 8
7.9 8
8.7 8
870 8
920 8
950 8
95@@ 8
960 8
AE 8
ARC 8
ATS 8
Administr@@ 8
Ale@@ 8
Ass@@ 8
Associ@@ 8
Authority 8
Autom@@ 8
Avenue 8
Avi@@ 8
BD 8
Base 8
Bish@@ 8
Brig@@ 8
CB 8
CCA@@ 8
CCC 8
CFC 8
CIT@@ 8
Chen 8
Church 8
Class 8
Comp@@ 8
Core 8
Coun@@ 8
Daily 8
Datab@@ 8
Department 8
E2 8
EST@@ 8
Earth 8
Electric 8
Emer@@ 8
End 8
Es@@ 8
Ex 8
Fail@@ 8
Focus 8
Fuk@@ 8
GRA@@ 8
George 8
German@@ 8
God@@ 8
Hall 8
House@@ 8
IK@@ 8
INA 8
IND@@ 8
INF@@ 8
IU@@ 8
Isa@@ 8
KA@@ 8
KM 8
Kath@@ 8
LOG@@ 8
Land@@ 8
Lehman 8
MSIL 8
Mach@@ 8
Media 8
ND 8
Nan@@ 8
Ny@@ 8
Ot@@ 8
Out 8
Pap@@ 8
Pop@@ 8
Post 8
Pris@@ 8
Program 8
Putin 8
Quanti@@ 8
Que@@ 8
RTS 8
Request 8
Reserv@@ 8
Resul@@ 8
Rou@@ 8
SI@@ 8
SUB@@ 8
Sa 8
Sad@@ 8
Save 8
Scre@@ 8
Search 8
Self 8
Sem@@ 8
Series 8
Session 8
Spi@@ 8
Sti@@ 8
TC@@ 8
Tran@@ 8
Tren@@ 8
UA 8
UR 8
Update 8
Vic@@ 8
WG@@ 8
Wor@@ 8
Zero 8
adi@@ 8
afi 8
ale@@ 8
alli@@ 8
angel@@ 8
anger 8
anti@@ 8
ards 8
arib@@ 8
arm@@ 8
ashi 8
asy 8
atin@@ 8
bai@@ 8
bie 8
boo@@ 8
burn 8
car 8
cer 8
chan@@ 8
chem@@ 8
chen 8
column 8
cy 8
dar@@ 8
default 8
dog@@ 8
dol@@ 8
don 8
dor@@ 8
dri@@ 8
ebr@@ 8
eda 8
ells 8
ems 8
enter@@ 8
eva 8
ever 8
fi 8
find 8
fir@@ 8
flash 8
gate 8
ger@@ 8
gie 8
gor@@ 8
gri@@ 8
hand@@ 8
hon@@ 8
ical 8
ies@@ 8
ille 8
inding 8
install 8
instance 8
iter@@ 8
ja 8
join 8
kes 8
kov 8
lander 8
las@@ 8
lev@@ 8
lips 8
lit 8
lot 8
manager 8
mel 8
meth@@ 8
mor@@ 8
multi@@ 8
ness 8
new@@ 8
night 8
ning 8
oa 8
obby 8
ography 8
olu@@ 8
onom@@ 8
pass@@ 8
path 8
pin@@ 8
play@@ 8
pre 8
pres@@ 8
press 8
que@@ 8
ques@@ 8
qui@@ 8
quo 8
ral 8
range 8
raph@@ 8
ras@@ 8
rd@@ 8
read 8
rel 8
sar@@ 8
sca@@ 8
scri@@ 8
select 8
ship@@ 8
shor@@ 8
side 8
side@@ 8
sin 8
sive 8
sk 8
ska 8
stat@@ 8
sul@@ 8
tail 8
talk 8
tan 8
tha 8
tin 8
tina 8
tions 8
top@@ 8
ula 8
ut 8
uto 8
vil 8
wa 8
wan@@ 8
ways 8
we 8
wi@@ 8
will 8
write 8
yn 8
zo 8
一审 8
三分@@ 8
上涨@@ 8
不结@@ 8
专门机构 8
世界气象组织 8
丨 8
中所作 8
中等教育 8
之角 8
人民代表大会 8
人民检察院 8
以下内容 8
伊拉@@ 8
会谈@@ 8
但须 8
佰@@ 8
侦 8
侩 8
促请 8
傥 8
儡@@ 8
全国人民代表大会 8
全面落实 8
冇 8
冲突@@ 8
减贫 8
分在 8
分机 8
刚果共和国 8
加尼 8
勤人员 8
占领区 8
卦@@ 8
发出通知 8
发展部 8
各段 8
呲 8
咿 8
哧@@ 8
唛 8
唾 8
嗔@@ 8
嘤 8
噤 8
嚥 8
回返 8
国名 8
国际劳工组织 8
基本建设 8
堇@@ 8
墒 8
壬 8
大西@@ 8
妇女组织 8
娅@@ 8
婚内 8
嬴 8
孺@@ 8
审查会议 8
對 8
小组会议 8
尧@@ 8
尼泊尔@@ 8
尼泊尔政府 8
屌 8
嵩@@ 8
差旅 8
布达@@ 8
应收款 8
弑@@ 8
必不可@@ 8
忤@@ 8
总体目标 8
悱@@ 8
情事 8
抻 8
拥有@@ 8
拨付 8
捐助@@ 8
提交@@ 8
搡@@ 8
敖 8
教育法 8
斛 8
晟 8
普通教育 8
最低标准 8
最终@@ 8
未用 8
朱巴 8
权益@@ 8
杷 8
核证 8
桉 8
梓@@ 8
楝 8
槲 8
橇@@ 8
橹 8
求偿 8
汇总表 8
洙 8
海盗行为 8
涩@@ 8
涪@@ 8
淙 8
澳门@@ 8
煜 8
煲@@ 8
熹 8
特克斯 8
狨 8
玟 8
环境退化 8
玻利瓦尔 8
瑞士政府 8
璧@@ 8
瓴 8
町@@ 8
疳 8
疵@@ 8
痧 8
痲 8
瘪@@ 8
癜@@ 8
睦 8
睦邻@@ 8
瞿@@ 8
矍@@ 8
砣 8
祺 8
空间信息 8
窣 8
第三期 8
第十一届 8
第纳尔 8
筮 8
管理条例 8
篦 8
簪@@ 8
籼@@ 8
紧急状况 8
绀 8
绗 8
绻 8
缒 8
罟 8
美洲国家组织 8
职务@@ 8
聩 8
胁@@ 8
腧@@ 8
自决权 8
船舶@@ 8
艾哈@@ 8
芍 8
芎@@ 8
芷 8
苋@@ 8
苯丙@@ 8
茉 8
莠@@ 8
萍@@ 8
萨赫勒 8
萱 8
蓣 8
蓿@@ 8
藕@@ 8
衪 8
襞 8
訇 8
议事规则 8
诏 8
貉 8
贯彻@@ 8
跶 8
辄@@ 8
辍学率 8
述及 8
选举法 8
過 8
遏@@ 8
還@@ 8
醅 8
醚@@ 8
醣 8
里亚尔 8
钆 8
钍 8
钰 8
钵@@ 8
钸 8
镦 8
阜 8
阮 8
阿马 8
隧 8
霰 8
非核心 8
靼@@ 8
预警@@ 8
颦@@ 8
驹@@ 8
骛 8
鲫 8
鲼 8
鳔 8
麋 8
麝 8
黉 8
黔 8
黯 8
齑@@ 8
153 7
159 7
177 7
218 7
26.@@ 7
289 7
299 7
3.9 7
303 7
32@@ 7
333 7
355 7
385 7
401 7
405 7
455 7
475 7
47@@ 7
590 7
6.4 7
630 7
64@@ 7
660 7
78@@ 7
8.4 7
9.5 7
9.8 7
ACC 7
Aar@@ 7
Abstr@@ 7
Abu@@ 7
Add 7
All 7
Aw@@ 7
Ay@@ 7
BT@@ 7
Bam@@ 7
Beth@@ 7
Bog@@ 7
Brian 7
Brun@@ 7
Business 7
CFA 7
CRC 7
Cab@@ 7
Cer@@ 7
Channel 7
Clin@@ 7
Collabor@@ 7
Congres@@ 7
County 7
Cour@@ 7
Court 7
DF@@ 7
Daniel 7
Deleg@@ 7
Delete 7
Document 7
Dol@@ 7
Dru@@ 7
ENT@@ 7
Economics 7
Editor 7
Electr@@ 7
Expec@@ 7
Extension 7
F3 7
FIF@@ 7
Face@@ 7
Flem@@ 7
Fon@@ 7
Foot@@ 7
Francis 7
GEN@@ 7
GRO@@ 7
Gab@@ 7
Get 7
Hague 7
Haz@@ 7
Hi 7
Hiro@@ 7
Holdings 7
Hom@@ 7
Hos@@ 7
Hotel 7
ICA 7
IH 7
ILO 7
INTER@@ 7
Imp@@ 7
Initi@@ 7
Jal@@ 7
Kaz@@ 7
King@@ 7
Kor@@ 7
Kou@@ 7
Kra@@ 7
LEX 7
LG@@ 7
LY 7
La 7
Lat@@ 7
Lay@@ 7
Library 7
MAS 7
MIC 7
Mam@@ 7
Mark 7
Maur@@ 7
Maxim@@ 7
May 7
Mee@@ 7
Method@@ 7
Mi 7
Mig@@ 7
Ms 7
Nab@@ 7
Nelson 7
Nev@@ 7
Og@@ 7
PPP 7
Pak@@ 7
Penn@@ 7
People@@ 7
Pet@@ 7
Plac@@ 7
Port 7
Prin@@ 7
Program@@ 7
Rate 7
Regis@@ 7
Remote 7
Reports 7
Rest@@ 7
Review 7
Revolution 7
Right@@ 7
Robert 7
Robinson 7
Rod@@ 7
SCC@@ 7
SEC@@ 7
SN 7
Sc@@ 7
Seg@@ 7
Shan@@ 7
Shin 7
Sid@@ 7
Sis@@ 7
Smart 7
Society 7
Sony 7
Sor@@ 7
Sup@@ 7
Tam@@ 7
Tay@@ 7
Team 7
Tol@@ 7
Ton@@ 7
UNESCO 7
USA@@ 7
Union 7
Valley 7
Value 7
Var@@ 7
WFP 7
WP 7
Wang 7
Water@@ 7
Whe@@ 7
Wu 7
Ze@@ 7
access@@ 7
acqu@@ 7
acti@@ 7
address 7
aging 7
alism 7
alization 7
amp@@ 7
angle 7
ank 7
aps 7
ardi@@ 7
aren 7
arian 7
arm 7
athan 7
ather 7
ato@@ 7
aux 7
ays 7
backlog 7
ban 7
bed 7
bel@@ 7
bench 7
bis@@ 7
bow 7
cal 7
call@@ 7
cent@@ 7
ces 7
cia 7
comm@@ 7
cred@@ 7
dam@@ 7
day@@ 7
delete 7
dictionary 7
du 7
duc@@ 7
eigh@@ 7
else 7
eo 7
ep 7
epr@@ 7
ept 7
eral 7
erts 7
ese 7
eth@@ 7
etter 7
fle@@ 7
former 7
fri@@ 7
gay 7
gel 7
gram 7
had@@ 7
hen 7
hen@@ 7
her 7
het 7
home 7
hos@@ 7
host 7
hou@@ 7
hu 7
icity 7
ida 7
iles 7
illi@@ 7
inte@@ 7
iri 7
itch 7
itude 7
ized 7
jan 7
ka@@ 7
kg 7
kill 7
know 7
lab 7
lar@@ 7
lau@@ 7
led 7
lia 7
line@@ 7
liv@@ 7
los 7
lower 7
mart 7
mix@@ 7
mo 7
navig@@ 7
now 7
now@@ 7
objec@@ 7
occ@@ 7
odd 7
oles@@ 7
oner 7
onic 7
onna 7
onne 7
oot 7
order 7
osen 7
ound 7
outh 7
oz@@ 7
pec@@ 7
ply 7
po 7
pool 7
project 7
pul@@ 7
ram 7
ray@@ 7
return 7
rev@@ 7
ria 7
ride 7
rig@@ 7
ring 7
road 7
roc@@ 7
role 7
rom 7
ror@@ 7
sal@@ 7
saw 7
say 7
say@@ 7
sc 7
ses@@ 7
sibl@@ 7
sit@@ 7
soc@@ 7
sole 7
spe@@ 7
spl@@ 7
state 7
stock 7
stri@@ 7
struc@@ 7
style 7
sun@@ 7
tam@@ 7
techn@@ 7
tent 7
tes 7
this 7
tic 7
til@@ 7
tine 7
tol@@ 7
top 7
torial 7
trace 7
tru@@ 7
ustin 7
utter 7
view@@ 7
wich 7
win@@ 7
wis@@ 7
with 7
world 7
worth 7
Ω 7
三年期 7
下称 7
丕 7
丞@@ 7
个省 7
主权@@ 7
主管机构 7
乌萨马 7
二苯醚 7
五十周年 7
亳@@ 7
人权委员会 7
住民 7
体制性 7
佚@@ 7
作贡献 7
佟@@ 7
佣工 7
佤 7
佯 7
侄 7
供其 7
供资 7
倨@@ 7
允许@@ 7
全时 7
六项 7
决算 7
刈@@ 7
划界 7
列有 7
初等教育 7
制宪 7
剐 7
匾@@ 7
南斯拉夫@@ 7
卡拉巴赫 7
参与权 7
口头报告 7
可靠@@ 7
各族@@ 7
各项措施 7
呓 7
和准 7
唠 7
嗄 7
嗥 7
噔 7
噗@@ 7
噘 7
噘@@ 7
嚓@@ 7
四届 7
国内法 7
国在 7
国民军 7
国际私法 7
国际货币@@ 7
圆桌会议 7
在案 7
圩@@ 7
基伍 7
基加利 7
壬@@ 7
声明@@ 7
外侨 7
外聘 7
多层面 7
大体@@ 7
奘 7
妇女儿童 7
妪 7
姘@@ 7
娟@@ 7
娥@@ 7
子孙@@ 7
孵 7
孺 7
安非他明 7
宛 7
审前 7
宣传教育 7
寅 7
尊重人权 7
尓 7
尔尼@@ 7
峪 7
嵩 7
巯@@ 7
已登记 7
帏 7
幡@@ 7
延至 7
开展调查 7
待定 7
恢 7
悒 7
惘@@ 7
憧 7
戌@@ 7
成员@@ 7
扎伊尔 7
报告员 7
拇 7
损于 7
捱 7
探矿 7
摊派 7
擎 7
擘@@ 7
斟 7
新生力量 7
日为 7
日向 7
昕 7
普里@@ 7
曩 7
最惠国 7
有的@@ 7
朝鲜民主主义人民共和国 7
期为 7
案文 7
桧@@ 7
椁 7
椰 7
楦 7
槿@@ 7
橛@@ 7
橡 7
殴@@ 7
民间团体 7
氯苯 7
汆 7
汊 7
汨@@ 7
汲 7
沂 7
沂@@ 7
泔@@ 7
海牙@@ 7
海牙公约 7
潇 7
澧@@ 7
澹 7
特派团 7
特立尼达和多巴哥 7
犊@@ 7
犟 7
狯 7
玑 7
环境治理 7
环境部 7
玷 7
玻利@@ 7
瑙鲁 7
璨@@ 7
甭@@ 7
疥 7
痨 7
盂@@ 7
盎 7
盘存 7
真正@@ 7
眦@@ 7
着重@@ 7
砻@@ 7
硐 7
科摩罗 7
积极合作 7
积极开展 7
移民@@ 7
空间科学 7
窠@@ 7
竞争法 7
笤@@ 7
第三国 7
第二十九条 7
第二十二条 7
第二号 7
第二款 7
第五十 7
箕@@ 7
纠 7
经济委员会 7
经管 7
结果@@ 7
绢@@ 7
绮 7
罗姆人 7
美属 7
翎 7
耄@@ 7
耘@@ 7
耶路撒@@ 7
联合国开发计划署 7
肟 7
脘 7
腑@@ 7
航空安全 7
苒 7
荃@@ 7
荠 7
荻 7
莠 7
萨摩@@ 7
葚 7
葶 7
虫剂 7
蚝@@ 7
蟾 7
衅 7
行政事务 7
裁军谈判 7
襻 7
西非国家 7
计划署 7
订约 7
证据不足 7
证据规则 7
谒@@ 7
谗 7
谲 7
赣 7
赫勒@@ 7
赳 7
起诉@@ 7
蹼@@ 7
轫 7
转递 7
轲 7
轳 7
迂 7
迄今@@ 7
迤 7
迸 7
通信卫星 7
通过培训 7
邦特 7
醪 7
醯 7
金沙@@ 7
钌 7
钣 7
铷 7
镲 7
闭会 7
闵 7
阿塞@@ 7
阿布贾 7
陌生@@ 7
雉@@ 7
雍 7
韬@@ 7
颀@@ 7
颏@@ 7
颓 7
馊@@ 7
馐 7
馥 7
马拉喀什 7
马绍尔群岛 7
驱逐令 7
髌 7
髭 7
髭@@ 7
鲹 7
鳌@@ 7
鹀 7
鹭@@ 7
黧@@ 7
黩@@ 7
鼱 7
龅@@ 7
002 6
08@@ 6
10.1 6
12.7 6
16.@@ 6
169 6
171 6
1803 6
181 6
189 6
191 6
197 6
2000@@ 6
211 6
248 6
292 6
2A 6
327 6
364 6
381 6
399 6
4.1 6
407 6
412 6
425 6
432 6
434 6
5.8 6
50.@@ 6
540 6
560 6
581 6
6.2 6
6.8 6
620 6
680 6
68@@ 6
720 6
76@@ 6
8.2 6
85@@ 6
9.3 6
901 6
940 6
ACS 6
ACT@@ 6
AU 6
Academy 6
Account 6
Activity 6
Aer@@ 6
Ala@@ 6
Alg@@ 6
Ali 6
Anthony 6
Arts 6
Atlas 6
Audi@@ 6
Beau@@ 6
Ben 6
Bio@@ 6
Budge@@ 6
Build 6
CAC 6
CER 6
CPC 6
CW 6
Cay@@ 6
Centre 6
Charlie 6
Chem@@ 6
Chris 6
Clu@@ 6
Collec@@ 6
Collection 6
Com 6
Congress 6
Consul@@ 6
Cri@@ 6
Cum@@ 6
DAC 6
DFS 6
DIS 6
DU@@ 6
Dak@@ 6
Delta 6
Democr@@ 6
Director@@ 6
Dum@@ 6
ECT@@ 6
El 6
Entity 6
Events 6
Exam@@ 6
Expres@@ 6
FTA 6
Fati@@ 6
Fig@@ 6
First 6
Fs 6
Fur@@ 6
Gib@@ 6
Gom@@ 6
Guil@@ 6
HK@@ 6
HL@@ 6
Hab@@ 6
Heal@@ 6
Henry 6
Hit@@ 6
Hussein 6
IEC 6
INF 6
IOC 6
IZ@@ 6
If 6
Industri@@ 6
Integration 6
Israel 6
It@@ 6
Jin@@ 6
Journ@@ 6
Kil@@ 6
LES 6
Lav@@ 6
League 6
Less@@ 6
Liver@@ 6
Long@@ 6
Loo@@ 6
MENT 6
MER@@ 6
MIN@@ 6
Mars 6
Marshall 6
Master 6
Meg@@ 6
Mutual 6
NAS@@ 6
Nak@@ 6
Nature 6
Network 6
Next 6
Ngu@@ 6
OE@@ 6
Objects 6
Od@@ 6
Off@@ 6
Olymp@@ 6
Organization 6
PCN@@ 6
PEN@@ 6
Pil@@ 6
Prec@@ 6
RIC@@ 6
Rac@@ 6
Reduce 6
Repl@@ 6
Report 6
Ris@@ 6
Riv@@ 6
Rum@@ 6
SPEC@@ 6
STAT@@ 6
SU 6
Sak@@ 6
Sat@@ 6
Schol@@ 6
Steph@@ 6
Steve 6
Stri@@ 6
Strip 6
Summ@@ 6
Susan 6
Systems 6
TIC@@ 6
Tab@@ 6
Tai@@ 6
Thomas 6
Tit@@ 6
Trade 6
Treat@@ 6
VII 6
VIS@@ 6
Valen@@ 6
Veg@@ 6
Viol@@ 6
WG 6
Watch 6
Wed@@ 6
Wu@@ 6
Yam@@ 6
You 6
Zhang 6
Zi@@ 6
Zu@@ 6
ability 6
account 6
ached 6
action@@ 6
active 6
aid 6
aim@@ 6
annot@@ 6
aria 6
asi@@ 6
atol@@ 6
att 6
avier 6
aw 6
aware 6
azz@@ 6
bab@@ 6
bad 6
binding 6
bon 6
boss 6
bour@@ 6
bread@@ 6
break 6
break@@ 6
brid@@ 6
brow@@ 6
bus 6
business@@ 6
cad@@ 6
cam@@ 6
cap@@ 6
cha 6
check 6
chester 6
cin@@ 6
cks 6
cky 6
config@@ 6
connec@@ 6
continuation 6
cos@@ 6
cou@@ 6
cra@@ 6
crip@@ 6
cross 6
custom@@ 6
cut@@ 6
database 6
deb@@ 6
depend@@ 6
dev@@ 6
device 6
dez 6
did@@ 6
disc@@ 6
disk 6
domain 6
edes 6
ef 6
ei 6
eland 6
ele 6
eline 6
ely 6
enko 6
enter 6
enz@@ 6
erc@@ 6
ern 6
error 6
ession@@ 6
eton 6
execu@@ 6
fer@@ 6
first 6
fix 6
free 6
fron@@ 6
gam@@ 6
gar 6
gen 6
gers 6
gets 6
gi 6
graph 6
gy 6
gy@@ 6
have 6
head 6
hill 6
hin@@ 6
hip 6
hot@@ 6
ial 6
ib 6
ican 6
ichi 6
ify 6
igh 6
ight 6
igi@@ 6
image 6
import 6
info 6
ingh@@ 6
initi@@ 6
inner 6
inst@@ 6
ios 6
iss 6
ists 6
iter 6
itory 6
ius 6
iya 6
kh 6
lab@@ 6
lake 6
late 6
law@@ 6
lett 6
light@@ 6
live 6
liver 6
long 6
mac@@ 6
mar 6
mas@@ 6
mg 6
mi 6
micro@@ 6
mos@@ 6
mount 6
nit@@ 6
oe 6
oi 6
olds 6
oline 6
onomy 6
oom 6
oon 6
order@@ 6
orders 6
org@@ 6
oro 6
ouse 6
output 6
owe 6
park 6
pd@@ 6
pdf 6
pel 6
pic@@ 6
plo@@ 6
ploy@@ 6
poll 6
portal 6
pra@@ 6
pro 6
process@@ 6
properties 6
qualif@@ 6
rad@@ 6
rates 6
roll 6
ror 6
rose 6
sar 6
sary 6
science 6
sec@@ 6
sell 6
sem@@ 6
sense 6
services 6
ship 6
shire 6
site 6
sn@@ 6
sni@@ 6
spin 6
staff 6
sto@@ 6
sty@@ 6
super@@ 6
synchron@@ 6
tac@@ 6
tag@@ 6
take@@ 6
technology 6
ted 6
tex@@ 6
them@@ 6
thum@@ 6
till@@ 6
times 6
tree 6
tude 6
uli@@ 6
ume 6
uri 6
ust 6
van 6
ven 6
ves@@ 6
vian 6
void 6
vol@@ 6
war 6
ware@@ 6
was@@ 6
water@@ 6
way@@ 6
wide 6
window 6
woman 6
your@@ 6
yu@@ 6
zer@@ 6
zero 6
zh@@ 6
丌 6
不罚 6
与会@@ 6
东南欧 6
二苯@@ 6
亥 6
亩@@ 6
亳 6
人权法 6
人身保护 6
仞 6
仨 6
伊斯坦@@ 6
伊朗伊斯兰共和国 6
会议纪要 6
伶 6
住区 6
住房问题 6
余留 6
佟 6
佰 6
信息网 6
俬 6
倜@@ 6
借调 6
傩 6
兑换@@ 6
全民投票 6
全民教育 6
兩@@ 6
冼 6
净额 6
分庭 6
切实有效 6
力支持 6
劭 6
劳资关系 6
勰 6
匈 6
十七届 6
南南合作 6
卯 6
即应 6
双边合作 6
发展权 6
各区 6
各项@@ 6
吩 6
呓@@ 6
周知 6
咂@@ 6
咣@@ 6
哉@@ 6
哋 6
哥伦比亚政府 6
啫@@ 6
啵 6
嗲 6
嘁@@ 6
嚯 6
国际刑警组织 6
圜 6
坂 6
坤@@ 6
基里@@ 6
塔吉克 6
塞人 6
外交使团 6
大多数@@ 6
奁 6
妇女地位 6
委内瑞@@ 6
姣 6
娩@@ 6
嫣 6
孀@@ 6
宙 6
实现@@ 6
密克罗尼@@ 6
尼加拉@@ 6
岚@@ 6
岿@@ 6
嵘 6
工作文件 6
巿 6
布基@@ 6
帑 6
帜@@ 6
帧@@ 6
平等待遇 6
幵 6
废弃@@ 6
庭长 6
庾@@ 6
开幕词 6
彀 6
徊@@ 6
徳 6
忻@@ 6
忾 6
总务 6
总支出 6
恚 6
恬 6
悻@@ 6
戍 6
扈@@ 6
投标书 6
撩 6
支出@@ 6
教育部门 6
散会 6
数以千@@ 6
新闻部 6
旮@@ 6
旯 6
晏@@ 6
晤 6
普惠@@ 6
有权@@ 6
机构@@ 6
杵@@ 6
柠 6
桕 6
棣 6
椿@@ 6
楝@@ 6
楸 6
樣 6
樨 6
橼@@ 6
檄@@ 6
欧洲共同体 6
殚 6
毗 6
毛里塔尼亚 6
沒 6
波多@@ 6
泮@@ 6
浒 6
淩 6
渝@@ 6
溼 6
滴滴涕 6
漩 6
炀@@ 6
烊 6
焘 6
燊@@ 6
牴@@ 6
犰@@ 6
狳 6
猷 6
玖@@ 6
玻 6
珐 6
璞@@ 6
瓯@@ 6
產@@ 6
甾 6
留用 6
畚@@ 6
痹@@ 6
真诚@@ 6
睚@@ 6
睫 6
硒@@ 6
硷 6
祈 6
福利金 6
稗 6
窠 6
第七届 6
第三十五条 6
第三款 6
第二句 6
第六十六 6
第四十条 6
签署国 6
籼 6
精算 6
粿 6
糯 6
索赔人 6
絔 6
纂@@ 6
纣@@ 6
纪要 6
组织法 6
维埃 6
缔约@@ 6
缩编 6
缱@@ 6
罄@@ 6
罗德里@@ 6
耆 6
耽 6
聂 6
股市@@ 6
膨 6
自给@@ 6
臾 6
舫 6
舶@@ 6
英属维尔京群岛 6
苹 6
荏@@ 6
荸@@ 6
莪@@ 6
葖 6
蓇@@ 6
蓝线 6
蕊@@ 6
虻 6
蚩@@ 6
蛄 6
蝥 6
蟑 6
蟠@@ 6
蟥 6
衞 6
衮 6
褊@@ 6
褫@@ 6
规划署 6
规定@@ 6
識 6
讓 6
讪@@ 6
讼@@ 6
证据@@ 6
诃 6
诌 6
诠@@ 6
该署 6
谆 6
谈会 6
谪 6
谴@@ 6
豸 6
贩卖人口 6
赭 6
躅 6
轶 6
辇 6
迳 6
追究@@ 6
這 6
逵 6
逶@@ 6
邝 6
邝@@ 6
酢 6
鏖@@ 6
钿 6
铙@@ 6
铨 6
铩@@ 6
铱@@ 6
铳 6
锝 6
镕@@ 6
镖@@ 6
镡 6
镴 6
闫@@ 6
闾 6
阪@@ 6
阿方@@ 6
阿根廷@@ 6
阿根廷政府 6
隶@@ 6
雯@@ 6
霏@@ 6
鞣 6
饪@@ 6
馊 6
马其@@ 6
骛@@ 6
骥 6
魑@@ 6
鲕 6
鸥@@ 6
鸨 6
鸾 6
鹦 6
鹮 6
］ 6
0.00@@ 5
1.0@@ 5
115@@ 5
134 5
162 5
174 5
18.@@ 5
186 5
1882 5
197@@ 5
2.45 5
2005@@ 5
2006@@ 5
224 5
227 5
231 5
234 5
236 5
254 5
262 5
276 5
28.@@ 5
288 5
296 5
306 5
319 5
328 5
334 5
335 5
336 5
345 5
346 5
358 5
377 5
402 5
406 5
411 5
46@@ 5
5.4 5
502 5
522 5
56@@ 5
6.9 5
602 5
610 5
67@@ 5
7.4 5
710 5
725 5
760 5
777 5
778 5
8.3 5
8.9 5
815 5
827 5
860 5
86@@ 5
871 5
9.1 5
980 5
ARD 5
Abdullah 5
Accoun@@ 5
Afric@@ 5
Age 5
Airlines 5
Analysis 5
Ann 5
Astr@@ 5
Atlan@@ 5
Bach@@ 5
Band@@ 5
Bar 5
Basic 5
Batt@@ 5
Beg@@ 5
Bh@@ 5
Body 5
Bot@@ 5
Brid@@ 5
Bridge 5
CBD 5
CST 5
Call 5
Cambridge 5
Canada 5
Central 5
Changes 5
Chic@@ 5
Chil@@ 5
Commer@@ 5
Continu@@ 5
Cs 5
Curren@@ 5
Deb@@ 5
Deg@@ 5
Details 5
Development 5
Din@@ 5
Direct 5
Div@@ 5
Dj@@ 5
Do 5
Double 5
Dut@@ 5
ECO@@ 5
Edward 5
Environ@@ 5
Ep@@ 5
Ess@@ 5
FAO 5
Fann@@ 5
Field 5
Fif@@ 5
Forest 5
Fund@@ 5
GLO@@ 5
Gan@@ 5
Gir@@ 5
Girl 5
Gordon 5
Grou@@ 5
Guide 5
Gun@@ 5
HFC 5
Hamburg 5
Hamp@@ 5
Hans 5
Harvard 5
Hash@@ 5
Hong@@ 5
ITC 5
ITS 5
Industries 5
Information 5
Innov@@ 5
Intranet 5
Inv@@ 5
Islands 5
It 5
JO@@ 5
Jab@@ 5
Jap@@ 5
Jordan 5
KO 5
KP 5
Kaf@@ 5
Khal@@ 5
Kore@@ 5
Land 5
Les 5
Liber@@ 5
Location 5
MAN 5
MIT@@ 5
MY@@ 5
Main@@ 5
Marie 5
Market 5
Moha@@ 5
Mom@@ 5
Muham@@ 5
NATO 5
NHR@@ 5
NPT 5
Nation 5
Nel@@ 5
Nou@@ 5
Num@@ 5
Nun@@ 5
Objective 5
Ocean@@ 5
Olym@@ 5
Omar 5
Orig@@ 5
PART@@ 5
PAS 5
PBC 5
PCP 5
PIC 5
PRC 5
Plat@@ 5
Polic@@ 5
Policy 5
Poly@@ 5
Prince 5
Priv@@ 5
Prize 5
Protocol 5
Quick 5
REDD 5
RY 5
Radio 5
Rat@@ 5
Real 5
Register 5
Requi@@ 5
Respon@@ 5
Ry@@ 5
Sea 5
Second@@ 5
Secu@@ 5
Select 5
Silva 5
Solid@@ 5
Som@@ 5
Standard 5
Station 5
Subject 5
Sud@@ 5
TAL 5
TRIPS 5
Test 5
Them@@ 5
Think 5
Tob@@ 5
Torres 5
Tour@@ 5
Treaty 5
Tul@@ 5
UNICEF 5
Village 5
Vincent 5
Virg@@ 5
WOR@@ 5
Way 5
Week 5
Woods 5
Yok@@ 5
Zah@@ 5
\ 5
aba 5
abo@@ 5
achi@@ 5
aci@@ 5
addy 5
adi 5
aer@@ 5
aka 5
aker 5
alis 5
ality 5
alt 5
ames 5
anth@@ 5
appen@@ 5
arch@@ 5
arity 5
aside 5
ask 5
atics 5
atus 5
aud@@ 5
audi@@ 5
bai 5
bat@@ 5
begin 5
bell 5
bes@@ 5
bet@@ 5
bic@@ 5
big@@ 5
blog@@ 5
blu@@ 5
bra 5
bridge 5
bring 5
bru@@ 5
but@@ 5
cab@@ 5
cap 5
card 5
cast@@ 5
cle 5
cles 5
cli@@ 5
controller 5
conver@@ 5
cover@@ 5
cue 5
cup 5
customer 5
decision 5
det@@ 5
dic@@ 5
dir@@ 5
dispose 5
drow@@ 5
ea 5
eas@@ 5
echan@@ 5
ego 5
eh 5
eil 5
else@@ 5
eman@@ 5
ement 5
endar 5
ennis 5
erb@@ 5
erous 5
erra 5
esa 5
ester@@ 5
eta 5
eter 5
eve 5
exit 5
expression 5
fail 5
fan 5
fec@@ 5
feder@@ 5
fee 5
feren@@ 5
ffee 5
fic@@ 5
fly 5
follow@@ 5
forward 5
four 5
ged 5
gene@@ 5
glass 5
good 5
gran@@ 5
grand@@ 5
ground@@ 5
group 5
group@@ 5
hara 5
has 5
heart@@ 5
hell 5
hia 5
hole 5
hoo@@ 5
hood 5
hot 5
hub 5
hydro@@ 5
iber@@ 5
ices 5
identi@@ 5
idi@@ 5
ids 5
iff 5
ight@@ 5
ij@@ 5
ila 5
ilo 5
ily 5
ima 5
inclu@@ 5
inten@@ 5
isi 5
istic 5
itch@@ 5
ive 5
iza 5
[...]
